{
  "version": "1.0",
  "truncation": null,
  "padding": null,
  "added_tokens": [
    {
      "id": 0,
      "content": "<unk>",
      "single_word": false,
      "lstrip": false,
      "rstrip": false,
      "normalized": false,
      "special": true
    },
    {
      "id": 1,
      "content": "<pad>",
      "single_word": false,
      "lstrip": false,
      "rstrip": false,
      "normalized": false,
      "special": true
    },
    {
      "id": 2,
      "content": "<bos>",
      "single_word": false,
      "lstrip": false,
      "rstrip": false,
      "normalized": false,
      "special": true
    },
    {
      "id": 3,
      "content": "<eos>",
      "single_word": false,
      "lstrip": false,
      "rstrip": false,
      "normalized": false,
      "special": true
    },
    {
      "id": 4,
      "content": "\n\n",
      "single_word": false,
      "lstrip": false,
      "rstrip": false,
      "normalized": false,
      "special": true
    }
  ],
  "normalizer": null,
  "pre_tokenizer": {
    "type": "Whitespace"
  },
  "post_processor": {
    "type": "TemplateProcessing",
    "single": [
      {
        "SpecialToken": {
          "id": "<bos>",
          "type_id": 0
        }
      },
      {
        "Sequence": {
          "id": "A",
          "type_id": 0
        }
      },
      {
        "SpecialToken": {
          "id": "<eos>",
          "type_id": 0
        }
      }
    ],
    "pair": [
      {
        "Sequence": {
          "id": "A",
          "type_id": 0
        }
      },
      {
        "Sequence": {
          "id": "B",
          "type_id": 1
        }
      }
    ],
    "special_tokens": {
      "<bos>": {
        "id": "<bos>",
        "ids": [
          2
        ],
        "tokens": [
          "<bos>"
        ]
      },
      "<eos>": {
        "id": "<eos>",
        "ids": [
          3
        ],
        "tokens": [
          "<eos>"
        ]
      }
    }
  },
  "decoder": null,
  "model": {
    "type": "WordPiece",
    "unk_token": "<unk>",
    "continuing_subword_prefix": "##",
    "max_input_chars_per_word": 100,
    "vocab": {
      "<unk>": 0,
      "<pad>": 1,
      "<bos>": 2,
      "<eos>": 3,
      "\n\n": 4,
      "!": 5,
      "\"": 6,
      "#": 7,
      "$": 8,
      "%": 9,
      "&": 10,
      "'": 11,
      "(": 12,
      ")": 13,
      "*": 14,
      "+": 15,
      ",": 16,
      "-": 17,
      ".": 18,
      "/": 19,
      "0": 20,
      "1": 21,
      "2": 22,
      "3": 23,
      "4": 24,
      "5": 25,
      "6": 26,
      "7": 27,
      "8": 28,
      "9": 29,
      ":": 30,
      ";": 31,
      "<": 32,
      "=": 33,
      ">": 34,
      "?": 35,
      "@": 36,
      "A": 37,
      "B": 38,
      "C": 39,
      "D": 40,
      "E": 41,
      "F": 42,
      "G": 43,
      "H": 44,
      "I": 45,
      "J": 46,
      "K": 47,
      "L": 48,
      "M": 49,
      "N": 50,
      "O": 51,
      "P": 52,
      "Q": 53,
      "R": 54,
      "S": 55,
      "T": 56,
      "U": 57,
      "V": 58,
      "W": 59,
      "X": 60,
      "Y": 61,
      "Z": 62,
      "[": 63,
      "\\": 64,
      "]": 65,
      "^": 66,
      "_": 67,
      "`": 68,
      "a": 69,
      "b": 70,
      "c": 71,
      "d": 72,
      "e": 73,
      "f": 74,
      "g": 75,
      "h": 76,
      "i": 77,
      "j": 78,
      "k": 79,
      "l": 80,
      "m": 81,
      "n": 82,
      "o": 83,
      "p": 84,
      "q": 85,
      "r": 86,
      "s": 87,
      "t": 88,
      "u": 89,
      "v": 90,
      "w": 91,
      "x": 92,
      "y": 93,
      "z": 94,
      "{": 95,
      "|": 96,
      "}": 97,
      "~": 98,
      "¡": 99,
      "£": 100,
      "§": 101,
      "©": 102,
      "«": 103,
      "®": 104,
      "¯": 105,
      "°": 106,
      "±": 107,
      "²": 108,
      "³": 109,
      "´": 110,
      "µ": 111,
      "¶": 112,
      "·": 113,
      "¹": 114,
      "º": 115,
      "»": 116,
      "½": 117,
      "¿": 118,
      "Á": 119,
      "Â": 120,
      "Å": 121,
      "Æ": 122,
      "È": 123,
      "É": 124,
      "Ö": 125,
      "×": 126,
      "Ø": 127,
      "Ü": 128,
      "ß": 129,
      "à": 130,
      "á": 131,
      "â": 132,
      "ã": 133,
      "ä": 134,
      "å": 135,
      "æ": 136,
      "ç": 137,
      "è": 138,
      "é": 139,
      "ê": 140,
      "ë": 141,
      "ì": 142,
      "í": 143,
      "î": 144,
      "ï": 145,
      "ñ": 146,
      "ò": 147,
      "ó": 148,
      "ô": 149,
      "õ": 150,
      "ö": 151,
      "ø": 152,
      "ù": 153,
      "ú": 154,
      "ü": 155,
      "ý": 156,
      "ā": 157,
      "ć": 158,
      "Č": 159,
      "č": 160,
      "đ": 161,
      "ė": 162,
      "ğ": 163,
      "ī": 164,
      "ı": 165,
      "Ł": 166,
      "ł": 167,
      "ń": 168,
      "ň": 169,
      "ő": 170,
      "œ": 171,
      "Ř": 172,
      "ř": 173,
      "ś": 174,
      "ş": 175,
      "Š": 176,
      "š": 177,
      "ū": 178,
      "Ž": 179,
      "ơ": 180,
      "ư": 181,
      "ǐ": 182,
      "ǒ": 183,
      "ǧ": 184,
      "ș": 185,
      "˙": 186,
      "˜": 187,
      "́": 188,
      "̂": 189,
      "̃": 190,
      "̄": 191,
      "̇": 192,
      "̈": 193,
      "̧": 194,
      "̵": 195,
      "α": 196,
      "θ": 197,
      "μ": 198,
      "ν": 199,
      "ξ": 200,
      "ρ": 201,
      "φ": 202,
      "ϕ": 203,
      "ϵ": 204,
      "Б": 205,
      "В": 206,
      "Г": 207,
      "Е": 208,
      "З": 209,
      "И": 210,
      "К": 211,
      "М": 212,
      "П": 213,
      "Р": 214,
      "С": 215,
      "Т": 216,
      "а": 217,
      "б": 218,
      "в": 219,
      "г": 220,
      "д": 221,
      "е": 222,
      "ж": 223,
      "з": 224,
      "и": 225,
      "й": 226,
      "к": 227,
      "л": 228,
      "м": 229,
      "н": 230,
      "о": 231,
      "п": 232,
      "р": 233,
      "с": 234,
      "т": 235,
      "у": 236,
      "ф": 237,
      "х": 238,
      "ц": 239,
      "ч": 240,
      "ш": 241,
      "щ": 242,
      "ы": 243,
      "ь": 244,
      "э": 245,
      "ю": 246,
      "я": 247,
      "ё": 248,
      "ḍ": 249,
      "ḡ": 250,
      "ḥ": 251,
      "ḷ": 252,
      "ṃ": 253,
      "ṅ": 254,
      "ṇ": 255,
      "ṛ": 256,
      "ṣ": 257,
      "ṭ": 258,
      "ạ": 259,
      "ầ": 260,
      "ẹ": 261,
      "ế": 262,
      "ề": 263,
      "ọ": 264,
      "ớ": 265,
      "ờ": 266,
      "ủ": 267,
      "‐": 268,
      "–": 269,
      "—": 270,
      "‖": 271,
      "‘": 272,
      "’": 273,
      "“": 274,
      "”": 275,
      "†": 276,
      "‡": 277,
      "•": 278,
      "‣": 279,
      "…": 280,
      "‬": 281,
      "′": 282,
      "″": 283,
      "⁢": 284,
      "⁰": 285,
      "⁴": 286,
      "⁵": 287,
      "⁶": 288,
      "⁷": 289,
      "⁸": 290,
      "⁹": 291,
      "₀": 292,
      "₁": 293,
      "₂": 294,
      "₃": 295,
      "₄": 296,
      "₅": 297,
      "₆": 298,
      "₇": 299,
      "₉": 300,
      "€": 301,
      "⃝": 302,
      "℃": 303,
      "™": 304,
      "↑": 305,
      "→": 306,
      "↓": 307,
      "∑": 308,
      "−": 309,
      "∥": 310,
      "⋅": 311,
      "⋮": 312,
      "①": 313,
      "②": 314,
      "③": 315,
      "④": 316,
      "⑤": 317,
      "⑥": 318,
      "⑦": 319,
      "⑧": 320,
      "○": 321,
      "●": 322,
      "◑": 323,
      "✓": 324,
      "✔": 325,
      "✕": 326,
      "✖": 327,
      "✗": 328,
      "✘": 329,
      "✚": 330,
      "✝": 331,
      "➀": 332,
      "➁": 333,
      "➂": 334,
      "➃": 335,
      "➆": 336,
      "➈": 337,
      "➉": 338,
      "⟨": 339,
      "⟩": 340,
      "。": 341,
      "こ": 342,
      "し": 343,
      "す": 344,
      "た": 345,
      "て": 346,
      "で": 347,
      "と": 348,
      "に": 349,
      "の": 350,
      "は": 351,
      "び": 352,
      "よ": 353,
      "り": 354,
      "る": 355,
      "れ": 356,
      "を": 357,
      "ィ": 358,
      "ウ": 359,
      "サ": 360,
      "ス": 361,
      "セ": 362,
      "タ": 363,
      "テ": 364,
      "ト": 365,
      "パ": 366,
      "フ": 367,
      "ラ": 368,
      "ル": 369,
      "ロ": 370,
      "ン": 371,
      "・": 372,
      "ー": 373,
      "下": 374,
      "位": 375,
      "例": 376,
      "免": 377,
      "入": 378,
      "内": 379,
      "出": 380,
      "制": 381,
      "動": 382,
      "化": 383,
      "医": 384,
      "原": 385,
      "及": 386,
      "合": 387,
      "国": 388,
      "圧": 389,
      "増": 390,
      "変": 391,
      "女": 392,
      "学": 393,
      "対": 394,
      "差": 395,
      "年": 396,
      "式": 397,
      "御": 398,
      "急": 399,
      "性": 400,
      "患": 401,
      "悪": 402,
      "施": 403,
      "日": 404,
      "最": 405,
      "月": 406,
      "査": 407,
      "検": 408,
      "構": 409,
      "機": 410,
      "流": 411,
      "浮": 412,
      "清": 413,
      "漿": 414,
      "特": 415,
      "理": 416,
      "疫": 417,
      "病": 418,
      "症": 419,
      "療": 420,
      "発": 421,
      "的": 422,
      "立": 423,
      "管": 424,
      "維": 425,
      "総": 426,
      "線": 427,
      "置": 428,
      "習": 429,
      "者": 430,
      "肺": 431,
      "血": 432,
      "行": 433,
      "計": 434,
      "設": 435,
      "診": 436,
      "詞": 437,
      "象": 438,
      "遊": 439,
      "過": 440,
      "適": 441,
      "量": 442,
      "門": 443,
      "開": 444,
      "関": 445,
      "院": 446,
      "電": 447,
      "ﬁ": 448,
      "🖂": 449,
      "##9": 450,
      "##2": 451,
      "##8": 452,
      "##h": 453,
      "##i": 454,
      "##n": 455,
      "##g": 456,
      "##r": 457,
      "##e": 458,
      "##4": 459,
      "##6": 460,
      "##j": 461,
      "##t": 462,
      "##a": 463,
      "##k": 464,
      "##7": 465,
      "##b": 466,
      "##5": 467,
      "##3": 468,
      "##1": 469,
      "##f": 470,
      "##d": 471,
      "##A": 472,
      "##N": 473,
      "##I": 474,
      "##T": 475,
      "##E": 476,
      "##c": 477,
      "##o": 478,
      "##C": 479,
      "##S": 480,
      "##0": 481,
      "##^": 482,
      "##{": 483,
      "##-": 484,
      "##}": 485,
      "##\\": 486,
      "##y": 487,
      "##l": 488,
      "##[": 489,
      "##]": 490,
      "##,": 491,
      "##)": 492,
      "##x": 493,
      "##M": 494,
      "##s": 495,
      "##_": 496,
      "##L": 497,
      "##R": 498,
      "##H": 499,
      "##&": 500,
      "##m": 501,
      "##z": 502,
      "##u": 503,
      "##v": 504,
      "##w": 505,
      "##D": 506,
      "##Z": 507,
      "##P": 508,
      "##K": 509,
      "##q": 510,
      "##p": 511,
      "##V": 512,
      "##F": 513,
      "##!": 514,
      "##O": 515,
      "##X": 516,
      "##B": 517,
      "##U": 518,
      "##*": 519,
      "##.": 520,
      "##G": 521,
      "##Q": 522,
      "##|": 523,
      "##>": 524,
      "##J": 525,
      "##=": 526,
      "##(": 527,
      "##/": 528,
      "##W": 529,
      "##;": 530,
      "##+": 531,
      "##\"": 532,
      "##:": 533,
      "##$": 534,
      "##Y": 535,
      "##?": 536,
      "##~": 537,
      "##²": 538,
      "##<": 539,
      "##%": 540,
      "##“": 541,
      "##”": 542,
      "##–": 543,
      "###": 544,
      "##'": 545,
      "##ö": 546,
      "##é": 547,
      "##’": 548,
      "##@": 549,
      "##ä": 550,
      "##у": 551,
      "##с": 552,
      "##т": 553,
      "##ь": 554,
      "##ø": 555,
      "##í": 556,
      "##á": 557,
      "##φ": 558,
      "##`": 559,
      "##✓": 560,
      "##а": 561,
      "##к": 562,
      "##в": 563,
      "##е": 564,
      "##л": 565,
      "##ñ": 566,
      "##č": 567,
      "##✗": 568,
      "##ã": 569,
      "##⃝": 570,
      "##ó": 571,
      "##ā": 572,
      "##ḥ": 573,
      "##¹": 574,
      "##о": 575,
      "##н": 576,
      "##м": 577,
      "##р": 578,
      "##г": 579,
      "##и": 580,
      "##ю": 581,
      "##…": 582,
      "##発": 583,
      "##性": 584,
      "##肺": 585,
      "##線": 586,
      "##維": 587,
      "##症": 588,
      "##‘": 589,
      "##€": 590,
      "##ǐ": 591,
      "##å": 592,
      "##ô": 593,
      "##ł": 594,
      "##ń": 595,
      "##⁴": 596,
      "##⁵": 597,
      "##ī": 598,
      "##š": 599,
      "##ξ": 600,
      "##ï": 601,
      "##́": 602,
      "##è": 603,
      "##д": 604,
      "##ё": 605,
      "##я": 606,
      "##§": 607,
      "##ß": 608,
      "##°": 609,
      "##‡": 610,
      "##⁶": 611,
      "##à": 612,
      "##¿": 613,
      "##ū": 614,
      "##ć": 615,
      "##С": 616,
      "##Р": 617,
      "##″": 618,
      "##⁸": 619,
      "##−": 620,
      "##ü": 621,
      "##Å": 622,
      "##疫": 623,
      "##血": 624,
      "##清": 625,
      "##学": 626,
      "##的": 627,
      "##検": 628,
      "##査": 629,
      "##を": 630,
      "##施": 631,
      "##行": 632,
      "##し": 633,
      "##た": 634,
      "##⁰": 635,
      "##î": 636,
      "##з": 637,
      "##ч": 638,
      "##ṣ": 639,
      "##⁷": 640,
      "##ç": 641,
      "##ê": 642,
      "##б": 643,
      "##ò": 644,
      "##ọ": 645,
      "##ý": 646,
      "##ğ": 647,
      "##º": 648,
      "##ы": 649,
      "##年": 650,
      "##月": 651,
      "##日": 652,
      "##に": 653,
      "##女": 654,
      "##総": 655,
      "##合": 656,
      "##診": 657,
      "##療": 658,
      "##開": 659,
      "##設": 660,
      "##立": 661,
      "##下": 662,
      "##関": 663,
      "##病": 664,
      "##院": 665,
      "##θ": 666,
      "##ś": 667,
      "##—": 668,
      "##ǧ": 669,
      "##ш": 670,
      "##習": 671,
      "##す": 672,
      "##る": 673,
      "##̇": 674,
      "##†": 675,
      "##³": 676,
      "##ı": 677,
      "##ề": 678,
      "##ớ": 679,
      "##ḷ": 680,
      "##ṃ": 681,
      "##ṇ": 682,
      "##⁹": 683,
      "##±": 684,
      "##ù": 685,
      "##ì": 686,
      "##➁": 687,
      "##₀": 688,
      "##ư": 689,
      "##✔": 690,
      "##¡": 691,
      "##→": 692,
      "##ṭ": 693,
      "##①": 694,
      "##₄": 695,
      "##х": 696,
      "##ú": 697,
      "##ϵ": 698,
      "##れ": 699,
      "##の": 700,
      "##電": 701,
      "##圧": 702,
      "##制": 703,
      "##御": 704,
      "##よ": 705,
      "##り": 706,
      "##流": 707,
      "##量": 708,
      "##管": 709,
      "##理": 710,
      "##○": 711,
      "##₅": 712,
      "##ц": 713,
      "##ṛ": 714,
      "##ν": 715,
      "##й": 716,
      "##п": 717,
      "##✕": 718,
      "##ň": 719,
      "##ş": 720,
      "##↑": 721,
      "##ầ": 722,
      "##ж": 723,
      "##ř": 724,
      "##ė": 725,
      "##適": 726,
      "##化": 727,
      "##•": 728,
      "##̈": 729,
      "##©": 730,
      "##˜": 731,
      "##ṅ": 732,
      "##③": 733,
      "##»": 734,
      "##変": 735,
      "##動": 736,
      "##詞": 737,
      "##➀": 738,
      "##ḍ": 739,
      "##ǒ": 740,
      "##ë": 741,
      "##ế": 742,
      "##⑥": 743,
      "##ő": 744,
      "##④": 745,
      "##щ": 746,
      "##₉": 747,
      "##£": 748,
      "##ạ": 749,
      "##↓": 750,
      "##Æ": 751,
      "##機": 752,
      "##構": 753,
      "##門": 754,
      "##医": 755,
      "##セ": 756,
      "##ン": 757,
      "##タ": 758,
      "##ー": 759,
      "##ơ": 760,
      "##⑤": 761,
      "##ờ": 762,
      "##ф": 763,
      "##ρ": 764,
      "##â": 765,
      "##ș": 766,
      "##➂": 767,
      "##②": 768,
      "##⑦": 769,
      "##ロ": 770,
      "##サ": 771,
      "##原": 772,
      "##は": 773,
      "##浮": 774,
      "##遊": 775,
      "##式": 776,
      "##計": 777,
      "##テ": 778,
      "##パ": 779,
      "##内": 780,
      "##フ": 781,
      "##ト": 782,
      "##位": 783,
      "##置": 784,
      "##差": 785,
      "##ラ": 786,
      "##ス": 787,
      "##で": 788,
      "##出": 789,
      "##ẹ": 790,
      "##ﬁ": 791,
      "##漿": 792,
      "##て": 793,
      "##ウ": 794,
      "##ィ": 795,
      "##ル": 796,
      "##õ": 797,
      "##➃": 798,
      "##α": 799,
      "##Ü": 800,
      "##∥": 801,
      "##ḡ": 802,
      "##₁": 803,
      "##ủ": 804,
      "##ϕ": 805,
      "##Ö": 806,
      "##æ": 807,
      "##œ": 808,
      "##̂": 809,
      "##̃": 810,
      "##者": 811,
      "##例": 812,
      "##及": 813,
      "##び": 814,
      "##急": 815,
      "##増": 816,
      "##悪": 817,
      "##入": 818,
      "##患": 819,
      "##対": 820,
      "##象": 821,
      "##と": 822,
      "##nc": 823,
      "re": 824,
      "##ll": 825,
      "##ma": 826,
      "##tr": 827,
      "##hi": 828,
      "##la": 829,
      "##he": 830,
      "##ig": 831,
      "##ca": 832,
      "\\)": 833,
      "pr": 834,
      "ma": 835,
      "##ea": 836,
      "fo": 837,
      "is": 838,
      "##im": 839,
      "##na": 840,
      "##ss": 841,
      "##pe": 842,
      "##ni": 843,
      "##ts": 844,
      "##(\\": 845,
      "##ou": 846,
      "de": 847,
      "for": 848,
      "##ch": 849,
      "##od": 850,
      "##ie": 851,
      "##ge": 852,
      "##ot": 853,
      "be": 854,
      "##mp": 855,
      "##ol": 856,
      "##iv": 857,
      "##ia": 858,
      "##rs": 859,
      "##ow": 860,
      "##ut": 861,
      "##rt": 862,
      "\\(\\": 863,
      "wi": 864,
      "##ly": 865,
      "##or": 866,
      "##nce": 867,
      "th": 868,
      "on": 869,
      "tha": 870,
      "fr": 871,
      "##em": 872,
      "##os": 873,
      "##di": 874,
      "ca": 875,
      "20": 876,
      "The": 877,
      "##am": 878,
      "ar": 879,
      "^{": 880,
      "se": 881,
      "{\\": 882,
      "wit": 883,
      "##ty": 884,
      "##tu": 885,
      "we": 886,
      "##cal": 887,
      "##ive": 888,
      "that": 889,
      "mat": 890,
      "with": 891,
      "}}": 892,
      "al": 893,
      "##her": 894,
      "##ime": 895,
      "##il": 896,
      "pro": 897,
      "##^{": 898,
      "su": 899,
      "**": 900,
      "##ua": 901,
      "ex": 902,
      "di": 903,
      "##al": 904,
      "pa": 905,
      "##bl": 906,
      "math": 907,
      "##io": 908,
      "##id": 909,
      "##ity": 910,
      "as": 911,
      "##re": 912,
      "##ue": 913,
      "##ai": 914,
      "##fe": 915,
      "##ul": 916,
      "by": 917,
      "##ode": 918,
      "are": 919,
      "##us": 920,
      "In": 921,
      "st": 922,
      "##nal": 923,
      "ha": 924,
      "##um": 925,
      "##ers": 926,
      "tr": 927,
      "##omp": 928,
      "##igh": 929,
      "##pp": 930,
      "##his": 931,
      "##ys": 932,
      "##fi": 933,
      "##uc": 934,
      "##ble": 935,
      "##nd": 936,
      "le": 937,
      "##for": 938,
      "##lat": 939,
      "us": 940,
      "##per": 941,
      "##iz": 942,
      "te": 943,
      "}^{": 944,
      "res": 945,
      "ne": 946,
      "##tt": 947,
      "##tri": 948,
      "##res": 949,
      "##ear": 950,
      "##ial": 951,
      "201": 952,
      "##mat": 953,
      "la": 954,
      "comp": 955,
      "##tive": 956,
      "##pa": 957,
      ")\\": 958,
      "mode": 959,
      "##nts": 960,
      "##to": 961,
      "##mi": 962,
      "or": 963,
      "##ee": 964,
      "##nt": 965,
      "##ent": 966,
      "##nte": 967,
      "ba": 968,
      "##be": 969,
      "sta": 970,
      "##ies": 971,
      "ta": 972,
      "##ight": 973,
      "ra": 974,
      "fro": 975,
      "can": 976,
      "##nin": 977,
      "whi": 978,
      "##ess": 979,
      "##ning": 980,
      "##ov": 981,
      "from": 982,
      "})": 983,
      "##ft": 984,
      "##ck": 985,
      "##op": 986,
      "dis": 987,
      "model": 988,
      "##ffe": 989,
      "##ev": 990,
      "da": 991,
      "##lar": 992,
      "ac": 993,
      "this": 994,
      "##oi": 995,
      "##ide": 996,
      "sh": 997,
      "##ain": 998,
      "##ame": 999,
      "10": 1000,
      "##cu": 1001,
      "##ork": 1002,
      "##ry": 1003,
      "me": 1004,
      ").": 1005,
      "##din": 1006,
      "##pt": 1007,
      "##here": 1008,
      "fi": 1009,
      "ge": 1010,
      "##lly": 1011,
      "app": 1012,
      "##ding": 1013,
      "##ir": 1014,
      "fra": 1015,
      "##ical": 1016,
      "##pec": 1017,
      "frac": 1018,
      "##tw": 1019,
      "We": 1020,
      "}(": 1021,
      "##tra": 1022,
      "\\[": 1023,
      "}{": 1024,
      "##ose": 1025,
      "##pl": 1026,
      "time": 1027,
      "which": 1028,
      "at": 1029,
      "##ore": 1030,
      "##),": 1031,
      "##og": 1032,
      "##ld": 1033,
      "##mpl": 1034,
      "##cat": 1035,
      "##hen": 1036,
      "pre": 1037,
      "gr": 1038,
      "pe": 1039,
      "##utio": 1040,
      "inte": 1041,
      "##}\\": 1042,
      "##,\\": 1043,
      "##ph": 1044,
      "dat": 1045,
      "##so": 1046,
      "##rv": 1047,
      "ch": 1048,
      "data": 1049,
      "tra": 1050,
      "##tor": 1051,
      "##ke": 1052,
      "##).": 1053,
      "##nv": 1054,
      "##ult": 1055,
      "##rm": 1056,
      "ob": 1057,
      "##eas": 1058,
      "mathb": 1059,
      "fu": 1060,
      "va": 1061,
      "##da": 1062,
      "use": 1063,
      "##ga": 1064,
      "##ution": 1065,
      "##ional": 1066,
      "##ure": 1067,
      "li": 1068,
      "##nde": 1069,
      "),": 1070,
      "##ach": 1071,
      "##ture": 1072,
      "not": 1073,
      "##rge": 1074,
      "##ize": 1075,
      "##co": 1076,
      "it": 1077,
      "}=": 1078,
      "}}\\": 1079,
      "##ps": 1080,
      "##xt": 1081,
      "##{\\": 1082,
      ".,": 1083,
      "##latio": 1084,
      "##gl": 1085,
      "Fig": 1086,
      "lo": 1087,
      "per": 1088,
      "no": 1089,
      "##lation": 1090,
      "sim": 1091,
      "##ral": 1092,
      "wa": 1093,
      "##yst": 1094,
      "(\\": 1095,
      "right": 1096,
      "##po": 1097,
      "##oc": 1098,
      "##ion": 1099,
      "##ions": 1100,
      "##tions": 1101,
      "part": 1102,
      "].": 1103,
      "##": 1104,
      "19": 1105,
      "##cs": 1106,
      "Ma": 1107,
      "ve": 1108,
      "mathcal": 1109,
      "stat": 1110,
      "##ngl": 1111,
      "##rent": 1112,
      "left": 1113,
      "##nn": 1114,
      "sig": 1115,
      "et": 1116,
      "##hes": 1117,
      "##gi": 1118,
      "##hys": 1119,
      "all": 1120,
      "Co": 1121,
      "Re": 1122,
      "en": 1123,
      "##rd": 1124,
      "qua": 1125,
      "##ove": 1126,
      "hav": 1127,
      "##que": 1128,
      "##ous": 1129,
      "##ystem": 1130,
      "met": 1131,
      "##ci": 1132,
      "##nit": 1133,
      "ev": 1134,
      "\\),": 1135,
      "^{\\": 1136,
      "##red": 1137,
      "show": 1138,
      "gen": 1139,
      "bas": 1140,
      "##lt": 1141,
      "##nge": 1142,
      "##ngle": 1143,
      "cha": 1144,
      "##ed": 1145,
      "##ted": 1146,
      "\\\\": 1147,
      "##rr": 1148,
      "have": 1149,
      "ad": 1150,
      "##bil": 1151,
      "##hod": 1152,
      "##ther": 1153,
      "gene": 1154,
      "De": 1155,
      "##mm": 1156,
      "##ba": 1157,
      "##\\),": 1158,
      "##tional": 1159,
      "tw": 1160,
      "##ents": 1161,
      "diffe": 1162,
      "do": 1163,
      "where": 1164,
      "\\).": 1165,
      "##ng": 1166,
      "##mation": 1167,
      "##fic": 1168,
      "val": 1169,
      "##qua": 1170,
      "##ho": 1171,
      "##lo": 1172,
      "##ampl": 1173,
      "appr": 1174,
      "##ound": 1175,
      "tran": 1176,
      "trans": 1177,
      "ou": 1178,
      "##ber": 1179,
      "##str": 1180,
      "##cr": 1181,
      "##vi": 1182,
      "##\\]": 1183,
      "two": 1184,
      ")\\)": 1185,
      "method": 1186,
      "inc": 1187,
      "fa": 1188,
      "par": 1189,
      "func": 1190,
      "mi": 1191,
      "##ement": 1192,
      "##ment": 1193,
      "system": 1194,
      "##ntr": 1195,
      "##mal": 1196,
      "##{}": 1197,
      "num": 1198,
      "appro": 1199,
      "so": 1200,
      "##je": 1201,
      "our": 1202,
      "202": 1203,
      "det": 1204,
      "one": 1205,
      "##ance": 1206,
      "##cess": 1207,
      "var": 1208,
      "cor": 1209,
      "##iza": 1210,
      "This": 1211,
      "##pha": 1212,
      "##twork": 1213,
      "##ndi": 1214,
      "##bi": 1215,
      "##jec": 1216,
      "11": 1217,
      "prime": 1218,
      "##ssi": 1219,
      "##lta": 1220,
      "si": 1221,
      "##bs": 1222,
      "##\\).": 1223,
      "##ulti": 1224,
      "##trib": 1225,
      "alpha": 1226,
      "##ad": 1227,
      "##ant": 1228,
      "##tte": 1229,
      "state": 1230,
      "##pera": 1231,
      "mu": 1232,
      "cl": 1233,
      "text": 1234,
      "str": 1235,
      "200": 1236,
      "##erv": 1237,
      "##qu": 1238,
      "}\\),": 1239,
      "##nf": 1240,
      "##rence": 1241,
      "12": 1242,
      "##ori": 1243,
      "##lle": 1244,
      "ov": 1245,
      "##ort": 1246,
      "##wa": 1247,
      "\\[\\": 1248,
      "##ost": 1249,
      "each": 1250,
      "##amb": 1251,
      "##ny": 1252,
      "##nti": 1253,
      "##izat": 1254,
      "##ization": 1255,
      "##bility": 1256,
      "##ned": 1257,
      "##our": 1258,
      "has": 1259,
      "spa": 1260,
      "##no": 1261,
      "##ample": 1262,
      "##cation": 1263,
      "usi": 1264,
      "using": 1265,
      "##able": 1266,
      "value": 1267,
      "##osi": 1268,
      "##ree": 1269,
      "des": 1270,
      "##ds": 1271,
      "ove": 1272,
      "##een": 1273,
      "different": 1274,
      "cas": 1275,
      "Se": 1276,
      "also": 1277,
      "network": 1278,
      "mathbf": 1279,
      "Pr": 1280,
      "##tud": 1281,
      "##00": 1282,
      "lin": 1283,
      "},": 1284,
      "sol": 1285,
      "over": 1286,
      "##cl": 1287,
      "##EE": 1288,
      "For": 1289,
      "based": 1290,
      "rep": 1291,
      "##sk": 1292,
      "such": 1293,
      "##uct": 1294,
      "##imi": 1295,
      "##ambda": 1296,
      "case": 1297,
      "##ges": 1298,
      "imp": 1299,
      "inter": 1300,
      "perfor": 1301,
      "##gr": 1302,
      "##tween": 1303,
      "between": 1304,
      "pi": 1305,
      "lear": 1306,
      "##amma": 1307,
      "}+": 1308,
      "##ular": 1309,
      "##nne": 1310,
      "##eve": 1311,
      ",\\": 1312,
      "##ults": 1313,
      "##llow": 1314,
      "##chi": 1315,
      "##ust": 1316,
      "##ex": 1317,
      "##not": 1318,
      "##tric": 1319,
      "Li": 1320,
      "##ega": 1321,
      "cla": 1322,
      "##ations": 1323,
      "sc": 1324,
      "##ield": 1325,
      "ass": 1326,
      "##side": 1327,
      "##ffic": 1328,
      "##ied": 1329,
      "##gh": 1330,
      "opt": 1331,
      "Phys": 1332,
      "set": 1333,
      "##nstr": 1334,
      "spec": 1335,
      "##hm": 1336,
      "##pi": 1337,
      "##ffec": 1338,
      "mathbb": 1339,
      "##ics": 1340,
      "dete": 1341,
      "##amet": 1342,
      "##serv": 1343,
      "##-\\": 1344,
      "##mega": 1345,
      "##rec": 1346,
      "ph": 1347,
      "##rg": 1348,
      "##lu": 1349,
      "##rst": 1350,
      "es": 1351,
      "poi": 1352,
      "##orit": 1353,
      "out": 1354,
      "ima": 1355,
      "],": 1356,
      "})\\": 1357,
      "cr": 1358,
      "rm": 1359,
      "mathrm": 1360,
      "}\\).": 1361,
      "##het": 1362,
      "},\\": 1363,
      "multi": 1364,
      "sum": 1365,
      "number": 1366,
      "gra": 1367,
      "##sion": 1368,
      "end": 1369,
      "##gorit": 1370,
      "##nside": 1371,
      "results": 1372,
      "##ough": 1373,
      "##nding": 1374,
      "##rn": 1375,
      "##ang": 1376,
      "he": 1377,
      "##te": 1378,
      "##ter": 1379,
      "##ate": 1380,
      "##vers": 1381,
      "pp": 1382,
      "##ong": 1383,
      "times": 1384,
      "follow": 1385,
      "##({}": 1386,
      "##gin": 1387,
      "non": 1388,
      "##gorithm": 1389,
      "##nk": 1390,
      "used": 1391,
      "##naly": 1392,
      "##ould": 1393,
      "##ntu": 1394,
      "##ute": 1395,
      "##pli": 1396,
      "##age": 1397,
      "gener": 1398,
      "##ress": 1399,
      "el": 1400,
      "paramet": 1401,
      "##olog": 1402,
      "##=\\": 1403,
      "##tribution": 1404,
      "funct": 1405,
      "##blem": 1406,
      "reg": 1407,
      "SS": 1408,
      "more": 1409,
      "compa": 1410,
      "function": 1411,
      "}(\\": 1412,
      "only": 1413,
      "##cle": 1414,
      "give": 1415,
      "lambda": 1416,
      "##ference": 1417,
      "##hese": 1418,
      "Figure": 1419,
      "##imat": 1420,
      "prop": 1421,
      "\\({}": 1422,
      "##ient": 1423,
      "##ual": 1424,
      "13": 1425,
      "##oth": 1426,
      "##heta": 1427,
      "est": 1428,
      "these": 1429,
      "parti": 1430,
      "cu": 1431,
      "equa": 1432,
      "##formation": 1433,
      "**,": 1434,
      "work": 1435,
      "##ained": 1436,
      "##ized": 1437,
      "rec": 1438,
      "large": 1439,
      "##out": 1440,
      "##erg": 1441,
      "other": 1442,
      "##aining": 1443,
      "Le": 1444,
      "15": 1445,
      "problem": 1446,
      "##ctor": 1447,
      "##ilo": 1448,
      "##osed": 1449,
      "ord": 1450,
      "##onv": 1451,
      "##cally": 1452,
      "##ple": 1453,
      "pla": 1454,
      "##ntum": 1455,
      "there": 1456,
      "##ilon": 1457,
      ")}": 1458,
      "##psilon": 1459,
      "##br": 1460,
      "field": 1461,
      "if": 1462,
      "##owe": 1463,
      "##nder": 1464,
      "theta": 1465,
      "effec": 1466,
      "opera": 1467,
      "16": 1468,
      "sigma": 1469,
      "its": 1470,
      "will": 1471,
      "##if": 1472,
      "learning": 1473,
      "observ": 1474,
      "14": 1475,
      "##ole": 1476,
      "was": 1477,
      "see": 1478,
      "conv": 1479,
      "models": 1480,
      "##nto": 1481,
      "##ory": 1482,
      "##onside": 1483,
      "defi": 1484,
      "algorithm": 1485,
      "analy": 1486,
      "conside": 1487,
      "than": 1488,
      "##rk": 1489,
      "orde": 1490,
      "##tures": 1491,
      "ab": 1492,
      "##ulation": 1493,
      "##cha": 1494,
      ",\"": 1495,
      "bet": 1496,
      "##cted": 1497,
      "beta": 1498,
      "hl": 1499,
      "repres": 1500,
      "##ian": 1501,
      "hli": 1502,
      "hlin": 1503,
      "hline": 1504,
      "stud": 1505,
      "when": 1506,
      "meas": 1507,
      "##ncy": 1508,
      "inv": 1509,
      "prov": 1510,
      "##cur": 1511,
      "process": 1512,
      "form": 1513,
      "first": 1514,
      "order": 1515,
      "bm": 1516,
      "compl": 1517,
      "##perime": 1518,
      "fea": 1519,
      "}^{\\": 1520,
      "then": 1521,
      "##**": 1522,
      "energ": 1523,
      "##ean": 1524,
      "spac": 1525,
      "##now": 1526,
      "po": 1527,
      "##ki": 1528,
      "x_": 1529,
      "##ont": 1530,
      "leq": 1531,
      "pres": 1532,
      "##ary": 1533,
      "##ower": 1534,
      "He": 1535,
      "cal": 1536,
      "##}\\)": 1537,
      "Ne": 1538,
      "space": 1539,
      "##mance": 1540,
      "av": 1541,
      "##lated": 1542,
      "obt": 1543,
      "##rti": 1544,
      "gamma": 1545,
      "##ated": 1546,
      "##en": 1547,
      "high": 1548,
      "##yna": 1549,
      "18": 1550,
      "inf": 1551,
      "##rect": 1552,
      "##tors": 1553,
      "varia": 1554,
      "Pa": 1555,
      "17": 1556,
      "##ff": 1557,
      "##ever": 1558,
      "##put": 1559,
      "hat": 1560,
      "##cri": 1561,
      "##fa": 1562,
      "##heir": 1563,
      "##form": 1564,
      "tau": 1565,
      "phi": 1566,
      "their": 1567,
      "##mo": 1568,
      "sy": 1569,
      "}=\\": 1570,
      "##onstr": 1571,
      "##tti": 1572,
      "##ynami": 1573,
      "begin": 1574,
      "##lli": 1575,
      "##tter": 1576,
      "performance": 1577,
      "appl": 1578,
      "into": 1579,
      "same": 1580,
      "##tance": 1581,
      "up": 1582,
      "predi": 1583,
      "energy": 1584,
      "na": 1585,
      "##cy": 1586,
      "br": 1587,
      "delta": 1588,
      "Ba": 1589,
      "constr": 1590,
      "To": 1591,
      "##imen": 1592,
      "##ls": 1593,
      "##low": 1594,
      "##nds": 1595,
      "but": 1596,
      "given": 1597,
      "both": 1598,
      "##oduc": 1599,
      "##tes": 1600,
      "distribution": 1601,
      "##uction": 1602,
      "##man": 1603,
      "rho": 1604,
      "##tical": 1605,
      "sma": 1606,
      "##son": 1607,
      "##Xiv": 1608,
      "}}\\)": 1609,
      "comput": 1610,
      "exp": 1611,
      "\\)-": 1612,
      "##owever": 1613,
      "##ties": 1614,
      "term": 1615,
      "##omm": 1616,
      "##ob": 1617,
      "represent": 1618,
      "##un": 1619,
      "As": 1620,
      "##pr": 1621,
      "##tively": 1622,
      "##ild": 1623,
      "##ited": 1624,
      "red": 1625,
      "experime": 1626,
      "training": 1627,
      "##ye": 1628,
      "##ard": 1629,
      "id": 1630,
      "som": 1631,
      "been": 1632,
      "some": 1633,
      "21": 1634,
      "##ctions": 1635,
      "##respo": 1636,
      "##do": 1637,
      "Comp": 1638,
      "##tro": 1639,
      "omega": 1640,
      "solution": 1641,
      "max": 1642,
      "##ndo": 1643,
      "##ep": 1644,
      "##mai": 1645,
      "2019": 1646,
      "Delta": 1647,
      "##hem": 1648,
      "##gn": 1649,
      "respec": 1650,
      "Tr": 1651,
      "Rev": 1652,
      "datas": 1653,
      "dimen": 1654,
      "datase": 1655,
      "acc": 1656,
      "Be": 1657,
      "##ead": 1658,
      "subs": 1659,
      "bound": 1660,
      "##nformation": 1661,
      "correspo": 1662,
      "La": 1663,
      "##cations": 1664,
      "##ondi": 1665,
      "comm": 1666,
      "methods": 1667,
      "22": 1668,
      "2020": 1669,
      "shown": 1670,
      "approx": 1671,
      "cou": 1672,
      "##eque": 1673,
      "struc": 1674,
      "##mb": 1675,
      "Cited": 1676,
      "##nivers": 1677,
      "limi": 1678,
      "25": 1679,
      "partial": 1680,
      "information": 1681,
      "##fore": 1682,
      "####": 1683,
      "dr": 1684,
      "cont": 1685,
      "vi": 1686,
      "It": 1687,
      "ty": 1688,
      "condi": 1689,
      "##ey": 1690,
      "point": 1691,
      "sum_": 1692,
      "any": 1693,
      "##cond": 1694,
      "##sh": 1695,
      "sa": 1696,
      "Ca": 1697,
      "lev": 1698,
      "leve": 1699,
      "bi": 1700,
      "under": 1701,
      "ce": 1702,
      "mo": 1703,
      "proposed": 1704,
      "incr": 1705,
      "##trix": 1706,
      "ga": 1707,
      "}-": 1708,
      "sub": 1709,
      "##qui": 1710,
      "general": 1711,
      "scal": 1712,
      "^{-": 1713,
      "##olds": 1714,
      "class": 1715,
      "##ier": 1716,
      "##ilde": 1717,
      "##((": 1718,
      "neu": 1719,
      "graph": 1720,
      "##earch": 1721,
      "##use": 1722,
      "provide": 1723,
      "##mme": 1724,
      "sel": 1725,
      "tes": 1726,
      "##|\\": 1727,
      "nu": 1728,
      "vol": 1729,
      "##ease": 1730,
      "values": 1731,
      "##ness": 1732,
      "##oo": 1733,
      "##ign": 1734,
      "##lla": 1735,
      "##ject": 1736,
      "example": 1737,
      "##EEE": 1738,
      "##rmi": 1739,
      "arXiv": 1740,
      "##ious": 1741,
      "##01": 1742,
      "##ume": 1743,
      "consider": 1744,
      "Fi": 1745,
      "Sec": 1746,
      "pha": 1747,
      "depe": 1748,
      "2018": 1749,
      "approach": 1750,
      "##ontr": 1751,
      "mod": 1752,
      "estimat": 1753,
      "\\((": 1754,
      "real": 1755,
      "min": 1756,
      "##cular": 1757,
      "ed": 1758,
      "analys": 1759,
      "fac": 1760,
      "##iew": 1761,
      "descri": 1762,
      "quantum": 1763,
      "den": 1764,
      "Su": 1765,
      "23": 1766,
      "##bed": 1767,
      "##oli": 1768,
      "-\\": 1769,
      "##dot": 1770,
      "Me": 1771,
      "=\\": 1772,
      "image": 1773,
      "well": 1774,
      "phas": 1775,
      "size": 1776,
      "contr": 1777,
      "##ox": 1778,
      "##ourc": 1779,
      "pm": 1780,
      "thr": 1781,
      "phase": 1782,
      "##main": 1783,
      "})\\)": 1784,
      "systems": 1785,
      "sample": 1786,
      "##ndom": 1787,
      "parameters": 1788,
      "However": 1789,
      "posi": 1790,
      "##ule": 1791,
      "_P": 1792,
      "present": 1793,
      "24": 1794,
      "##fac": 1795,
      "may": 1796,
      "##ource": 1797,
      "##oss": 1798,
      "task": 1799,
      "\\({}^{": 1800,
      "wid": 1801,
      "On": 1802,
      "##sa": 1803,
      "ele": 1804,
      "fou": 1805,
      "impl": 1806,
      "##fication": 1807,
      "##nference": 1808,
      "##ential": 1809,
      "##trac": 1810,
      "##ational": 1811,
      "199": 1812,
      "##*}": 1813,
      "##ements": 1814,
      "elec": 1815,
      "##hed": 1816,
      "##ities": 1817,
      "pri": 1818,
      "_e": 1819,
      "##rther": 1820,
      "line": 1821,
      "##gne": 1822,
      "dens": 1823,
      "}}{": 1824,
      "dynami": 1825,
      "##fficient": 1826,
      "##ria": 1827,
      "whil": 1828,
      "while": 1829,
      "know": 1830,
      "##old": 1831,
      "ind": 1832,
      "##ote": 1833,
      "inclu": 1834,
      "Al": 1835,
      "exi": 1836,
      "Ha": 1837,
      "##bular": 1838,
      "##II": 1839,
      "##alua": 1840,
      "##olution": 1841,
      "##sed": 1842,
      "##note": 1843,
      "frame": 1844,
      "top": 1845,
      "log": 1846,
      "analysi": 1847,
      "##ngt": 1848,
      "):": 1849,
      "followi": 1850,
      "following": 1851,
      "mass": 1852,
      "##ilar": 1853,
      "analysis": 1854,
      "wav": 1855,
      "##ging": 1856,
      "were": 1857,
      "similar": 1858,
      "##pert": 1859,
      "local": 1860,
      "uni": 1861,
      "dev": 1862,
      "aut": 1863,
      "##ience": 1864,
      "p_": 1865,
      "##fer": 1866,
      "Ch": 1867,
      "##led": 1868,
      "##eak": 1869,
      "##wi": 1870,
      "##try": 1871,
      "err": 1872,
      "exis": 1873,
      "Gr": 1874,
      "ze": 1875,
      "new": 1876,
      "##.\\]": 1877,
      "hy": 1878,
      "random": 1879,
      "##phi": 1880,
      "Ga": 1881,
      "Univers": 1882,
      "Th": 1883,
      "linear": 1884,
      "proba": 1885,
      "##yer": 1886,
      "detec": 1887,
      "three": 1888,
      "through": 1889,
      "tabular": 1890,
      "un": 1891,
      "act": 1892,
      "att": 1893,
      "##av": 1894,
      "ell": 1895,
      "##tting": 1896,
      "sha": 1897,
      "30": 1898,
      "epsilon": 1899,
      "##ois": 1900,
      "intera": 1901,
      "wave": 1902,
      "##over": 1903,
      "##ology": 1904,
      "measu": 1905,
      "super": 1906,
      "bar": 1907,
      "##ative": 1908,
      "##hey": 1909,
      "mean": 1910,
      "2017": 1911,
      "accur": 1912,
      "_et": 1913,
      "Si": 1914,
      "##ngth": 1915,
      "##uni": 1916,
      "rangle": 1917,
      "int": 1918,
      "most": 1919,
      "Sc": 1920,
      "cdot": 1921,
      "Zh": 1922,
      "supp": 1923,
      "test": 1924,
      "##face": 1925,
      "##igi": 1926,
      "direct": 1927,
      "##oni": 1928,
      "they": 1929,
      "sq": 1930,
      "##imation": 1931,
      "##nite": 1932,
      "ps": 1933,
      "26": 1934,
      "dimens": 1935,
      "single": 1936,
      "##acy": 1937,
      "##trate": 1938,
      "##gnet": 1939,
      "##imal": 1940,
      "impr": 1941,
      "St": 1942,
      "geq": 1943,
      "##hin": 1944,
      "##mbol": 1945,
      "scale": 1946,
      "##ically": 1947,
      "##pon": 1948,
      "like": 1949,
      "##ay": 1950,
      "rea": 1951,
      "node": 1952,
      "networks": 1953,
      "##eat": 1954,
      "optim": 1955,
      "##orem": 1956,
      "sqrt": 1957,
      "calcu": 1958,
      "Sect": 1959,
      "pat": 1960,
      "sca": 1961,
      ")=": 1962,
      "Table": 1963,
      "##({\\": 1964,
      "##nat": 1965,
      "predic": 1966,
      "states": 1967,
      "##,\\]": 1968,
      "}{\\": 1969,
      "paper": 1970,
      "evalua": 1971,
      "##ms": 1972,
      "type": 1973,
      "##ui": 1974,
      "##nition": 1975,
      "32": 1976,
      "Te": 1977,
      "infty": 1978,
      "equ": 1979,
      "matrix": 1980,
      "##port": 1981,
      "tilde": 1982,
      "sen": 1983,
      "Section": 1984,
      "col": 1985,
      "ident": 1986,
      "##tract": 1987,
      "27": 1988,
      "}+\\": 1989,
      "appli": 1990,
      "Res": 1991,
      "init": 1992,
      "level": 1993,
      "rate": 1994,
      "##nally": 1995,
      "28": 1996,
      "result": 1997,
      "##ains": 1998,
      "##nis": 1999,
      "wide": 2000,
      "study": 2001,
      "sec": 2002,
      "##tant": 2003,
      "##oe": 2004,
      "Tra": 2005,
      "##rve": 2006,
      "##ors": 2007,
      "Di": 2008,
      "v_": 2009,
      "##ormal": 2010,
      "addi": 2011,
      "structure": 2012,
      "possi": 2013,
      "2021": 2014,
      "features": 2015,
      "small": 2016,
      "##ially": 2017,
      "operator": 2018,
      "classi": 2019,
      "paramete": 2020,
      "parameter": 2021,
      "##king": 2022,
      "There": 2023,
      "##sf": 2024,
      "detect": 2025,
      "T_": 2026,
      "##heory": 2027,
      "dataset": 2028,
      "big": 2029,
      "##rage": 2030,
      "Mat": 2031,
      "##cuss": 2032,
      "bu": 2033,
      "rob": 2034,
      "respectively": 2035,
      "inde": 2036,
      "requi": 2037,
      "tech": 2038,
      "t_": 2039,
      "loss": 2040,
      "##par": 2041,
      "##ues": 2042,
      "##rrow": 2043,
      "_I": 2044,
      "theory": 2045,
      "ag": 2046,
      "due": 2047,
      ")^{": 2048,
      "eta": 2049,
      "##mbi": 2050,
      "Mi": 2051,
      "##+\\": 2052,
      "tu": 2053,
      "intr": 2054,
      "##fte": 2055,
      "Da": 2056,
      "obtained": 2057,
      "##)\\": 2058,
      "complex": 2059,
      "freque": 2060,
      "need": 2061,
      "##ches": 2062,
      "##ence": 2063,
      "##pin": 2064,
      "##mpt": 2065,
      "indi": 2066,
      "low": 2067,
      "Ex": 2068,
      "##nar": 2069,
      "em": 2070,
      "a_": 2071,
      "shows": 2072,
      "##onne": 2073,
      "\\({\\": 2074,
      "##late": 2075,
      "##ymbol": 2076,
      "29": 2077,
      "##fter": 2078,
      "ave": 2079,
      "##ndent": 2080,
      "##ppe": 2081,
      "##nput": 2082,
      "mai": 2083,
      "##dots": 2084,
      "propert": 2085,
      "Omega": 2086,
      "}}^{": 2087,
      "quad": 2088,
      "input": 2089,
      "pot": 2090,
      "density": 2091,
      "hig": 2092,
      "31": 2093,
      "determi": 2094,
      "spectr": 2095,
      "##aria": 2096,
      "##NN": 2097,
      "genera": 2098,
      "sele": 2099,
      "chi": 2100,
      "Wi": 2101,
      "cir": 2102,
      "Eq": 2103,
      "Fu": 2104,
      "take": 2105,
      "lea": 2106,
      "simulation": 2107,
      "defined": 2108,
      "##oy": 2109,
      "corresponding": 2110,
      "##pri": 2111,
      "##nch": 2112,
      "##ntin": 2113,
      "f_": 2114,
      "##ton": 2115,
      "experiment": 2116,
      "##ward": 2117,
      "power": 2118,
      "##oto": 2119,
      "nois": 2120,
      "2016": 2121,
      "bolds": 2122,
      "boldsymbol": 2123,
      "##fica": 2124,
      "signal": 2125,
      "dec": 2126,
      "measur": 2127,
      "##bli": 2128,
      "##lations": 2129,
      "wh": 2130,
      "grou": 2131,
      "##com": 2132,
      "##ention": 2133,
      "##ming": 2134,
      "sens": 2135,
      "equat": 2136,
      "University": 2137,
      "control": 2138,
      "##gneti": 2139,
      "equation": 2140,
      "seque": 2141,
      "second": 2142,
      "table": 2143,
      "terms": 2144,
      "##ail": 2145,
      "age": 2146,
      "sect": 2147,
      "Fr": 2148,
      "##imum": 2149,
      "xi": 2150,
      "back": 2151,
      "section": 2152,
      "wor": 2153,
      "##nom": 2154,
      "##nary": 2155,
      "##ivity": 2156,
      "achi": 2157,
      "domain": 2158,
      "compo": 2159,
      "compon": 2160,
      "+\\": 2161,
      "images": 2162,
      "##02": 2163,
      "P_": 2164,
      "above": 2165,
      "discuss": 2166,
      "##nded": 2167,
      "conve": 2168,
      "33": 2169,
      "would": 2170,
      "##gment": 2171,
      "reduc": 2172,
      "##nger": 2173,
      "der": 2174,
      "##usion": 2175,
      "IEEE": 2176,
      "##stant": 2177,
      "Tran": 2178,
      "points": 2179,
      "cur": 2180,
      "##nifica": 2181,
      "pu": 2182,
      "change": 2183,
      "functions": 2184,
      "conne": 2185,
      "initial": 2186,
      "predict": 2187,
      "Ra": 2188,
      "vare": 2189,
      "##ora": 2190,
      "##xed": 2191,
      "prev": 2192,
      "varepsilon": 2193,
      "##odi": 2194,
      "##ntra": 2195,
      "##onf": 2196,
      "char": 2197,
      "Na": 2198,
      "##ile": 2199,
      "##ili": 2200,
      "enc": 2201,
      "##gnetic": 2202,
      "01": 2203,
      "##cles": 2204,
      "##come": 2205,
      "35": 2206,
      "Pe": 2207,
      "##03": 2208,
      "significa": 2209,
      "sur": 2210,
      "symme": 2211,
      "##less": 2212,
      "vis": 2213,
      "conf": 2214,
      "}|": 2215,
      "dimensional": 2216,
      "go": 2217,
      "##dings": 2218,
      "du": 2219,
      "34": 2220,
      "##tron": 2221,
      "psi": 2222,
      "allow": 2223,
      "exte": 2224,
      "channe": 2225,
      "particular": 2226,
      "beh": 2227,
      "Ad": 2228,
      "bf": 2229,
      "##lled": 2230,
      "feature": 2231,
      "probability": 2232,
      "(\\(": 2233,
      "labe": 2234,
      "##cause": 2235,
      "average": 2236,
      "##ger": 2237,
      "##lock": 2238,
      "##nstant": 2239,
      "error": 2240,
      "source": 2241,
      "introduc": 2242,
      "S_": 2243,
      "spin": 2244,
      "ea": 2245,
      "##avi": 2246,
      "##ond": 2247,
      "C_": 2248,
      "A_": 2249,
      "N_": 2250,
      "Gamma": 2251,
      "doe": 2252,
      "variable": 2253,
      "##cter": 2254,
      "does": 2255,
      "fe": 2256,
      "##su": 2257,
      "\\%": 2258,
      "##gen": 2259,
      "##s_": 2260,
      "distance": 2261,
      "deve": 2262,
      "n_": 2263,
      "potential": 2264,
      "range": 2265,
      "##ible": 2266,
      "limit": 2267,
      "phys": 2268,
      "##ete": 2269,
      "follows": 2270,
      "##stance": 2271,
      "plan": 2272,
      "measure": 2273,
      "##Ne": 2274,
      "cases": 2275,
      "##empera": 2276,
      "##ze": 2277,
      "transi": 2278,
      "increase": 2279,
      "##lity": 2280,
      "since": 2281,
      "targe": 2282,
      "compar": 2283,
      "##ombi": 2284,
      "rel": 2285,
      "##ression": 2286,
      "##ller": 2287,
      "##acter": 2288,
      "##eed": 2289,
      ")=\\": 2290,
      "36": 2291,
      "##pen": 2292,
      "Ou": 2293,
      "50": 2294,
      "Proc": 2295,
      "##ack": 2296,
      "##rial": 2297,
      "##ene": 2298,
      "expec": 2299,
      "Conference": 2300,
      "##fr": 2301,
      "##nation": 2302,
      "}}}": 2303,
      "significant": 2304,
      "combi": 2305,
      "relat": 2306,
      "100": 2307,
      "mot": 2308,
      "tot": 2309,
      "Ge": 2310,
      "##ries": 2311,
      "dia": 2312,
      "m_": 2313,
      "free": 2314,
      "higher": 2315,
      "possible": 2316,
      "r_": 2317,
      "##tent": 2318,
      "##terna": 2319,
      "import": 2320,
      "##ments": 2321,
      "noise": 2322,
      "c_": 2323,
      "##bit": 2324,
      "speci": 2325,
      "##work": 2326,
      "vector": 2327,
      "##ill": 2328,
      "2015": 2329,
      "tempera": 2330,
      "lambda_": 2331,
      "##hemat": 2332,
      "optimal": 2333,
      "corre": 2334,
      "perform": 2335,
      "##iro": 2336,
      "Br": 2337,
      "{(": 2338,
      "_A": 2339,
      "}-\\": 2340,
      "neural": 2341,
      "zer": 2342,
      "##gram": 2343,
      "##rest": 2344,
      "k_": 2345,
      "Then": 2346,
      "detection": 2347,
      "Theorem": 2348,
      "##tec": 2349,
      "arr": 2350,
      "techni": 2351,
      "layer": 2352,
      "Sch": 2353,
      "disc": 2354,
      "##cit": 2355,
      "ke": 2356,
      "37": 2357,
      "##ontin": 2358,
      "##ocia": 2359,
      "current": 2360,
      "##ological": 2361,
      "##ngs": 2362,
      "even": 2363,
      "##nders": 2364,
      "many": 2365,
      "am": 2366,
      "sequence": 2367,
      "##onte": 2368,
      "langle": 2369,
      "}\\]": 2370,
      "dur": 2371,
      "character": 2372,
      "how": 2373,
      "contin": 2374,
      "##chin": 2375,
      "without": 2376,
      "##rtain": 2377,
      "within": 2378,
      "##all": 2379,
      "##ak": 2380,
      "40": 2381,
      "##tude": 2382,
      "##oly": 2383,
      "##uter": 2384,
      "accuracy": 2385,
      "##ucl": 2386,
      "interac": 2387,
      "hand": 2388,
      "##umn": 2389,
      "If": 2390,
      "main": 2391,
      "##mark": 2392,
      "clust": 2393,
      "Thes": 2394,
      "##eam": 2395,
      "could": 2396,
      "objec": 2397,
      "u_": 2398,
      "##mon": 2399,
      "them": 2400,
      "cos": 2401,
      "further": 2402,
      "Science": 2403,
      "expl": 2404,
      "E_": 2405,
      "##ery": 2406,
      "via": 2407,
      "##ful": 2408,
      "reco": 2409,
      "oc": 2410,
      "##gra": 2411,
      "##app": 2412,
      "38": 2413,
      "##tics": 2414,
      "Fe": 2415,
      "path": 2416,
      "##tory": 2417,
      "origi": 2418,
      "Lett": 2419,
      "surface": 2420,
      "##fficie": 2421,
      "design": 2422,
      "detail": 2423,
      "##ndard": 2424,
      "##ced": 2425,
      "X_": 2426,
      "These": 2427,
      "##lack": 2428,
      "frequency": 2429,
      "##tig": 2430,
      "make": 2431,
      "communi": 2432,
      "##ournal": 2433,
      "cri": 2434,
      "R_": 2435,
      "##trop": 2436,
      "constrai": 2437,
      "because": 2438,
      "stati": 2439,
      "about": 2440,
      "add": 2441,
      "##oint": 2442,
      "obtain": 2443,
      "}}(": 2444,
      "##onstant": 2445,
      "very": 2446,
      "##ppl": 2447,
      "abs": 2448,
      "##osit": 2449,
      ")\\),": 2450,
      "##igu": 2451,
      "Our": 2452,
      "##nia": 2453,
      "includ": 2454,
      "Let": 2455,
      "sat": 2456,
      "##chine": 2457,
      "find": 2458,
      "##ption": 2459,
      "implement": 2460,
      "zero": 2461,
      "framework": 2462,
      "found": 2463,
      "doi": 2464,
      "total": 2465,
      "##11": 2466,
      "##oduction": 2467,
      "indicat": 2468,
      "vec": 2469,
      "}/": 2470,
      "Vi": 2471,
      "spe": 2472,
      "An": 2473,
      "env": 2474,
      "previous": 2475,
      "constant": 2476,
      "denote": 2477,
      "##once": 2478,
      "##ttern": 2479,
      "##onc": 2480,
      "flow": 2481,
      "equiv": 2482,
      "M_": 2483,
      "effect": 2484,
      "##emi": 2485,
      "Sa": 2486,
      "##ivi": 2487,
      "tex": 2488,
      ")\\).": 2489,
      "estimate": 2490,
      "lower": 2491,
      "observed": 2492,
      "##ssion": 2493,
      "effective": 2494,
      "##ument": 2495,
      "Note": 2496,
      "step": 2497,
      "multiple": 2498,
      "##ified": 2499,
      "##near": 2500,
      "behavi": 2501,
      "improve": 2502,
      "nume": 2503,
      "ri": 2504,
      "conce": 2505,
      "##iron": 2506,
      "numer": 2507,
      "sati": 2508,
      "Phi": 2509,
      "interact": 2510,
      "##osition": 2511,
      "difference": 2512,
      "finite": 2513,
      "D_": 2514,
      "##ify": 2515,
      "##rse": 2516,
      "##ste": 2517,
      "length": 2518,
      "should": 2519,
      "s_": 2520,
      "target": 2521,
      "mecha": 2522,
      "normal": 2523,
      "hu": 2524,
      "More": 2525,
      "##ret": 2526,
      "Sh": 2527,
      "algorithms": 2528,
      "##of": 2529,
      "02": 2530,
      "##ison": 2531,
      "##als": 2532,
      "##heme": 2533,
      "##ledge": 2534,
      "inve": 2535,
      "39": 2536,
      "alpha_": 2537,
      "cap": 2538,
      "##lue": 2539,
      "varphi": 2540,
      "equations": 2541,
      "##idual": 2542,
      "properties": 2543,
      "]\\": 2544,
      "support": 2545,
      "##uss": 2546,
      "Wang": 2547,
      "dynamics": 2548,
      "technique": 2549,
      "2014": 2550,
      "Link": 2551,
      "experiments": 2552,
      "condit": 2553,
      "Ka": 2554,
      "conditions": 2555,
      "198": 2556,
      "##ching": 2557,
      "V_": 2558,
      "##ware": 2559,
      "##city": 2560,
      "optimization": 2561,
      "after": 2562,
      "conc": 2563,
      "^{(": 2564,
      "##mons": 2565,
      "##arrow": 2566,
      "sev": 2567,
      "42": 2568,
      "Ta": 2569,
      "Since": 2570,
      "##nfi": 2571,
      "temperature": 2572,
      "45": 2573,
      "block": 2574,
      ")}\\": 2575,
      "##nable": 2576,
      "sp": 2577,
      "##ount": 2578,
      "Therefore": 2579,
      "##box": 2580,
      "Sig": 2581,
      "produc": 2582,
      "##aila": 2583,
      "compared": 2584,
      "##tural": 2585,
      "sigma_": 2586,
      "##emma": 2587,
      "##ates": 2588,
      "##we": 2589,
      "B_": 2590,
      "##nam": 2591,
      "code": 2592,
      "better": 2593,
      "##eal": 2594,
      "standard": 2595,
      "##eous": 2596,
      "##12": 2597,
      "##appa": 2598,
      "deep": 2599,
      ".-": 2600,
      "region": 2601,
      "demons": 2602,
      "##ppi": 2603,
      "##ily": 2604,
      "##za": 2605,
      "considered": 2606,
      "L_": 2607,
      "##Net": 2608,
      "##onal": 2609,
      "scheme": 2610,
      "##ert": 2611,
      "##xi": 2612,
      "edge": 2613,
      "Thus": 2614,
      "##ota": 2615,
      "##ped": 2616,
      "satisf": 2617,
      "Fo": 2618,
      "**.": 2619,
      "##pla": 2620,
      "##bra": 2621,
      "##nstance": 2622,
      "43": 2623,
      "Sta": 2624,
      "##chitec": 2625,
      "}^{(": 2626,
      "##05": 2627,
      "instance": 2628,
      "##//": 2629,
      "every": 2630,
      "environ": 2631,
      "##nci": 2632,
      "So": 2633,
      "approximat": 2634,
      "deg": 2635,
      "duri": 2636,
      "Ac": 2637,
      "during": 2638,
      "thus": 2639,
      "condition": 2640,
      "selec": 2641,
      "kappa": 2642,
      "://": 2643,
      "g_": 2644,
      "associa": 2645,
      "##oti": 2646,
      "less": 2647,
      "poly": 2648,
      "trained": 2649,
      "spli": 2650,
      "factor": 2651,
      "simple": 2652,
      "##enar": 2653,
      "spat": 2654,
      "41": 2655,
      "##name": 2656,
      "indepe": 2657,
      "output": 2658,
      "grad": 2659,
      "##ely": 2660,
      "base": 2661,
      "##ool": 2662,
      "##cent": 2663,
      "mem": 2664,
      "htt": 2665,
      "fl": 2666,
      "samples": 2667,
      "44": 2668,
      "##time": 2669,
      "##trateg": 2670,
      "##eedings": 2671,
      "seve": 2672,
      "known": 2673,
      "y_": 2674,
      "generated": 2675,
      "rat": 2676,
      "##ord": 2677,
      "geo": 2678,
      "2022": 2679,
      "solutions": 2680,
      "peri": 2681,
      "black": 2682,
      "##rba": 2683,
      "SSI": 2684,
      "##olv": 2685,
      "Zhang": 2686,
      "setting": 2687,
      "boundary": 2688,
      "important": 2689,
      "close": 2690,
      "positive": 2691,
      "##hing": 2692,
      "channel": 2693,
      "curve": 2694,
      "way": 2695,
      "##..": 2696,
      "magnetic": 2697,
      "foc": 2698,
      "strong": 2699,
      "{-": 2700,
      "##pers": 2701,
      "relative": 2702,
      "##sts": 2703,
      "cell": 2704,
      "d_": 2705,
      "subse": 2706,
      "separ": 2707,
      "##easi": 2708,
      "No": 2709,
      "##ature": 2710,
      "##yers": 2711,
      "inves": 2712,
      "##bal": 2713,
      "converge": 2714,
      "conte": 2715,
      "light": 2716,
      "mu_": 2717,
      "operatorname": 2718,
      "geom": 2719,
      "En": 2720,
      "II": 2721,
      "05": 2722,
      "continu": 2723,
      "geome": 2724,
      "}[": 2725,
      "03": 2726,
      "^{*}": 2727,
      "sl": 2728,
      "cy": 2729,
      "##+}": 2730,
      "fixed": 2731,
      "##stics": 2732,
      "Fa": 2733,
      "\\{": 2734,
      "##cision": 2735,
      "scenar": 2736,
      "_C": 2737,
      "##04": 2738,
      "_S": 2739,
      "##ovi": 2740,
      "##iat": 2741,
      "transit": 2742,
      "##pping": 2743,
      "##own": 2744,
      "By": 2745,
      "long": 2746,
      "Ins": 2747,
      "48": 2748,
      "object": 2749,
      "problems": 2750,
      "specific": 2751,
      "##tom": 2752,
      "##oton": 2753,
      "2013": 2754,
      "solv": 2755,
      "##mission": 2756,
      "##ontra": 2757,
      "coe": 2758,
      "strateg": 2759,
      "##and": 2760,
      "##izi": 2761,
      "##ally": 2762,
      "}]": 2763,
      "##ailable": 2764,
      "Mode": 2765,
      "Trans": 2766,
      "##ntribution": 2767,
      "applications": 2768,
      "contra": 2769,
      "##col": 2770,
      "_T": 2771,
      "exist": 2772,
      "omega_": 2773,
      "##ving": 2774,
      "rev": 2775,
      "flu": 2776,
      "_J": 2777,
      "theta_": 2778,
      "independent": 2779,
      "rho_": 2780,
      "##SA": 2781,
      "\\,": 2782,
      "embed": 2783,
      "Comput": 2784,
      "view": 2785,
      "representa": 2786,
      "degree": 2787,
      "ldots": 2788,
      "prediction": 2789,
      ");": 2790,
      "##mic": 2791,
      "related": 2792,
      "representat": 2793,
      "au": 2794,
      "representation": 2795,
      "##izing": 2796,
      "##ST": 2797,
      "become": 2798,
      "##nian": 2799,
      "##lop": 2800,
      "##xe": 2801,
      "weight": 2802,
      "those": 2803,
      ".:": 2804,
      "##ka": 2805,
      "##ski": 2806,
      "ite": 2807,
      "classification": 2808,
      "iter": 2809,
      "##nta": 2810,
      "##ognition": 2811,
      "Qua": 2812,
      "H_": 2813,
      "ij": 2814,
      "architec": 2815,
      "47": 2816,
      "##igur": 2817,
      "##lyi": 2818,
      "bei": 2819,
      "poli": 2820,
      "approa": 2821,
      "##lobal": 2822,
      "##olle": 2823,
      "action": 2824,
      "##bly": 2825,
      "larger": 2826,
      "plane": 2827,
      "Interna": 2828,
      "las": 2829,
      "International": 2830,
      "along": 2831,
      "generat": 2832,
      "Chen": 2833,
      "_Pr": 2834,
      "user": 2835,
      "##iven": 2836,
      "##eer": 2837,
      "46": 2838,
      "##lying": 2839,
      "##til": 2840,
      "being": 2841,
      "group": 2842,
      "ste": 2843,
      "applied": 2844,
      "vert": 2845,
      "unders": 2846,
      "cost": 2847,
      "sampl": 2848,
      "\\))": 2849,
      "cross": 2850,
      "Lear": 2851,
      "ho": 2852,
      "select": 2853,
      "defin": 2854,
      "define": 2855,
      "transition": 2856,
      "##rne": 2857,
      "include": 2858,
      "##ontribution": 2859,
      "bes": 2860,
      "estimation": 2861,
      "##ording": 2862,
      "auto": 2863,
      "##part": 2864,
      "04": 2865,
      "best": 2866,
      "##mar": 2867,
      "nodes": 2868,
      "int_": 2869,
      "ada": 2870,
      "coupli": 2871,
      "contribution": 2872,
      "dot": 2873,
      "Physics": 2874,
      "investig": 2875,
      "##tch": 2876,
      "research": 2877,
      "##ens": 2878,
      "##easing": 2879,
      "G_": 2880,
      "##ngular": 2881,
      "##loc": 2882,
      "##ente": 2883,
      "Ext": 2884,
      "datasets": 2885,
      "devi": 2886,
      "basi": 2887,
      "expla": 2888,
      "Lambda": 2889,
      "##ona": 2890,
      "##nter": 2891,
      "q_": 2892,
      "##mati": 2893,
      "2012": 2894,
      "che": 2895,
      "}}{\\": 2896,
      "tasks": 2897,
      "several": 2898,
      "49": 2899,
      "wr": 2900,
      "Here": 2901,
      "off": 2902,
      "##ived": 2903,
      "##uted": 2904,
      "cluste": 2905,
      "Cha": 2906,
      "##nfor": 2907,
      "focus": 2908,
      "colle": 2909,
      "##oder": 2910,
      "described": 2911,
      "emp": 2912,
      "adv": 2913,
      "approaches": 2914,
      "nega": 2915,
      "##iation": 2916,
      "##pu": 2917,
      "fil": 2918,
      "System": 2919,
      "interaction": 2920,
      "fact": 2921,
      "##uture": 2922,
      "phi_": 2923,
      "electron": 2924,
      "pop": 2925,
      "|\\": 2926,
      "Big": 2927,
      "_Phys": 2928,
      "interest": 2929,
      "ten": 2930,
      "maximum": 2931,
      "veloc": 2932,
      "recent": 2933,
      "dist": 2934,
      "attack": 2935,
      "challe": 2936,
      "vers": 2937,
      "achieve": 2938,
      "behavior": 2939,
      "para": 2940,
      "##ogr": 2941,
      "##SS": 2942,
      "64": 2943,
      "##gmenta": 2944,
      "##}{": 2945,
      "##sc": 2946,
      "Lemma": 2947,
      "##gmentat": 2948,
      "here": 2949,
      "including": 2950,
      "##gmentation": 2951,
      "##bla": 2952,
      "##06": 2953,
      "z_": 2954,
      "b_": 2955,
      "pattern": 2956,
      "sensi": 2957,
      "overl": 2958,
      "##rth": 2959,
      "##AR": 2960,
      "assume": 2961,
      "##amil": 2962,
      "##oic": 2963,
      "various": 2964,
      "Inte": 2965,
      "F_": 2966,
      "##igned": 2967,
      "star": 2968,
      "ther": 2969,
      "##nic": 2970,
      "ill": 2971,
      "##otic": 2972,
      "devic": 2973,
      "device": 2974,
      "key": 2975,
      "ref": 2976,
      "Learning": 2977,
      "52": 2978,
      "addit": 2979,
      "comparison": 2980,
      "))": 2981,
      "util": 2982,
      "score": 2983,
      "##ross": 2984,
      "##inear": 2985,
      "##bri": 2986,
      "Inst": 2987,
      "radi": 2988,
      "overli": 2989,
      "overlin": 2990,
      "overline": 2991,
      "tau_": 2992,
      "cluster": 2993,
      "##ept": 2994,
      "effects": 2995,
      "##oice": 2996,
      "##pons": 2997,
      "##\\,": 2998,
      "four": 2999,
      "https": 3000,
      "##AM": 3001,
      "pers": 3002,
      "Mo": 3003,
      "##erse": 3004,
      "**.:": 3005,
      "##eep": 3006,
      "##ud": 3007,
      "associated": 3008,
      "##ights": 3009,
      "##rtu": 3010,
      "efficient": 3011,
      "near": 3012,
      "pair": 3013,
      "Ja": 3014,
      "06": 3015,
      "Appl": 3016,
      "hi": 3017,
      "Exte": 3018,
      "Dat": 3019,
      "##ordi": 3020,
      "deca": 3021,
      "presented": 3022,
      "human": 3023,
      "hep": 3024,
      "Further": 3025,
      "much": 3026,
      "map": 3027,
      "band": 3028,
      "asy": 3029,
      "Data": 3030,
      "numerical": 3031,
      "_IEEE": 3032,
      "##mption": 3033,
      "hyper": 3034,
      "complete": 3035,
      "Pro": 3036,
      "##nother": 3037,
      "##es": 3038,
      "##ces": 3039,
      "##nes": 3040,
      "##ses": 3041,
      "w_": 3042,
      "run": 3043,
      "charge": 3044,
      "eig": 3045,
      "valid": 3046,
      "hole": 3047,
      "##linear": 3048,
      "capa": 3049,
      "##ification": 3050,
      "spatial": 3051,
      "##east": 3052,
      "##hil": 3053,
      "dots": 3054,
      "##07": 3055,
      "ground": 3056,
      "##09": 3057,
      "2011": 3058,
      "expected": 3059,
      "##wis": 3060,
      "##oll": 3061,
      "##mann": 3062,
      "develop": 3063,
      "##))": 3064,
      "##stent": 3065,
      "##istent": 3066,
      "Hu": 3067,
      "##ER": 3068,
      "indiv": 3069,
      "posit": 3070,
      ".;": 3071,
      "ki": 3072,
      "##~{}": 3073,
      "robust": 3074,
      "55": 3075,
      "still": 3076,
      "gamma_": 3077,
      "51": 3078,
      "##ither": 3079,
      "##las": 3080,
      "})^{": 3081,
      "must": 3082,
      "configur": 3083,
      "correct": 3084,
      "sets": 3085,
      "##rnal": 3086,
      "attention": 3087,
      "##lling": 3088,
      "machine": 3089,
      "approximation": 3090,
      "##erial": 3091,
      "##umi": 3092,
      "h_": 3093,
      "visual": 3094,
      "sto": 3095,
      "53": 3096,
      "##ndence": 3097,
      "##ground": 3098,
      ".**": 3099,
      "\\,\\": 3100,
      "mechanis": 3101,
      "##tal": 3102,
      "##tz": 3103,
      "decr": 3104,
      "nabla": 3105,
      "##cki": 3106,
      "global": 3107,
      "thi": 3108,
      "propose": 3109,
      "available": 3110,
      "56": 3111,
      "##vised": 3112,
      ")-": 3113,
      "respons": 3114,
      "short": 3115,
      "fields": 3116,
      "que": 3117,
      "##yi": 3118,
      "Gauss": 3119,
      "negative": 3120,
      "commo": 3121,
      "original": 3122,
      "##ually": 3123,
      "##column": 3124,
      "##fec": 3125,
      "common": 3126,
      "##ssing": 3127,
      "I_": 3128,
      "disti": 3129,
      "full": 3130,
      "multicolumn": 3131,
      "##nct": 3132,
      "Comm": 3133,
      "upda": 3134,
      "##AN": 3135,
      "##dr": 3136,
      "##gat": 3137,
      "fas": 3138,
      "regular": 3139,
      "direction": 3140,
      "Tech": 3141,
      "motion": 3142,
      "called": 3143,
      "##lth": 3144,
      "qu": 3145,
      "3D": 3146,
      "##uage": 3147,
      "##che": 3148,
      "unce": 3149,
      "particle": 3150,
      "exa": 3151,
      "interv": 3152,
      "Wit": 3153,
      "shi": 3154,
      "pertu": 3155,
      "Sigma": 3156,
      "mult": 3157,
      "##nging": 3158,
      "variables": 3159,
      "##ppendi": 3160,
      "Ev": 3161,
      "evaluat": 3162,
      "(\\(\\": 3163,
      "_Proc": 3164,
      "##ighb": 3165,
      "layers": 3166,
      "##matic": 3167,
      "Neu": 3168,
      "##rl": 3169,
      "Finally": 3170,
      "additional": 3171,
      "learn": 3172,
      "addition": 3173,
      "spectrum": 3174,
      "54": 3175,
      "##ocument": 3176,
      "quanti": 3177,
      "Chi": 3178,
      "cond": 3179,
      "rece": 3180,
      "}\\,": 3181,
      "ratio": 3182,
      "self": 3183,
      "##chas": 3184,
      "exac": 3185,
      "components": 3186,
      "eas": 3187,
      "suc": 3188,
      "ampl": 3189,
      "experimental": 3190,
      "agent": 3191,
      "trajec": 3192,
      "Us": 3193,
      "transform": 3194,
      "hea": 3195,
      "polar": 3196,
      "External": 3197,
      "Journal": 3198,
      "rad": 3199,
      "temp": 3200,
      "pra": 3201,
      "now": 3202,
      "##hile": 3203,
      "symmetry": 3204,
      "2010": 3205,
      "induc": 3206,
      "##lax": 3207,
      "environment": 3208,
      "##rete": 3209,
      "##sive": 3210,
      "##oid": 3211,
      "Links": 3212,
      "proof": 3213,
      "##ppendix": 3214,
      "computa": 3215,
      "Mathemat": 3216,
      "component": 3217,
      "exact": 3218,
      "##oral": 3219,
      "##CM": 3220,
      "At": 3221,
      "means": 3222,
      "least": 3223,
      "Va": 3224,
      "##shed": 3225,
      "future": 3226,
      "computat": 3227,
      "000": 3228,
      "metric": 3229,
      "individual": 3230,
      "mani": 3231,
      "around": 3232,
      "wri": 3233,
      "##wise": 3234,
      "SSII": 3235,
      "Pi": 3236,
      "knowledge": 3237,
      "beta_": 3238,
      "##sistent": 3239,
      "##nsistent": 3240,
      "prac": 3241,
      "When": 3242,
      "##oke": 3243,
      "##idence": 3244,
      "constraints": 3245,
      "Computer": 3246,
      "respect": 3247,
      "##pan": 3248,
      "tree": 3249,
      "Moreover": 3250,
      "lang": 3251,
      "hel": 3252,
      "Liu": 3253,
      "assu": 3254,
      "pl": 3255,
      "continuous": 3256,
      "formu": 3257,
      "75": 3258,
      "[\\": 3259,
      "neighb": 3260,
      "08": 3261,
      "coupling": 3262,
      "##ength": 3263,
      "unit": 3264,
      "##oordi": 3265,
      "dimension": 3266,
      "ques": 3267,
      "Math": 3268,
      "##tropy": 3269,
      "array": 3270,
      "velocity": 3271,
      "cli": 3272,
      "##otnote": 3273,
      "critical": 3274,
      "##chast": 3275,
      "##enter": 3276,
      "coordi": 3277,
      "Met": 3278,
      "##ules": 3279,
      "##16": 3280,
      "report": 3281,
      "##bers": 3282,
      "hard": 3283,
      "197": 3284,
      "micr": 3285,
      "K_": 3286,
      "partial_": 3287,
      "##otat": 3288,
      "##tributed": 3289,
      "across": 3290,
      "##08": 3291,
      "Lo": 3292,
      "##orat": 3293,
      "context": 3294,
      "arg": 3295,
      "mar": 3296,
      "simulations": 3297,
      "##gges": 3298,
      "##ying": 3299,
      "diff": 3300,
      "##itude": 3301,
      "##nology": 3302,
      "vide": 3303,
      "##eeri": 3304,
      "##)\\)": 3305,
      "side": 3306,
      "matter": 3307,
      "resolution": 3308,
      "##eering": 3309,
      "##onsistent": 3310,
      "##chasti": 3311,
      "##onic": 3312,
      "prod": 3313,
      "position": 3314,
      "##ami": 3315,
      "extra": 3316,
      "angle": 3317,
      "57": 3318,
      "sugges": 3319,
      "{{\\": 3320,
      "07": 3321,
      "below": 3322,
      "}}=": 3323,
      "rem": 3324,
      "2009": 3325,
      "lines": 3326,
      "measurements": 3327,
      "bra": 3328,
      "reconstr": 3329,
      "relations": 3330,
      "##resh": 3331,
      "Ro": 3332,
      "58": 3333,
      "##}}": 3334,
      ".\\]": 3335,
      "One": 3336,
      "##ored": 3337,
      "classical": 3338,
      "##print": 3339,
      "New": 3340,
      "squa": 3341,
      "##ior": 3342,
      "##tur": 3343,
      "##heore": 3344,
      "graphs": 3345,
      "65": 3346,
      "either": 3347,
      "quality": 3348,
      "##cking": 3349,
      "##zi": 3350,
      "##ability": 3351,
      "##chastic": 3352,
      "##ets": 3353,
      "choice": 3354,
      "##the": 3355,
      "##!\\": 3356,
      "communication": 3357,
      "evolution": 3358,
      "##nate": 3359,
      "final": 3360,
      "60": 3361,
      "##vity": 3362,
      "##ntral": 3363,
      "##ios": 3364,
      "illus": 3365,
      "Research": 3366,
      "##nner": 3367,
      "subset": 3368,
      "connected": 3369,
      "##llel": 3370,
      "split": 3371,
      "##iva": 3372,
      "Fro": 3373,
      "##tonian": 3374,
      "photon": 3375,
      "##CA": 3376,
      "With": 3377,
      "physical": 3378,
      "describe": 3379,
      "##sor": 3380,
      "},\\]": 3381,
      "##sions": 3382,
      "##ears": 3383,
      "##bo": 3384,
      "Gaussian": 3385,
      "99": 3386,
      "volume": 3387,
      "mbox": 3388,
      "invaria": 3389,
      "works": 3390,
      "59": 3391,
      "##table": 3392,
      "theore": 3393,
      "studies": 3394,
      "##gger": 3395,
      "contains": 3396,
      "underst": 3397,
      "##)-": 3398,
      "maps": 3399,
      "##sci": 3400,
      "directly": 3401,
      "Ar": 3402,
      "##ja": 3403,
      "name": 3404,
      "##ionally": 3405,
      "cannot": 3406,
      "63": 3407,
      "architecture": 3408,
      "classif": 3409,
      "note": 3410,
      "##ker": 3411,
      "techniques": 3412,
      "##nomial": 3413,
      "empl": 3414,
      "equival": 3415,
      "express": 3416,
      "impa": 3417,
      "search": 3418,
      "##orp": 3419,
      "shape": 3420,
      "refl": 3421,
      "consistent": 3422,
      "##\\))": 3423,
      "compute": 3424,
      "##rp": 3425,
      "necess": 3426,
      "required": 3427,
      "smaller": 3428,
      "provides": 3429,
      "dive": 3430,
      "##more": 3431,
      "##cated": 3432,
      "}.\\]": 3433,
      "correlation": 3434,
      "##ulting": 3435,
      "increasing": 3436,
      "##ucted": 3437,
      "nucl": 3438,
      "policy": 3439,
      "El": 3440,
      "Footnote": 3441,
      "bou": 3442,
      "##ferences": 3443,
      "62": 3444,
      "_a": 3445,
      "exc": 3446,
      "ens": 3447,
      "Hamil": 3448,
      "seen": 3449,
      "processi": 3450,
      "processing": 3451,
      "##uto": 3452,
      "complexity": 3453,
      "open": 3454,
      "program": 3455,
      "##oad": 3456,
      "latti": 3457,
      "expon": 3458,
      "sampli": 3459,
      "##].": 3460,
      "objects": 3461,
      "contras": 3462,
      "##FT": 3463,
      "resulting": 3464,
      "memory": 3465,
      "increases": 3466,
      "Ass": 3467,
      "proced": 3468,
      "gradient": 3469,
      "sampling": 3470,
      "Appendix": 3471,
      "##olutio": 3472,
      "before": 3473,
      "next": 3474,
      "##}\\).": 3475,
      "success": 3476,
      "refle": 3477,
      "##IS": 3478,
      "##tivity": 3479,
      "##fficiency": 3480,
      "achiev": 3481,
      "Ind": 3482,
      "##oward": 3483,
      "##ya": 3484,
      "vertex": 3485,
      "##ks": 3486,
      "perturba": 3487,
      "zet": 3488,
      "zeta": 3489,
      "generate": 3490,
      "Spec": 3491,
      "circ": 3492,
      "nonlinear": 3493,
      "##oding": 3494,
      "exists": 3495,
      "performed": 3496,
      "##ody": 3497,
      "})=": 3498,
      "Ps": 3499,
      "III": 3500,
      "##ech": 3501,
      "pages": 3502,
      "Opt": 3503,
      "interactions": 3504,
      "elements": 3505,
      "##iate": 3506,
      "loop": 3507,
      "regions": 3508,
      "First": 3509,
      "thresh": 3510,
      "##tual": 3511,
      "##10": 3512,
      "Model": 3513,
      "let": 3514,
      "##tute": 3515,
      "##itute": 3516,
      "sin": 3517,
      "observe": 3518,
      "##gineering": 3519,
      "transfer": 3520,
      "therefore": 3521,
      "Astr": 3522,
      "##;\\": 3523,
      "From": 3524,
      "good": 3525,
      "material": 3526,
      "##osc": 3527,
      "measurement": 3528,
      "enh": 3529,
      "generation": 3530,
      "bia": 3531,
      "delta_": 3532,
      "Bi": 3533,
      "##([": 3534,
      "67": 3535,
      "##((\\": 3536,
      "strategy": 3537,
      "evaluation": 3538,
      "users": 3539,
      "allows": 3540,
      "demonstra": 3541,
      "series": 3542,
      "CO": 3543,
      "09": 3544,
      "grow": 3545,
      "soft": 3546,
      "uniform": 3547,
      "##oriz": 3548,
      "whe": 3549,
      "Intr": 3550,
      "impac": 3551,
      "}\\))": 3552,
      "##aph": 3553,
      "verti": 3554,
      "computational": 3555,
      "##fect": 3556,
      "##gation": 3557,
      "particles": 3558,
      "equal": 3559,
      "##}\\),": 3560,
      "modes": 3561,
      "##oof": 3562,
      "##bilities": 3563,
      "##(|": 3564,
      "##essi": 3565,
      "95": 3566,
      "##teg": 3567,
      "beam": 3568,
      "2008": 3569,
      "}})": 3570,
      "access": 3571,
      "{)": 3572,
      "speed": 3573,
      "minim": 3574,
      "types": 3575,
      "Sim": 3576,
      "##eady": 3577,
      "connec": 3578,
      "Soc": 3579,
      "element": 3580,
      "##cing": 3581,
      "##tteri": 3582,
      "##ories": 3583,
      "significantly": 3584,
      "\\((\\": 3585,
      "##bf": 3586,
      "according": 3587,
      "observations": 3588,
      "categ": 3589,
      "##oving": 3590,
      "Network": 3591,
      "cho": 3592,
      "extract": 3593,
      "propa": 3594,
      "clear": 3595,
      "##llig": 3596,
      "color": 3597,
      "convergence": 3598,
      "##idd": 3599,
      "\\([": 3600,
      "computation": 3601,
      "##13": 3602,
      "optical": 3603,
      "}^{-": 3604,
      "recognition": 3605,
      "language": 3606,
      "##times": 3607,
      "edges": 3608,
      "##nces": 3609,
      "distributions": 3610,
      "##cement": 3611,
      "accurate": 3612,
      "background": 3613,
      "While": 3614,
      "among": 3615,
      "application": 3616,
      "##AS": 3617,
      "provided": 3618,
      "discussed": 3619,
      "few": 3620,
      "##tribute": 3621,
      "eige": 3622,
      "##stical": 3623,
      "simu": 3624,
      "measured": 3625,
      "##manti": 3626,
      "##iving": 3627,
      "down": 3628,
      "Ve": 3629,
      "exten": 3630,
      "parallel": 3631,
      "ann": 3632,
      "explai": 3633,
      "97": 3634,
      "68": 3635,
      "art": 3636,
      "85": 3637,
      "\\(|": 3638,
      "org": 3639,
      "dagger": 3640,
      "##fra": 3641,
      "##\\)-": 3642,
      "employ": 3643,
      "##EP": 3644,
      "##entum": 3645,
      "##essing": 3646,
      "##mentum": 3647,
      "e_": 3648,
      "##ften": 3649,
      "prior": 3650,
      "66": 3651,
      "resource": 3652,
      "prot": 3653,
      "amplitude": 3654,
      "details": 3655,
      "solve": 3656,
      "##hors": 3657,
      "vertices": 3658,
      "##ttering": 3659,
      "area": 3660,
      "label": 3661,
      "Hamiltonian": 3662,
      "SI": 3663,
      "iso": 3664,
      "Wa": 3665,
      "represents": 3666,
      "robot": 3667,
      "]\\)": 3668,
      "characteri": 3669,
      "}}\\),": 3670,
      "##uth": 3671,
      "efficiency": 3672,
      "\\]": 3673,
      "mag": 3674,
      "equili": 3675,
      "##neous": 3676,
      "textbf": 3677,
      "relev": 3678,
      "studied": 3679,
      "}\\)-": 3680,
      "ii": 3681,
      "entropy": 3682,
      "introduced": 3683,
      "##partment": 3684,
      "mini": 3685,
      "##plicit": 3686,
      "iss": 3687,
      "##oration": 3688,
      "get": 3689,
      "calculated": 3690,
      "Document": 3691,
      "69": 3692,
      "##ists": 3693,
      "##rtainty": 3694,
      "Sha": 3695,
      "address": 3696,
      "Introduction": 3697,
      "77": 3698,
      "neq": 3699,
      "smo": 3700,
      "##ched": 3701,
      "last": 3702,
      "sufficient": 3703,
      "spectral": 3704,
      "interp": 3705,
      "##puts": 3706,
      "period": 3707,
      "##osen": 3708,
      "enhance": 3709,
      "Furthermore": 3710,
      "upper": 3711,
      "mathsf": 3712,
      "processes": 3713,
      "nor": 3714,
      "world": 3715,
      "scalar": 3716,
      "##sat": 3717,
      "develo": 3718,
      "##rting": 3719,
      "##dit": 3720,
      "##PS": 3721,
      "Dis": 3722,
      "Abs": 3723,
      "weak": 3724,
      "objective": 3725,
      "##lass": 3726,
      "##tilde": 3727,
      "operators": 3728,
      "##hesi": 3729,
      "momentum": 3730,
      "Q_": 3731,
      "######": 3732,
      "basel": 3733,
      "baseli": 3734,
      "Gu": 3735,
      "yield": 3736,
      "Hence": 3737,
      "post": 3738,
      "natural": 3739,
      "lattic": 3740,
      "lattice": 3741,
      "##brium": 3742,
      "collec": 3743,
      "peak": 3744,
      "##zed": 3745,
      "whether": 3746,
      "widetilde": 3747,
      "basis": 3748,
      "61": 3749,
      "meta": 3750,
      "pai": 3751,
      "All": 3752,
      "Sy": 3753,
      "dependent": 3754,
      "Lu": 3755,
      "ver": 3756,
      "_M": 3757,
      "J_": 3758,
      "stri": 3759,
      "often": 3760,
      "classes": 3761,
      "Algorithm": 3762,
      "/\\": 3763,
      "dra": 3764,
      "crea": 3765,
      "Quantum": 3766,
      "##ters": 3767,
      "computi": 3768,
      "computing": 3769,
      "segmentation": 3770,
      "##pth": 3771,
      "existi": 3772,
      "existing": 3773,
      "Cl": 3774,
      "princi": 3775,
      "##mina": 3776,
      "##trics": 3777,
      "serv": 3778,
      "##lay": 3779,
      "72": 3780,
      "##olli": 3781,
      "##tten": 3782,
      "limits": 3783,
      "compare": 3784,
      "##mit": 3785,
      "preprint": 3786,
      "challenge": 3787,
      "Pre": 3788,
      "steps": 3789,
      "train": 3790,
      "##reen": 3791,
      "orbit": 3792,
      "uses": 3793,
      "able": 3794,
      "computed": 3795,
      "##berg": 3796,
      "synt": 3797,
      "his": 3798,
      "##ncies": 3799,
      "##oh": 3800,
      "##pat": 3801,
      "infi": 3802,
      "SS1": 3803,
      "impact": 3804,
      "cdots": 3805,
      "temporal": 3806,
      "Method": 3807,
      "ato": 3808,
      "she": 3809,
      "population": 3810,
      "true": 3811,
      "operat": 3812,
      "relation": 3813,
      "certain": 3814,
      "leads": 3815,
      "Cor": 3816,
      "Du": 3817,
      "requires": 3818,
      "_L": 3819,
      "textr": 3820,
      "}:": 3821,
      "textrm": 3822,
      "becomes": 3823,
      "osci": 3824,
      "##ica": 3825,
      "##ivat": 3826,
      "2007": 3827,
      "Proof": 3828,
      "2006": 3829,
      "##hesis": 3830,
      "})\\).": 3831,
      "quant": 3832,
      "##CC": 3833,
      "horiz": 3834,
      "##gral": 3835,
      "##va": 3836,
      "##fically": 3837,
      "Ya": 3838,
      "regime": 3839,
      "remain": 3840,
      "##quir": 3841,
      "direc": 3842,
      "stochastic": 3843,
      "examples": 3844,
      "\\(\\{": 3845,
      "tool": 3846,
      "}&": 3847,
      "--": 3848,
      "_i": 3849,
      "Psi": 3850,
      "##equent": 3851,
      "Mar": 3852,
      "contro": 3853,
      "##non": 3854,
      "##back": 3855,
      "evaluate": 3856,
      "Ke": 3857,
      "resona": 3858,
      "however": 3859,
      "##nsu": 3860,
      "project": 3861,
      "##equa": 3862,
      "rightarrow": 3863,
      "simpli": 3864,
      "advers": 3865,
      "##imilar": 3866,
      "Am": 3867,
      "explicit": 3868,
      "exe": 3869,
      "\\|": 3870,
      "kerne": 3871,
      "polynomial": 3872,
      "##uge": 3873,
      "##nda": 3874,
      "Ima": 3875,
      "##xis": 3876,
      "##SE": 3877,
      "mechanism": 3878,
      "Gene": 3879,
      "##matrix": 3880,
      "stage": 3881,
      "rank": 3882,
      "IV": 3883,
      "Ste": 3884,
      "Ref": 3885,
      "Usi": 3886,
      "##NR": 3887,
      "pixe": 3888,
      "occu": 3889,
      "U_": 3890,
      "affec": 3891,
      "##ways": 3892,
      "\\}": 3893,
      ")+": 3894,
      "76": 3895,
      "Using": 3896,
      "##bits": 3897,
      "another": 3898,
      "authors": 3899,
      "unique": 3900,
      "##cke": 3901,
      "implies": 3902,
      "gives": 3903,
      ",\\]": 3904,
      "##heorem": 3905,
      "colli": 3906,
      "dynamic": 3907,
      "##iety": 3908,
      "##ovel": 3909,
      "##gre": 3910,
      "decrease": 3911,
      "})\\),": 3912,
      "}|\\": 3913,
      "78": 3914,
      "##DE": 3915,
      "minimum": 3916,
      "##otation": 3917,
      "fully": 3918,
      "procedure": 3919,
      "##ages": 3920,
      "##frac": 3921,
      "Compa": 3922,
      "Delta_": 3923,
      "prof": 3924,
      "limited": 3925,
      "##fficients": 3926,
      "changes": 3927,
      "vehi": 3928,
      "Prop": 3929,
      "73": 3930,
      "##olutional": 3931,
      "##15": 3932,
      "publi": 3933,
      "scattering": 3934,
      "Theory": 3935,
      "ML": 3936,
      "_E": 3937,
      "theorem": 3938,
      "Information": 3939,
      "##hood": 3940,
      "selection": 3941,
      "##min": 3942,
      "##14": 3943,
      "wideh": 3944,
      "wideha": 3945,
      "Ri": 3946,
      "##iev": 3947,
      "shift": 3948,
      "##gene": 3949,
      "weights": 3950,
      "Department": 3951,
      "80": 3952,
      "depth": 3953,
      "inference": 3954,
      "Abstract": 3955,
      "##oud": 3956,
      "widehat": 3957,
      "eigenv": 3958,
      "98": 3959,
      "MI": 3960,
      "contrast": 3961,
      "##pac": 3962,
      "structures": 3963,
      "wha": 3964,
      "##fu": 3965,
      "hal": 3966,
      "enti": 3967,
      "##mary": 3968,
      "coefficients": 3969,
      "74": 3970,
      "just": 3971,
      "##ided": 3972,
      "79": 3973,
      "##bitra": 3974,
      "mole": 3975,
      "adop": 3976,
      "Yang": 3977,
      "reference": 3978,
      "what": 3979,
      "##nical": 3980,
      "96": 3981,
      "82": 3982,
      "diffic": 3983,
      "threshold": 3984,
      "CNN": 3985,
      "mad": 3986,
      "introduce": 3987,
      "**(": 3988,
      "press": 3989,
      "lead": 3990,
      "scenario": 3991,
      "pass": 3992,
      "decay": 3993,
      "semi": 3994,
      "##ivation": 3995,
      "made": 3996,
      "refer": 3997,
      "dependence": 3998,
      "_Proceedings": 3999,
      "Omega_": 4000,
      "integral": 4001,
      "priv": 4002,
      "corresponds": 4003,
      "semanti": 4004,
      "central": 4005,
      "##ei": 4006,
      "##ira": 4007,
      "##rant": 4008,
      "Y_": 4009,
      "equivalent": 4010,
      "##tically": 4011,
      "review": 4012,
      "box": 4013,
      "##tead": 4014,
      "bot": 4015,
      "index": 4016,
      "video": 4017,
      "##stead": 4018,
      "adapt": 4019,
      ")\\]": 4020,
      "vary": 4021,
      "uncertainty": 4022,
      "read": 4023,
      "W_": 4024,
      "pul": 4025,
      "##ave": 4026,
      "##nstead": 4027,
      "axis": 4028,
      "psi_": 4029,
      "##19": 4030,
      "##lance": 4031,
      "##pace": 4032,
      "Cr": 4033,
      "instead": 4034,
      "##uli": 4035,
      "Deep": 4036,
      "estimated": 4037,
      "tensor": 4038,
      "##trices": 4039,
      "Ni": 4040,
      "tria": 4041,
      "##cas": 4042,
      "##lf": 4043,
      "whose": 4044,
      "determined": 4045,
      "asympt": 4046,
      "}}\\).": 4047,
      "##ID": 4048,
      "capture": 4049,
      "]].": 4050,
      "requir": 4051,
      "response": 4052,
      "agents": 4053,
      "expect": 4054,
      "gap": 4055,
      "definition": 4056,
      "grid": 4057,
      "selected": 4058,
      "relevant": 4059,
      "arbitra": 4060,
      "2D": 4061,
      "reduced": 4062,
      "Spri": 4063,
      "90": 4064,
      "##ked": 4065,
      "plot": 4066,
      "presence": 4067,
      "87": 4068,
      "errors": 4069,
      "93": 4070,
      "fit": 4071,
      "fin": 4072,
      "MA": 4073,
      "account": 4074,
      "##phic": 4075,
      "law": 4076,
      "novel": 4077,
      "pan": 4078,
      "GP": 4079,
      "##pot": 4080,
      "acce": 4081,
      "equilibrium": 4082,
      "denotes": 4083,
      "84": 4084,
      "Systems": 4085,
      "physics": 4086,
      "enable": 4087,
      "##sation": 4088,
      "_N": 4089,
      "blue": 4090,
      "reflec": 4091,
      "Similar": 4092,
      ")}\\)": 4093,
      "cov": 4094,
      "illustra": 4095,
      "##oscop": 4096,
      "##lls": 4097,
      "##tua": 4098,
      "decomp": 4099,
      "event": 4100,
      "arti": 4101,
      "accel": 4102,
      "##sted": 4103,
      "##cis": 4104,
      "##^{\\": 4105,
      "Analy": 4106,
      "Z_": 4107,
      "accele": 4108,
      "acceler": 4109,
      "theoretical": 4110,
      "Bu": 4111,
      "events": 4112,
      "epsilon_": 4113,
      "_The": 4114,
      "caus": 4115,
      "##lati": 4116,
      "apply": 4117,
      "##oring": 4118,
      "##18": 4119,
      "electro": 4120,
      "^{*": 4121,
      "fig": 4122,
      "stable": 4123,
      "##ngui": 4124,
      "profile": 4125,
      "}}(\\": 4126,
      "##terature": 4127,
      "##sists": 4128,
      "##ients": 4129,
      "##nsists": 4130,
      "appear": 4131,
      "binary": 4132,
      "thermal": 4133,
      "reduce": 4134,
      "##nted": 4135,
      "geometry": 4136,
      "body": 4137,
      "restric": 4138,
      "##iers": 4139,
      "game": 4140,
      "feed": 4141,
      "alge": 4142,
      "Par": 4143,
      "induced": 4144,
      "##onsists": 4145,
      "expan": 4146,
      "goal": 4147,
      "83": 4148,
      "consists": 4149,
      "involv": 4150,
      "##oge": 4151,
      "##ova": 4152,
      "integr": 4153,
      "matrices": 4154,
      "toward": 4155,
      "##entially": 4156,
      "identify": 4157,
      "##hip": 4158,
      "##nchmark": 4159,
      "words": 4160,
      "USA": 4161,
      "##arial": 4162,
      "inten": 4163,
      "dark": 4164,
      "##sactions": 4165,
      "signals": 4166,
      "joint": 4167,
      "role": 4168,
      "Institute": 4169,
      "##erge": 4170,
      "fine": 4171,
      "displa": 4172,
      "eta_": 4173,
      "Ki": 4174,
      "##ovement": 4175,
      "might": 4176,
      "representations": 4177,
      "}>": 4178,
      "##cui": 4179,
      "Do": 4180,
      "Multi": 4181,
      "Ph": 4182,
      "developed": 4183,
      "})}": 4184,
      "always": 4185,
      "92": 4186,
      "94": 4187,
      "decision": 4188,
      "89": 4189,
      "##17": 4190,
      "##odynami": 4191,
      "discrete": 4192,
      "86": 4193,
      "##({": 4194,
      "70": 4195,
      "modeli": 4196,
      "88": 4197,
      "univers": 4198,
      "quadr": 4199,
      "##tries": 4200,
      "property": 4201,
      "pairs": 4202,
      "modeling": 4203,
      "##izes": 4204,
      "##mitt": 4205,
      "})=\\": 4206,
      "\\}\\)": 4207,
      "leading": 4208,
      "quest": 4209,
      "}<": 4210,
      "product": 4211,
      "magni": 4212,
      "chosen": 4213,
      "drop": 4214,
      "Springer": 4215,
      "pane": 4216,
      "distributed": 4217,
      "Stat": 4218,
      "Transactions": 4219,
      "hence": 4220,
      "Proceedings": 4221,
      "##lusion": 4222,
      "literature": 4223,
      "##go": 4224,
      "configura": 4225,
      "##onfi": 4226,
      "China": 4227,
      "##mpe": 4228,
      "##anding": 4229,
      "configurat": 4230,
      "configuration": 4231,
      "2005": 4232,
      "center": 4233,
      "integra": 4234,
      "gauge": 4235,
      "}}=\\": 4236,
      "functional": 4237,
      "soc": 4238,
      "choose": 4239,
      "Rob": 4240,
      "confi": 4241,
      "convex": 4242,
      "symmetric": 4243,
      "##ances": 4244,
      "##PR": 4245,
      "Yu": 4246,
      "enta": 4247,
      "##geneous": 4248,
      "car": 4249,
      "edu": 4250,
      "##lating": 4251,
      "devices": 4252,
      "core": 4253,
      "##reless": 4254,
      "anti": 4255,
      "observa": 4256,
      "##tup": 4257,
      "##abli": 4258,
      "filter": 4259,
      "##odic": 4260,
      "constraint": 4261,
      "##oa": 4262,
      "supervised": 4263,
      "invariant": 4264,
      "\\%\\": 4265,
      "question": 4266,
      "2004": 4267,
      "##ediate": 4268,
      "prove": 4269,
      "testi": 4270,
      "##heno": 4271,
      "##olla": 4272,
      "testing": 4273,
      "active": 4274,
      "extr": 4275,
      "differential": 4276,
      "Kr": 4277,
      "fail": 4278,
      "cover": 4279,
      "overall": 4280,
      "##ali": 4281,
      "##ptive": 4282,
      "##emble": 4283,
      "row": 4284,
      "reward": 4285,
      "##dic": 4286,
      "SM": 4287,
      "##AV": 4288,
      "##quad": 4289,
      "##bu": 4290,
      "pi_": 4291,
      "qquad": 4292,
      "wind": 4293,
      "construct": 4294,
      "##normal": 4295,
      "predictions": 4296,
      "groups": 4297,
      "vectors": 4298,
      "curves": 4299,
      "scenarios": 4300,
      "##most": 4301,
      "taken": 4302,
      "_F": 4303,
      "derived": 4304,
      "And": 4305,
      "holds": 4306,
      "##sso": 4307,
      "rather": 4308,
      "require": 4309,
      "diagram": 4310,
      "implementa": 4311,
      "establi": 4312,
      "implementat": 4313,
      "##Hz": 4314,
      "stra": 4315,
      "implementation": 4316,
      "Each": 4317,
      "ano": 4318,
      "##odes": 4319,
      "##{}\\": 4320,
      "##henom": 4321,
      "Per": 4322,
      "##yes": 4323,
      "metrics": 4324,
      "##rly": 4325,
      "bounded": 4326,
      "gravity": 4327,
      "Engineering": 4328,
      "##ndam": 4329,
      "Ku": 4330,
      "repla": 4331,
      "labels": 4332,
      "magnitude": 4333,
      "topological": 4334,
      "column": 4335,
      "##tuations": 4336,
      "References": 4337,
      "assumption": 4338,
      "##ainst": 4339,
      "influe": 4340,
      "determin": 4341,
      "##iste": 4342,
      "##(-": 4343,
      "serve": 4344,
      "ti": 4345,
      "##pped": 4346,
      "##bert": 4347,
      "dou": 4348,
      "Des": 4349,
      "observat": 4350,
      "##cknow": 4351,
      "determine": 4352,
      "##}\\]": 4353,
      "##cipa": 4354,
      "check": 4355,
      "##iang": 4356,
      "buil": 4357,
      "expression": 4358,
      "rates": 4359,
      "bias": 4360,
      "Con": 4361,
      "useful": 4362,
      "advant": 4363,
      "stability": 4364,
      "Mu": 4365,
      "cam": 4366,
      "pose": 4367,
      "##ocol": 4368,
      "interpret": 4369,
      "##aneous": 4370,
      "embedding": 4371,
      "##ndament": 4372,
      "##mical": 4373,
      "##wit": 4374,
      "deriv": 4375,
      "##nates": 4376,
      "convolutional": 4377,
      "Equa": 4378,
      "version": 4379,
      "##cad": 4380,
      "start": 4381,
      "demonstrate": 4382,
      "##by": 4383,
      "numbers": 4384,
      "##ale": 4385,
      "baselin": 4386,
      "baseline": 4387,
      "bounds": 4388,
      "##frak": 4389,
      "mathfrak": 4390,
      "##les": 4391,
      "gravi": 4392,
      "regression": 4393,
      "fluc": 4394,
      "AI": 4395,
      "observation": 4396,
      "##wer": 4397,
      "radius": 4398,
      "achieved": 4399,
      "##CD": 4400,
      "flux": 4401,
      "dual": 4402,
      "##gs": 4403,
      "against": 4404,
      "##sm": 4405,
      "takes": 4406,
      "##ures": 4407,
      "##herent": 4408,
      "##uang": 4409,
      "##oken": 4410,
      "qui": 4411,
      "reported": 4412,
      "##sity": 4413,
      "ari": 4414,
      "don": 4415,
      "##gonal": 4416,
      "Thet": 4417,
      "Non": 4418,
      "Rec": 4419,
      "##\\\\": 4420,
      "infinite": 4421,
      "Processing": 4422,
      "rega": 4423,
      "benchmark": 4424,
      "##ok": 4425,
      "##zat": 4426,
      "Experime": 4427,
      "indicates": 4428,
      "module": 4429,
      "\\({": 4430,
      "##eu": 4431,
      "denot": 4432,
      "##pled": 4433,
      "Theta": 4434,
      "Technology": 4435,
      "strength": 4436,
      "med": 4437,
      "domina": 4438,
      "##idge": 4439,
      "turn": 4440,
      "supported": 4441,
      "ben": 4442,
      "exec": 4443,
      "##35": 4444,
      "finding": 4445,
      "Defi": 4446,
      "reason": 4447,
      "##curity": 4448,
      "##OS": 4449,
      "i_": 4450,
      "location": 4451,
      "Auto": 4452,
      "help": 4453,
      "predicted": 4454,
      "##bar": 4455,
      "Conc": 4456,
      "depends": 4457,
      "diffusion": 4458,
      "scali": 4459,
      "Ce": 4460,
      "196": 4461,
      ")}{": 4462,
      "##jor": 4463,
      "##dge": 4464,
      "##nna": 4465,
      "dimensions": 4466,
      "risk": 4467,
      "##LE": 4468,
      "CP": 4469,
      "galax": 4470,
      "transmission": 4471,
      "came": 4472,
      "kernel": 4473,
      "##MA": 4474,
      "makes": 4475,
      "##eased": 4476,
      "Neural": 4477,
      "far": 4478,
      "interval": 4479,
      "eigenval": 4480,
      "forc": 4481,
      "amount": 4482,
      "force": 4483,
      "Av": 4484,
      "\\%\\)": 4485,
      "mention": 4486,
      "driven": 4487,
      "##tories": 4488,
      "statistical": 4489,
      "estimates": 4490,
      "operation": 4491,
      "servi": 4492,
      "trajectory": 4493,
      "##24": 4494,
      "l_": 4495,
      "expansion": 4496,
      "figure": 4497,
      "medi": 4498,
      "##\\,\\": 4499,
      "##zation": 4500,
      "compac": 4501,
      "factors": 4502,
      "scaling": 4503,
      "cup": 4504,
      "surv": 4505,
      "After": 4506,
      "spectra": 4507,
      "##efi": 4508,
      "compact": 4509,
      "necessary": 4510,
      "principle": 4511,
      "Go": 4512,
      "gua": 4513,
      "making": 4514,
      "channels": 4515,
      "Vol": 4516,
      "Ele": 4517,
      "##nics": 4518,
      "coefficient": 4519,
      "##umer": 4520,
      "##ready": 4521,
      "aim": 4522,
      "##nequa": 4523,
      "enough": 4524,
      "reduction": 4525,
      "pressure": 4526,
      "transport": 4527,
      "Vision": 4528,
      "io": 4529,
      "Given": 4530,
      ")]": 4531,
      "##ficial": 4532,
      "levels": 4533,
      "##shi": 4534,
      "derivative": 4535,
      "phenom": 4536,
      "##iver": 4537,
      "conta": 4538,
      "Analys": 4539,
      "\",": 4540,
      "matching": 4541,
      "otimes": 4542,
      "connect": 4543,
      "variance": 4544,
      "##ji": 4545,
      "Acc": 4546,
      "computer": 4547,
      "multir": 4548,
      "##ub": 4549,
      "##45": 4550,
      "{{": 4551,
      "interesti": 4552,
      "manif": 4553,
      "interesting": 4554,
      "##CS": 4555,
      "##nalog": 4556,
      "singular": 4557,
      "00": 4558,
      "##idt": 4559,
      "inequa": 4560,
      "##verse": 4561,
      "##ster": 4562,
      "already": 4563,
      "collect": 4564,
      "##rXiv": 4565,
      "##tational": 4566,
      "##land": 4567,
      "}^{*}": 4568,
      "Str": 4569,
      "##ky": 4570,
      "smooth": 4571,
      "Analysi": 4572,
      "Conv": 4573,
      "reconstruction": 4574,
      "emission": 4575,
      "adversarial": 4576,
      "Wu": 4577,
      "orga": 4578,
      "Eu": 4579,
      "),\\": 4580,
      "Gamma_": 4581,
      "##23": 4582,
      "##...": 4583,
      "preserv": 4584,
      "nu_": 4585,
      "##ich": 4586,
      "##tuat": 4587,
      "treat": 4588,
      "Proposition": 4589,
      "##27": 4590,
      "##ffer": 4591,
      "contributions": 4592,
      "circui": 4593,
      "square": 4594,
      "Car": 4595,
      "detector": 4596,
      "##wn": 4597,
      "Alth": 4598,
      "multirow": 4599,
      "_D": 4600,
      "##rop": 4601,
      "ess": 4602,
      "}{*}": 4603,
      "designed": 4604,
      "##pes": 4605,
      "summar": 4606,
      "scene": 4607,
      "##yond": 4608,
      "##ivial": 4609,
      "exter": 4610,
      "##orth": 4611,
      "##201": 4612,
      "They": 4613,
      "entire": 4614,
      "protocol": 4615,
      "##nting": 4616,
      "Although": 4617,
      "##ping": 4618,
      "##ogether": 4619,
      "##dida": 4620,
      "_R": 4621,
      "extended": 4622,
      "##llat": 4623,
      "together": 4624,
      "noti": 4625,
      "kin": 4626,
      "camer": 4627,
      "CV": 4628,
      "difficult": 4629,
      "camera": 4630,
      "candida": 4631,
      "##call": 4632,
      "occur": 4633,
      "),\\]": 4634,
      "##nglement": 4635,
      "consideri": 4636,
      "heat": 4637,
      "considering": 4638,
      "##25": 4639,
      "interface": 4640,
      "##tral": 4641,
      "opp": 4642,
      "Pla": 4643,
      "2003": 4644,
      "guarant": 4645,
      "semantic": 4646,
      "##ibility": 4647,
      "move": 4648,
      "special": 4649,
      "calculate": 4650,
      "exhi": 4651,
      "}\\,\\": 4652,
      "##\\|": 4653,
      "##ignment": 4654,
      "itera": 4655,
      "##ications": 4656,
      "##ems": 4657,
      "##nserv": 4658,
      "broad": 4659,
      "conduct": 4660,
      "{[": 4661,
      "Au": 4662,
      "##forms": 4663,
      "Results": 4664,
      "Astro": 4665,
      "Elec": 4666,
      "##dd": 4667,
      "xi_": 4668,
      "##way": 4669,
      ").\\]": 4670,
      "alterna": 4671,
      "link": 4672,
      "ST": 4673,
      "closed": 4674,
      "encoder": 4675,
      "gas": 4676,
      "Communi": 4677,
      "plas": 4678,
      "plat": 4679,
      "##HEP": 4680,
      "##onserv": 4681,
      "man": 4682,
      "##umed": 4683,
      "##rri": 4684,
      "arbitrary": 4685,
      "precis": 4686,
      "2000": 4687,
      "##ves": 4688,
      "highly": 4689,
      "_arXiv": 4690,
      "denoted": 4691,
      "fast": 4692,
      "pract": 4693,
      "projec": 4694,
      "widt": 4695,
      "contain": 4696,
      "Work": 4697,
      "##iable": 4698,
      "##trin": 4699,
      "width": 4700,
      "##bserv": 4701,
      "patterns": 4702,
      "71": 4703,
      "colla": 4704,
      "{+}": 4705,
      "}}}\\": 4706,
      "Contr": 4707,
      "##rb": 4708,
      "mid": 4709,
      "##DM": 4710,
      "practi": 4711,
      "contac": 4712,
      "excit": 4713,
      "##tative": 4714,
      "##crimi": 4715,
      "Cu": 4716,
      "chain": 4717,
      "ray": 4718,
      "speech": 4719,
      "##nction": 4720,
      "Speci": 4721,
      "Lin": 4722,
      "sources": 4723,
      "conserv": 4724,
      "ell_": 4725,
      "2002": 4726,
      "quas": 4727,
      "##nchr": 4728,
      "stars": 4729,
      "tri": 4730,
      "##oso": 4731,
      "##fs": 4732,
      "rest": 4733,
      "ion": 4734,
      "covaria": 4735,
      "ones": 4736,
      "##xing": 4737,
      "bo": 4738,
      "reaso": 4739,
      "##ndamental": 4740,
      "##ply": 4741,
      "##RL": 4742,
      "##pically": 4743,
      "integrat": 4744,
      "combination": 4745,
      "supercond": 4746,
      "outper": 4747,
      "solid": 4748,
      "late": 4749,
      "##rc": 4750,
      "}\\|": 4751,
      "kine": 4752,
      "##infor": 4753,
      "remai": 4754,
      "formula": 4755,
      "onl": 4756,
      "onli": 4757,
      "onlin": 4758,
      "clusteri": 4759,
      "online": 4760,
      "Mark": 4761,
      ")+\\": 4762,
      "CS": 4763,
      "##stei": 4764,
      "sui": 4765,
      "curv": 4766,
      "calculations": 4767,
      "nature": 4768,
      "##rre": 4769,
      "##osing": 4770,
      "fla": 4771,
      "Stati": 4772,
      "Ko": 4773,
      "**:": 4774,
      "truth": 4775,
      "almost": 4776,
      "##dio": 4777,
      "##magnetic": 4778,
      "##tuation": 4779,
      "carr": 4780,
      "##stein": 4781,
      "Mathematics": 4782,
      "major": 4783,
      "face": 4784,
      "valida": 4785,
      "##pical": 4786,
      "Image": 4787,
      "Review": 4788,
      "towards": 4789,
      "hypot": 4790,
      "##uta": 4791,
      "##graph": 4792,
      "##(|\\": 4793,
      "##lus": 4794,
      "##IC": 4795,
      "conclu": 4796,
      "##pid": 4797,
      "##uming": 4798,
      "del": 4799,
      "##air": 4800,
      "}}^{\\": 4801,
      "##sson": 4802,
      "##ident": 4803,
      "clustering": 4804,
      "feedback": 4805,
      "81": 4806,
      "construction": 4807,
      "##\\}": 4808,
      "##pecially": 4809,
      "randomly": 4810,
      "##iera": 4811,
      "aggre": 4812,
      ":**": 4813,
      "ast": 4814,
      "##ionary": 4815,
      "analog": 4816,
      "proport": 4817,
      "understanding": 4818,
      "##llar": 4819,
      "cloud": 4820,
      "qubit": 4821,
      "##bas": 4822,
      "SS2": 4823,
      "fore": 4824,
      "exploi": 4825,
      "validat": 4826,
      "idea": 4827,
      "neur": 4828,
      "latter": 4829,
      "Lee": 4830,
      "Now": 4831,
      "##ook": 4832,
      "##orts": 4833,
      "measures": 4834,
      "done": 4835,
      "scales": 4836,
      "##DF": 4837,
      "mathemat": 4838,
      "usually": 4839,
      "fluid": 4840,
      "adj": 4841,
      "##pective": 4842,
      "slight": 4843,
      "forward": 4844,
      "avoid": 4845,
      "rotation": 4846,
      "##hereas": 4847,
      "maxim": 4848,
      "}\\}": 4849,
      "##sors": 4850,
      "ln": 4851,
      "reflect": 4852,
      "##26": 4853,
      "though": 4854,
      "Based": 4855,
      "approximate": 4856,
      "minimal": 4857,
      "sign": 4858,
      "\\(|\\": 4859,
      "SP": 4860,
      "prote": 4861,
      "triangle": 4862,
      "##ompe": 4863,
      "havi": 4864,
      "having": 4865,
      "produce": 4866,
      "forall": 4867,
      "remains": 4868,
      "description": 4869,
      "ro": 4870,
      "Wei": 4871,
      "clusters": 4872,
      "solving": 4873,
      "investigate": 4874,
      "##last": 4875,
      "##ierar": 4876,
      "##mally": 4877,
      "needs": 4878,
      "clin": 4879,
      "##olic": 4880,
      "cline": 4881,
      "participa": 4882,
      "^{+}": 4883,
      "inverse": 4884,
      "transformation": 4885,
      "detailed": 4886,
      "\\{\\": 4887,
      "compe": 4888,
      "development": 4889,
      "##DP": 4890,
      "##usi": 4891,
      "##idden": 4892,
      "##ru": 4893,
      "##rpose": 4894,
      "##equently": 4895,
      "Machine": 4896,
      "2001": 4897,
      "influence": 4898,
      "operations": 4899,
      "##sla": 4900,
      "norm": 4901,
      "##sim": 4902,
      "automat": 4903,
      "##turn": 4904,
      "##wo": 4905,
      "social": 4906,
      "##ightarrow": 4907,
      "IR": 4908,
      "implemented": 4909,
      "Specifically": 4910,
      "improved": 4911,
      "exci": 4912,
      "Mc": 4913,
      "taking": 4914,
      "represented": 4915,
      "half": 4916,
      "Bayes": 4917,
      "quasi": 4918,
      "##tence": 4919,
      "cycle": 4920,
      "third": 4921,
      "waves": 4922,
      "##nsider": 4923,
      "}},": 4924,
      "##ultaneous": 4925,
      "App": 4926,
      "bottom": 4927,
      "##ditional": 4928,
      "update": 4929,
      "##ott": 4930,
      "double": 4931,
      "##eo": 4932,
      "vision": 4933,
      "##ulk": 4934,
      "div": 4935,
      "purpose": 4936,
      "validation": 4937,
      "generalized": 4938,
      "Shi": 4939,
      "separate": 4940,
      "similarity": 4941,
      "needed": 4942,
      "DM": 4943,
      "extrem": 4944,
      "National": 4945,
      "aspec": 4946,
      "external": 4947,
      "_Journal": 4948,
      "Such": 4949,
      "relatively": 4950,
      "formation": 4951,
      "&\\": 4952,
      "varyi": 4953,
      "##unc": 4954,
      "discrimi": 4955,
      "conclud": 4956,
      "varying": 4957,
      "word": 4958,
      "Hi": 4959,
      "##olving": 4960,
      "Inter": 4961,
      "##eteq": 4962,
      "assumed": 4963,
      "gu": 4964,
      "existence": 4965,
      "CM": 4966,
      "parts": 4967,
      "evaluated": 4968,
      "Xu": 4969,
      "##mes": 4970,
      "##ao": 4971,
      "ferm": 4972,
      "horizo": 4973,
      "horizon": 4974,
      "}\\\\": 4975,
      "##fied": 4976,
      "calculation": 4977,
      "mapping": 4978,
      "precision": 4979,
      "remove": 4980,
      "{)}": 4981,
      "eff": 4982,
      "panel": 4983,
      "angular": 4984,
      "heter": 4985,
      "Sto": 4986,
      "separa": 4987,
      "overla": 4988,
      "uns": 4989,
      "mentioned": 4990,
      "dynamical": 4991,
      "##p_": 4992,
      "empir": 4993,
      "privacy": 4994,
      "PS": 4995,
      "}},\\": 4996,
      "##bon": 4997,
      "##ell": 4998,
      "delay": 4999,
      "Cou": 5000,
      "outcome": 5001,
      "query": 5002,
      "##llation": 5003,
      ")**": 5004,
      "coupled": 5005,
      "allo": 5006,
      "latent": 5007,
      "ACM": 5008,
      "flat": 5009,
      "##eter": 5010,
      "electric": 5011,
      "sparse": 5012,
      "partit": 5013,
      "Intellig": 5014,
      "especially": 5015,
      "##poch": 5016,
      "polarization": 5017,
      "beyond": 5018,
      "sequences": 5019,
      "Consider": 5020,
      "##overy": 5021,
      "typically": 5022,
      "learned": 5023,
      "Analysis": 5024,
      "##change": 5025,
      "likely": 5026,
      "##38": 5027,
      "trac": 5028,
      "##ange": 5029,
      "##ike": 5030,
      "##lasti": 5031,
      "##rma": 5032,
      "growt": 5033,
      "gravitational": 5034,
      "growth": 5035,
      "##uses": 5036,
      "_Le": 5037,
      "improvement": 5038,
      "RL": 5039,
      "##OT": 5040,
      "production": 5041,
      "rule": 5042,
      "cryst": 5043,
      "##cast": 5044,
      "##riate": 5045,
      "cells": 5046,
      "absor": 5047,
      "##nage": 5048,
      "written": 5049,
      "diagonal": 5050,
      "##ophys": 5051,
      "satisfies": 5052,
      "easily": 5053,
      "##fin": 5054,
      "Press": 5055,
      "##heti": 5056,
      "exper": 5057,
      "91": 5058,
      "radiation": 5059,
      "retr": 5060,
      "contact": 5061,
      "incorp": 5062,
      "##ologies": 5063,
      "mea": 5064,
      "##uan": 5065,
      "pure": 5066,
      "##AP": 5067,
      "modal": 5068,
      "\\(-": 5069,
      "]).": 5070,
      "yields": 5071,
      "trajectories": 5072,
      "instances": 5073,
      "years": 5074,
      "coordinates": 5075,
      "pg": 5076,
      "whereas": 5077,
      "formulation": 5078,
      "AP": 5079,
      "spaces": 5080,
      "periodic": 5081,
      "Gra": 5082,
      "##kin": 5083,
      "strategies": 5084,
      "actions": 5085,
      "fundamental": 5086,
      "##nations": 5087,
      "##gu": 5088,
      "Phi_": 5089,
      "Es": 5090,
      "Ho": 5091,
      "cosm": 5092,
      "##nown": 5093,
      "whole": 5094,
      "##ogram": 5095,
      "##zer": 5096,
      "convolution": 5097,
      "again": 5098,
      "Control": 5099,
      "##AC": 5100,
      "nm": 5101,
      "##up": 5102,
      "asymptotic": 5103,
      "differences": 5104,
      "##ip": 5105,
      "\\)).": 5106,
      "##cope": 5107,
      "##hetic": 5108,
      "propagation": 5109,
      "##cks": 5110,
      "Tu": 5111,
      "iterat": 5112,
      "##parti": 5113,
      "}{*}{": 5114,
      "##bile": 5115,
      "entanglement": 5116,
      "attribute": 5117,
      "Definition": 5118,
      "namely": 5119,
      "##ik": 5120,
      "##lator": 5121,
      "##eated": 5122,
      "issue": 5123,
      "2023": 5124,
      "simply": 5125,
      "correc": 5126,
      "formal": 5127,
      "BS": 5128,
      "##rate": 5129,
      "epoch": 5130,
      "intensity": 5131,
      "UAV": 5132,
      "instr": 5133,
      "ability": 5134,
      "attacks": 5135,
      "alternative": 5136,
      "underlying": 5137,
      "ax": 5138,
      "ket": 5139,
      "##ots": 5140,
      "##ienti": 5141,
      "cm": 5142,
      "##yste": 5143,
      "##ucture": 5144,
      "approp": 5145,
      "##nden": 5146,
      "subseteq": 5147,
      "generally": 5148,
      "Compar": 5149,
      "##cher": 5150,
      "neighbor": 5151,
      "##loor": 5152,
      "##ade": 5153,
      "alt": 5154,
      "moment": 5155,
      "##ket": 5156,
      "##20": 5157,
      "Io": 5158,
      "variat": 5159,
      ".\\": 5160,
      "bulk": 5161,
      "##brid": 5162,
      "Rep": 5163,
      "distinct": 5164,
      "##inforcement": 5165,
      "appropriate": 5166,
      "^{-\\": 5167,
      "unc": 5168,
      "##entional": 5169,
      "mask": 5170,
      "Computi": 5171,
      "Computing": 5172,
      "simultaneous": 5173,
      "criter": 5174,
      "##uti": 5175,
      "##37": 5176,
      "##49": 5177,
      "return": 5178,
      "variation": 5179,
      "homo": 5180,
      "##88": 5181,
      "exactly": 5182,
      "##ite": 5183,
      "Max": 5184,
      "unk": 5185,
      "##36": 5186,
      "##fferent": 5187,
      ")(": 5188,
      "proper": 5189,
      "accelera": 5190,
      "Huang": 5191,
      "##fully": 5192,
      "iteration": 5193,
      "eq": 5194,
      "phenome": 5195,
      "imm": 5196,
      "chi_": 5197,
      "includes": 5198,
      "Observ": 5199,
      "decomposition": 5200,
      "##nator": 5201,
      "correspond": 5202,
      "settings": 5203,
      "##dom": 5204,
      "tracking": 5205,
      "IC": 5206,
      "##ergy": 5207,
      "schemes": 5208,
      "window": 5209,
      "##+}\\)": 5210,
      "Adv": 5211,
      "pixel": 5212,
      "Joh": 5213,
      "setup": 5214,
      "##evi": 5215,
      "except": 5216,
      "##bor": 5217,
      "##tl": 5218,
      "##rily": 5219,
      "sense": 5220,
      "{|": 5221,
      "varepsilon_": 5222,
      "##elf": 5223,
      "##rsity": 5224,
      "adaptive": 5225,
      "fam": 5226,
      "typical": 5227,
      "Ab": 5228,
      "##like": 5229,
      "##ief": 5230,
      "##21": 5231,
      "##EC": 5232,
      "statistics": 5233,
      "subject": 5234,
      "##mitted": 5235,
      "cut": 5236,
      "sensor": 5237,
      "##orde": 5238,
      "##hest": 5239,
      "##ired": 5240,
      "ensemble": 5241,
      "separat": 5242,
      "dow": 5243,
      "fract": 5244,
      "slow": 5245,
      "Sun": 5246,
      "##AB": 5247,
      "{(}": 5248,
      "##ihood": 5249,
      "##lihood": 5250,
      "quark": 5251,
      "balance": 5252,
      "assess": 5253,
      "##50": 5254,
      "##\\(": 5255,
      "##format": 5256,
      "algebra": 5257,
      "mess": 5258,
      "deviation": 5259,
      "sizes": 5260,
      "strongly": 5261,
      "ani": 5262,
      "##war": 5263,
      "guarantee": 5264,
      "Hig": 5265,
      "##GB": 5266,
      "Second": 5267,
      "exponential": 5268,
      "##gments": 5269,
      "Fra": 5270,
      "sched": 5271,
      "varphi_": 5272,
      "##44": 5273,
      "energies": 5274,
      "integer": 5275,
      "explore": 5276,
      "extracted": 5277,
      "atoms": 5278,
      "##bel": 5279,
      "##idth": 5280,
      "##AT": 5281,
      "generalization": 5282,
      "geometric": 5283,
      "IS": 5284,
      "ye": 5285,
      "ensure": 5286,
      "traffic": 5287,
      "satisfy": 5288,
      "hydr": 5289,
      "indicate": 5290,
      "benefi": 5291,
      "##nputs": 5292,
      "agre": 5293,
      "residual": 5294,
      "negl": 5295,
      "##bing": 5296,
      "practical": 5297,
      "##ours": 5298,
      "wavel": 5299,
      "five": 5300,
      "##29": 5301,
      "unknown": 5302,
      ")/": 5303,
      "token": 5304,
      "compet": 5305,
      "competi": 5306,
      "1000": 5307,
      "##&\\": 5308,
      "##oling": 5309,
      "##ioning": 5310,
      "batch": 5311,
      "Supp": 5312,
      "inputs": 5313,
      "scores": 5314,
      "parame": 5315,
      "##rra": 5316,
      "##nning": 5317,
      "dispers": 5318,
      "##LP": 5319,
      "applying": 5320,
      "im": 5321,
      "transitions": 5322,
      "Is": 5323,
      "wireless": 5324,
      "capacity": 5325,
      "##cc": 5326,
      "##trat": 5327,
      "##ploy": 5328,
      "##MO": 5329,
      "reach": 5330,
      "organi": 5331,
      "##math": 5332,
      "hierar": 5333,
      "early": 5334,
      "advantage": 5335,
      "Hy": 5336,
      "##cale": 5337,
      "##pts": 5338,
      "mm": 5339,
      "survey": 5340,
      "128": 5341,
      "modified": 5342,
      "{(}\\": 5343,
      "inside": 5344,
      "##cate": 5345,
      "SU": 5346,
      "Four": 5347,
      "##eet": 5348,
      "dt": 5349,
      "bit": 5350,
      "j_": 5351,
      "trivial": 5352,
      "hom": 5353,
      "Kim": 5354,
      "vehicle": 5355,
      "blocks": 5356,
      "##nati": 5357,
      "##ju": 5358,
      "##eater": 5359,
      "fraction": 5360,
      "maths": 5361,
      "gain": 5362,
      "##est": 5363,
      "}/\\": 5364,
      "Gi": 5365,
      "recomme": 5366,
      "}=(": 5367,
      "##mptions": 5368,
      "recently": 5369,
      "##bora": 5370,
      "tuning": 5371,
      "500": 5372,
      "##izations": 5373,
      "##osp": 5374,
      "massive": 5375,
      "directions": 5376,
      "}}+\\": 5377,
      "combined": 5378,
      "Pu": 5379,
      "too": 5380,
      "##ley": 5381,
      "understand": 5382,
      "thank": 5383,
      "frames": 5384,
      "##mis": 5385,
      "twi": 5386,
      "domains": 5387,
      "practic": 5388,
      "practice": 5389,
      "depend": 5390,
      "Bo": 5391,
      "cop": 5392,
      "##nz": 5393,
      "##siste": 5394,
      "encode": 5395,
      "##hon": 5396,
      "coordinate": 5397,
      "Methods": 5398,
      "Poi": 5399,
      "##iel": 5400,
      "Recognition": 5401,
      "##yr": 5402,
      "##nomy": 5403,
      "##width": 5404,
      "challenges": 5405,
      "##pervised": 5406,
      "software": 5407,
      "Bayesian": 5408,
      "rot": 5409,
      "configurations": 5410,
      "concept": 5411,
      "challenging": 5412,
      "starting": 5413,
      "empty": 5414,
      "explain": 5415,
      "\\({}^{-": 5416,
      "##uments": 5417,
      "discussion": 5418,
      "meaning": 5419,
      "##osite": 5420,
      "##ambr": 5421,
      "content": 5422,
      "quadra": 5423,
      "Zhou": 5424,
      "public": 5425,
      "interse": 5426,
      "string": 5427,
      "approximately": 5428,
      "inequality": 5429,
      "}({\\": 5430,
      "Pattern": 5431,
      "constructed": 5432,
      "safe": 5433,
      "##national": 5434,
      "who": 5435,
      "resources": 5436,
      "##48": 5437,
      "##33": 5438,
      "fluctuations": 5439,
      "##~{}~{}": 5440,
      "phases": 5441,
      "water": 5442,
      "##zing": 5443,
      "##ish": 5444,
      "##nio": 5445,
      "##ntenna": 5446,
      "Example": 5447,
      "slightly": 5448,
      "##kov": 5449,
      "weighted": 5450,
      "##ede": 5451,
      "localization": 5452,
      "identified": 5453,
      "##nh": 5454,
      "maint": 5455,
      "exami": 5456,
      "##une": 5457,
      "characteristics": 5458,
      "Che": 5459,
      "demonstrated": 5460,
      "##minus": 5461,
      "likelihood": 5462,
      "Po": 5463,
      "neuro": 5464,
      "basic": 5465,
      "##trical": 5466,
      "ll": 5467,
      "produced": 5468,
      "##ides": 5469,
      "Similarly": 5470,
      ")-\\": 5471,
      "desired": 5472,
      "analyze": 5473,
      "simulated": 5474,
      "environments": 5475,
      "achieves": 5476,
      "##eaking": 5477,
      "Mod": 5478,
      "##ogni": 5479,
      "##brat": 5480,
      "##ntal": 5481,
      "CI": 5482,
      "had": 5483,
      "perspective": 5484,
      "hidden": 5485,
      "deploy": 5486,
      "perturbat": 5487,
      "}]\\": 5488,
      "hbar": 5489,
      "added": 5490,
      "derive": 5491,
      "Also": 5492,
      "perturbation": 5493,
      "##ditionally": 5494,
      "static": 5495,
      "Cla": 5496,
      "##etric": 5497,
      "##sen": 5498,
      "##iors": 5499,
      "##ntil": 5500,
      "##lates": 5501,
      "mathscr": 5502,
      "port": 5503,
      "##hl": 5504,
      "##ES": 5505,
      "dashed": 5506,
      "security": 5507,
      "correlations": 5508,
      "diverge": 5509,
      "##sky": 5510,
      "MP": 5511,
      "lase": 5512,
      "Mathematical": 5513,
      "repr": 5514,
      "{-}": 5515,
      "suitable": 5516,
      "laser": 5517,
      "later": 5518,
      "##iao": 5519,
      "paths": 5520,
      "containing": 5521,
      "showed": 5522,
      "dense": 5523,
      "Markov": 5524,
      "##oscopi": 5525,
      "Ov": 5526,
      "expressed": 5527,
      "Sci": 5528,
      "##99": 5529,
      "counter": 5530,
      "##gress": 5531,
      "##22": 5532,
      "importance": 5533,
      "##oscopic": 5534,
      "##nity": 5535,
      "MR": 5536,
      "##rtual": 5537,
      "suggest": 5538,
      "received": 5539,
      "SO": 5540,
      "integration": 5541,
      "limits_": 5542,
      "generati": 5543,
      "])": 5544,
      "generating": 5545,
      "exchange": 5546,
      "##cli": 5547,
      "itself": 5548,
      "segment": 5549,
      "cali": 5550,
      "sensing": 5551,
      "##kes": 5552,
      "\\({}^{\\": 5553,
      "1999": 5554,
      "otherwise": 5555,
      "curvature": 5556,
      "partition": 5557,
      "pack": 5558,
      "perp": 5559,
      "bold": 5560,
      "plac": 5561,
      "mixed": 5562,
      "emerge": 5563,
      "_Let": 5564,
      "Ame": 5565,
      "Next": 5566,
      "round": 5567,
      "##ambridge": 5568,
      "##ivis": 5569,
      "1998": 5570,
      "dema": 5571,
      "units": 5572,
      "##\\}\\)": 5573,
      "provi": 5574,
      "family": 5575,
      "agreement": 5576,
      "observable": 5577,
      "\\)),": 5578,
      "##olute": 5579,
      "_B": 5580,
      "##hor": 5581,
      "Tha": 5582,
      "poste": 5583,
      "##nating": 5584,
      "perc": 5585,
      "##DA": 5586,
      "poster": 5587,
      "setminus": 5588,
      "##aging": 5589,
      "NN": 5590,
      "##pel": 5591,
      "belo": 5592,
      "Dr": 5593,
      "=(": 5594,
      "write": 5595,
      "classifier": 5596,
      "({\\": 5597,
      "##njec": 5598,
      "##ttl": 5599,
      "##hy": 5600,
      "##thers": 5601,
      "decreases": 5602,
      "orth": 5603,
      "robustness": 5604,
      "activity": 5605,
      "longer": 5606,
      "digi": 5607,
      "##oherent": 5608,
      "##ords": 5609,
      "lis": 5610,
      "detected": 5611,
      "##sistency": 5612,
      "##ants": 5613,
      "depending": 5614,
      "ul": 5615,
      "included": 5616,
      "Equat": 5617,
      "sente": 5618,
      "}\\}\\)": 5619,
      "bel": 5620,
      "shot": 5621,
      "vo": 5622,
      "increased": 5623,
      "employed": 5624,
      "puls": 5625,
      "Ei": 5626,
      "tre": 5627,
      "##floor": 5628,
      "##opl": 5629,
      "##mmetric": 5630,
      "frequencies": 5631,
      "##swer": 5632,
      "##SR": 5633,
      "imaging": 5634,
      "materials": 5635,
      "confidence": 5636,
      "<\\": 5637,
      "head": 5638,
      "place": 5639,
      ")|": 5640,
      "##ogonal": 5641,
      "Sciences": 5642,
      "bigg": 5643,
      "Cambridge": 5644,
      "regard": 5645,
      "remaining": 5646,
      "##vy": 5647,
      "##aint": 5648,
      "phot": 5649,
      "##overed": 5650,
      "green": 5651,
      "##ementary": 5652,
      "##[\\": 5653,
      "##lastic": 5654,
      "_G": 5655,
      "Equation": 5656,
      "Cas": 5657,
      "##trict": 5658,
      "sensitive": 5659,
      "interm": 5660,
      "internal": 5661,
      "Ze": 5662,
      "##ap": 5663,
      "embeddings": 5664,
      "##57": 5665,
      "##cture": 5666,
      "##heories": 5667,
      "Indeed": 5668,
      "atte": 5669,
      "theories": 5670,
      "##light": 5671,
      "say": 5672,
      "}}+": 5673,
      "comple": 5674,
      "##pite": 5675,
      "##emic": 5676,
      "Or": 5677,
      "##und": 5678,
      "tail": 5679,
      "##ings": 5680,
      "adopt": 5681,
      "list": 5682,
      "dx": 5683,
      "}{|": 5684,
      "##seque": 5685,
      "pmatrix": 5686,
      "_O": 5687,
      "adja": 5688,
      "##vious": 5689,
      "mis": 5690,
      "iterations": 5691,
      "SC": 5692,
      "manifold": 5693,
      "001": 5694,
      "normalized": 5695,
      "##ople": 5696,
      "##47": 5697,
      "##oing": 5698,
      "##28": 5699,
      "molec": 5700,
      "##tropi": 5701,
      "##CN": 5702,
      "Different": 5703,
      "labeled": 5704,
      "concentra": 5705,
      "_s": 5706,
      "##ersion": 5707,
      "optimize": 5708,
      "##STM": 5709,
      "##SP": 5710,
      "relationship": 5711,
      "##lusions": 5712,
      "synchr": 5713,
      "Amer": 5714,
      "##atelli": 5715,
      "reali": 5716,
      "Commun": 5717,
      "##dict": 5718,
      "##zy": 5719,
      "distingui": 5720,
      "##etry": 5721,
      "degrees": 5722,
      "rules": 5723,
      "effectively": 5724,
      "previously": 5725,
      "##vert": 5726,
      "##tropic": 5727,
      "Dynami": 5728,
      "decoder": 5729,
      "Another": 5730,
      "CR": 5731,
      "stress": 5732,
      "assumptions": 5733,
      "sufficiently": 5734,
      "##eams": 5735,
      "Top": 5736,
      "}}\\]": 5737,
      "##IR": 5738,
      "})\\]": 5739,
      "Som": 5740,
      "load": 5741,
      "##ET": 5742,
      "holes": 5743,
      "pulse": 5744,
      "excl": 5745,
      "kappa_": 5746,
      "until": 5747,
      "Communications": 5748,
      "empirical": 5749,
      "##hough": 5750,
      "Han": 5751,
      "Physical": 5752,
      "mix": 5753,
      "conditional": 5754,
      "sensitivity": 5755,
      "separation": 5756,
      "##tration": 5757,
      "sli": 5758,
      "1103": 5759,
      "##bration": 5760,
      "##nstein": 5761,
      "##onference": 5762,
      "synthetic": 5763,
      "greater": 5764,
      "effectiveness": 5765,
      "straight": 5766,
      "driving": 5767,
      "although": 5768,
      "##cts": 5769,
      "##bili": 5770,
      "##(-\\": 5771,
      "##xes": 5772,
      "##olo": 5773,
      "Two": 5774,
      "Time": 5775,
      "##utat": 5776,
      ")}(": 5777,
      "##ncing": 5778,
      "##ably": 5779,
      "depi": 5780,
      "VI": 5781,
      ".)": 5782,
      "Acknow": 5783,
      "##nseque": 5784,
      "##ques": 5785,
      "High": 5786,
      "planning": 5787,
      "Wil": 5788,
      "aware": 5789,
      "|}": 5790,
      "disk": 5791,
      "explicitly": 5792,
      "##onseque": 5793,
      "superconduct": 5794,
      "##\\(\\": 5795,
      "Computational": 5796,
      "##46": 5797,
      "##rro": 5798,
      "conseque": 5799,
      "##eali": 5800,
      "##dinal": 5801,
      "##ERT": 5802,
      "Nucl": 5803,
      "etc": 5804,
      "Recent": 5805,
      "estimator": 5806,
      "root": 5807,
      "##trino": 5808,
      "Imp": 5809,
      "##boration": 5810,
      "hold": 5811,
      "projection": 5812,
      "behaviour": 5813,
      "Ea": 5814,
      "##uting": 5815,
      "##55": 5816,
      "reduces": 5817,
      "##cies": 5818,
      "##oup": 5819,
      "collected": 5820,
      "##mas": 5821,
      "outl": 5822,
      "Dec": 5823,
      "popular": 5824,
      "play": 5825,
      "origin": 5826,
      "traditional": 5827,
      "##eudo": 5828,
      "occurs": 5829,
      ")\\,": 5830,
      "electrons": 5831,
      "Bas": 5832,
      "probabilities": 5833,
      "quadrat": 5834,
      "create": 5835,
      "affect": 5836,
      "Xi": 5837,
      "##cuum": 5838,
      "300": 5839,
      "##IT": 5840,
      "##fsys": 5841,
      "pgfsys": 5842,
      "##sse": 5843,
      "GR": 5844,
      "quadrati": 5845,
      "circuit": 5846,
      "##ograph": 5847,
      "harm": 5848,
      "2n": 5849,
      "##43": 5850,
      "Gener": 5851,
      "investigated": 5852,
      "Energy": 5853,
      "##head": 5854,
      "Pri": 5855,
      "identification": 5856,
      "neuron": 5857,
      "##meter": 5858,
      "activation": 5859,
      "correction": 5860,
      "##skip": 5861,
      "quadratic": 5862,
      "dfrac": 5863,
      "Un": 5864,
      "identity": 5865,
      "logi": 5866,
      "##!\\!\\": 5867,
      "Ann": 5868,
      "##ko": 5869,
      "106": 5870,
      "tests": 5871,
      "##utation": 5872,
      "highest": 5873,
      "conclude": 5874,
      "call": 5875,
      "Numer": 5876,
      "absolute": 5877,
      "life": 5878,
      "Additionally": 5879,
      "vertical": 5880,
      "York": 5881,
      "treatment": 5882,
      "evidence": 5883,
      "characteris": 5884,
      "##nsistency": 5885,
      "reac": 5886,
      "intellig": 5887,
      "surfaces": 5888,
      "Bra": 5889,
      "Ru": 5890,
      "##nswer": 5891,
      "##orphis": 5892,
      "##anced": 5893,
      "##nomous": 5894,
      "##lots": 5895,
      "##nist": 5896,
      "conventional": 5897,
      "break": 5898,
      "Some": 5899,
      "##ida": 5900,
      "##bble": 5901,
      "universal": 5902,
      "Fourier": 5903,
      "##osity": 5904,
      "outputs": 5905,
      "hybrid": 5906,
      "moving": 5907,
      "##onsistency": 5908,
      "Applications": 5909,
      "constrained": 5910,
      "stationary": 5911,
      "##...,": 5912,
      "##ded": 5913,
      "great": 5914,
      "Mater": 5915,
      "exploit": 5916,
      "##Rev": 5917,
      "orient": 5918,
      "FL": 5919,
      "hetero": 5920,
      "##53": 5921,
      "extension": 5922,
      "science": 5923,
      "electr": 5924,
      "##umu": 5925,
      "##ientific": 5926,
      "##58": 5927,
      "##metric": 5928,
      "candidate": 5929,
      "0pt": 5930,
      "##bolic": 5931,
      "##oson": 5932,
      "But": 5933,
      "perfect": 5934,
      "vio": 5935,
      "##cript": 5936,
      "John": 5937,
      "confirm": 5938,
      "##ropean": 5939,
      "sampled": 5940,
      "nuclear": 5941,
      "experience": 5942,
      "leav": 5943,
      "SL": 5944,
      "##ink": 5945,
      "##trins": 5946,
      "answer": 5947,
      "##aphic": 5948,
      "CA": 5949,
      "collection": 5950,
      "acqui": 5951,
      "##56": 5952,
      "Acad": 5953,
      "##nion": 5954,
      "categories": 5955,
      "server": 5956,
      "Reg": 5957,
      "antenna": 5958,
      "illustrated": 5959,
      "rangle_": 5960,
      "##ndr": 5961,
      "##rding": 5962,
      "##con": 5963,
      "(-": 5964,
      "eigenvalues": 5965,
      "|^{": 5966,
      "##]{": 5967,
      "##EM": 5968,
      "##ntial": 5969,
      "syste": 5970,
      "##ival": 5971,
      "retriev": 5972,
      "Ji": 5973,
      "##IP": 5974,
      "gate": 5975,
      "vs": 5976,
      "followed": 5977,
      "##*}\\)": 5978,
      "particularly": 5979,
      "others": 5980,
      "Zhu": 5981,
      "upon": 5982,
      "##rna": 5983,
      "##iga": 5984,
      "termi": 5985,
      "##gate": 5986,
      "issues": 5987,
      "spr": 5988,
      ")\\)-": 5989,
      "##gb": 5990,
      "areas": 5991,
      "AB": 5992,
      "questions": 5993,
      "unde": 5994,
      "Sigma_": 5995,
      "wis": 5996,
      "##formations": 5997,
      "##ressed": 5998,
      "##ED": 5999,
      "##paramet": 6000,
      "connection": 6001,
      "assi": 6002,
      "relax": 6003,
      "easy": 6004,
      "mixing": 6005,
      "##nagement": 6006,
      "molecular": 6007,
      "##ised": 6008,
      "##oul": 6009,
      "mainly": 6010,
      "flex": 6011,
      "##rtin": 6012,
      "##kh": 6013,
      "##fications": 6014,
      "##tants": 6015,
      "reinforcement": 6016,
      "van": 6017,
      "interes": 6018,
      "running": 6019,
      "clearly": 6020,
      "Remark": 6021,
      "actual": 6022,
      "positions": 6023,
      "air": 6024,
      "record": 6025,
      "satelli": 6026,
      "own": 6027,
      "multipli": 6028,
      "media": 6029,
      "##ssible": 6030,
      "##ani": 6031,
      "sime": 6032,
      "orthogonal": 6033,
      "##base": 6034,
      "Conf": 6035,
      "activ": 6036,
      "AR": 6037,
      "MC": 6038,
      "intermediate": 6039,
      "simeq": 6040,
      "Both": 6041,
      "##odynamic": 6042,
      "ent": 6043,
      "conference": 6044,
      "annot": 6045,
      "widely": 6046,
      "ju": 6047,
      "##ype": 6048,
      "interference": 6049,
      "RIS": 6050,
      "Due": 6051,
      "trad": 6052,
      "GAN": 6053,
      "extraction": 6054,
      "SV": 6055,
      "performs": 6056,
      "See": 6057,
      "##rring": 6058,
      "presents": 6059,
      "astro": 6060,
      "\\[=": 6061,
      "}[]{": 6062,
      "##ivist": 6063,
      "}=-": 6064,
      "qual": 6065,
      "collision": 6066,
      "symbol": 6067,
      "Net": 6068,
      "forms": 6069,
      "quantities": 6070,
      "##dat": 6071,
      "##quid": 6072,
      "##rging": 6073,
      "##39": 6074,
      "fusion": 6075,
      "##nformal": 6076,
      "##ucial": 6077,
      "once": 6078,
      "performing": 6079,
      ")}{\\": 6080,
      "-\\(": 6081,
      "Zhao": 6082,
      "##nsumption": 6083,
      "faster": 6084,
      "hardware": 6085,
      "GeV": 6086,
      "integrated": 6087,
      "appears": 6088,
      "electronic": 6089,
      "expa": 6090,
      "hypothesis": 6091,
      "bands": 6092,
      "##ism": 6093,
      "##ivisti": 6094,
      "Networks": 6095,
      "file": 6096,
      "##easible": 6097,
      "##ivistic": 6098,
      "wavelength": 6099,
      "Society": 6100,
      "##ren": 6101,
      "SS3": 6102,
      "ske": 6103,
      "extend": 6104,
      "##LM": 6105,
      "##nated": 6106,
      "sections": 6107,
      "resonance": 6108,
      "##pti": 6109,
      "fitting": 6110,
      "codes": 6111,
      "##ford": 6112,
      "SSIII": 6113,
      "##pation": 6114,
      "##lan": 6115,
      "degene": 6116,
      "##cono": 6117,
      "##load": 6118,
      "manner": 6119,
      "Monte": 6120,
      "translation": 6121,
      "galaxies": 6122,
      "lim": 6123,
      "wal": 6124,
      "Ju": 6125,
      "##stants": 6126,
      "Vis": 6127,
      "Lambda_": 6128,
      "locations": 6129,
      "radio": 6130,
      "providing": 6131,
      "encoding": 6132,
      "rgb": 6133,
      "showi": 6134,
      "##rli": 6135,
      "vacuum": 6136,
      "simultaneously": 6137,
      "##ember": 6138,
      "showing": 6139,
      "Found": 6140,
      "SR": 6141,
      "##ttle": 6142,
      "mathematical": 6143,
      "turb": 6144,
      "##forme": 6145,
      "##ials": 6146,
      "##dar": 6147,
      "Sp": 6148,
      "##pole": 6149,
      "requirements": 6150,
      "##alse": 6151,
      "odot": 6152,
      "architectures": 6153,
      "##40": 6154,
      "coa": 6155,
      "##icit": 6156,
      "sphere": 6157,
      "##LS": 6158,
      "argument": 6159,
      "chemical": 6160,
      "remark": 6161,
      "}))": 6162,
      "magnet": 6163,
      "1997": 6164,
      "handl": 6165,
      "characterist": 6166,
      "##nisti": 6167,
      "aris": 6168,
      "characteristi": 6169,
      "##dity": 6170,
      "proportional": 6171,
      "SD": 6172,
      "characteristic": 6173,
      "Optim": 6174,
      "##sequently": 6175,
      "obs": 6176,
      "Graph": 6177,
      "##nistic": 6178,
      "identical": 6179,
      "##otics": 6180,
      "larges": 6181,
      "accelerat": 6182,
      "masses": 6183,
      "inner": 6184,
      "largest": 6185,
      "CT": 6186,
      "ideal": 6187,
      "##bin": 6188,
      "PhysRev": 6189,
      "GPU": 6190,
      "##nfer": 6191,
      "##.\\": 6192,
      "##nnel": 6193,
      "1996": 6194,
      "RF": 6195,
      "Signal": 6196,
      "##ollary": 6197,
      "Letters": 6198,
      "outs": 6199,
      "Ti": 6200,
      "\\(-\\": 6201,
      "rough": 6202,
      "nabla_": 6203,
      "mechanisms": 6204,
      "virtual": 6205,
      ")).": 6206,
      "##IM": 6207,
      "compre": 6208,
      "According": 6209,
      "##onsumption": 6210,
      "consumption": 6211,
      "##30": 6212,
      "photo": 6213,
      "suggests": 6214,
      "Center": 6215,
      "LSTM": 6216,
      ")^{\\": 6217,
      "participants": 6218,
      "##eaker": 6219,
      "did": 6220,
      "Lang": 6221,
      "Other": 6222,
      "match": 6223,
      "heavy": 6224,
      "##97": 6225,
      "Stud": 6226,
      "##phen": 6227,
      "##former": 6228,
      "##51": 6229,
      "probe": 6230,
      "people": 6231,
      "##boratory": 6232,
      "DNN": 6233,
      "coherent": 6234,
      "vanis": 6235,
      "equi": 6236,
      "track": 6237,
      "noisy": 6238,
      "aniso": 6239,
      "odd": 6240,
      "##hmic": 6241,
      "care": 6242,
      "volt": 6243,
      "posterior": 6244,
      "resi": 6245,
      "General": 6246,
      "##flow": 6247,
      "##mor": 6248,
      "Fermi": 6249,
      "##tually": 6250,
      "health": 6251,
      "situation": 6252,
      "##cul": 6253,
      "shared": 6254,
      "adding": 6255,
      "##oes": 6256,
      "solved": 6257,
      "flows": 6258,
      "##pro": 6259,
      "receive": 6260,
      "pseudo": 6261,
      "Symp": 6262,
      "monot": 6263,
      "community": 6264,
      "##``": 6265,
      "NS": 6266,
      "topology": 6267,
      "controller": 6268,
      "variety": 6269,
      "##traction": 6270,
      "resolv": 6271,
      "quite": 6272,
      "boson": 6273,
      "##e_": 6274,
      "EM": 6275,
      "infer": 6276,
      "gets": 6277,
      "missing": 6278,
      "^{*}\\)": 6279,
      "underl": 6280,
      "regularization": 6281,
      "\\[{\\": 6282,
      "therm": 6283,
      "##heng": 6284,
      "realis": 6285,
      "##mode": 6286,
      "coi": 6287,
      "})+": 6288,
      "incorpor": 6289,
      "category": 6290,
      "Comparison": 6291,
      "##87": 6292,
      "##erview": 6293,
      "##tability": 6294,
      "pas": 6295,
      "reproduc": 6296,
      "mut": 6297,
      "author": 6298,
      "##nov": 6299,
      "servic": 6300,
      "Applied": 6301,
      "Dur": 6302,
      "freedom": 6303,
      "##bilis": 6304,
      "##hr": 6305,
      "Ed": 6306,
      "extensive": 6307,
      "##ntime": 6308,
      "##omes": 6309,
      "##aries": 6310,
      "##pse": 6311,
      "Int": 6312,
      "##order": 6313,
      "tools": 6314,
      "outperforms": 6315,
      "maximal": 6316,
      "accept": 6317,
      "plasma": 6318,
      "That": 6319,
      "##fts": 6320,
      "service": 6321,
      "{]": 6322,
      "corrections": 6323,
      "##PT": 6324,
      "bmatrix": 6325,
      "completely": 6326,
      "distances": 6327,
      "correlated": 6328,
      "audio": 6329,
      "##VID": 6330,
      "strict": 6331,
      "##herence": 6332,
      "yet": 6333,
      "##max": 6334,
      "##point": 6335,
      "neutron": 6336,
      "qubits": 6337,
      "##+}\\": 6338,
      "~{}": 6339,
      "256": 6340,
      "|}{": 6341,
      "##ait": 6342,
      "Higgs": 6343,
      "Conclusion": 6344,
      "minimize": 6345,
      "##OM": 6346,
      "height": 6347,
      "State": 6348,
      "insu": 6349,
      "thick": 6350,
      "intersec": 6351,
      "Nature": 6352,
      "branch": 6353,
      "tor": 6354,
      "```": 6355,
      "##ntribute": 6356,
      "##ontribute": 6357,
      "##chical": 6358,
      "Oc": 6359,
      "generator": 6360,
      "front": 6361,
      "contribute": 6362,
      "##shing": 6363,
      "##forward": 6364,
      "excita": 6365,
      "##rger": 6366,
      "##ion_": 6367,
      "pixels": 6368,
      "##96": 6369,
      "primary": 6370,
      "##hit": 6371,
      "}}-": 6372,
      "boldmath": 6373,
      "trig": 6374,
      "\\}\\).": 6375,
      "consistency": 6376,
      "{*}": 6377,
      "##odal": 6378,
      "surr": 6379,
      "Mean": 6380,
      "dissi": 6381,
      "spacetime": 6382,
      "##nstants": 6383,
      "analytical": 6384,
      "]}": 6385,
      "=-": 6386,
      "##100": 6387,
      "##oints": 6388,
      "##IN": 6389,
      "deci": 6390,
      "prox": 6391,
      "causal": 6392,
      "##osium": 6393,
      "Inc": 6394,
      "SSIV": 6395,
      "intersect": 6396,
      "perm": 6397,
      "##sides": 6398,
      "variations": 6399,
      "}{}": 6400,
      "liquid": 6401,
      "orbital": 6402,
      "Ag": 6403,
      "Thi": 6404,
      "##ompl": 6405,
      "item": 6406,
      "wise": 6407,
      "##fy": 6408,
      "##tons": 6409,
      "exhibit": 6410,
      "##~{}\\": 6411,
      "neutrino": 6412,
      "##trinsi": 6413,
      "##trinsic": 6414,
      "##LR": 6415,
      "cance": 6416,
      "chiral": 6417,
      "Yi": 6418,
      "##chy": 6419,
      "perso": 6420,
      "assuming": 6421,
      "generi": 6422,
      "RM": 6423,
      "happe": 6424,
      "execution": 6425,
      "ResNet": 6426,
      "##Vert": 6427,
      "##orn": 6428,
      "wedge": 6429,
      "past": 6430,
      "\\);": 6431,
      "##metry": 6432,
      "atomic": 6433,
      "cosmological": 6434,
      "##hn": 6435,
      "you": 6436,
      "mobile": 6437,
      "compari": 6438,
      "Astrophys": 6439,
      "##shop": 6440,
      "underli": 6441,
      "##exa": 6442,
      "##<\\": 6443,
      "earl": 6444,
      "collisions": 6445,
      "programming": 6446,
      "conducted": 6447,
      "Geo": 6448,
      "##ealing": 6449,
      "##peli": 6450,
      "excitat": 6451,
      "##pto": 6452,
      "##uclid": 6453,
      "controlled": 6454,
      "##AE": 6455,
      "bandwidth": 6456,
      "##mpi": 6457,
      "108": 6458,
      "101": 6459,
      "ni": 6460,
      "}}.\\]": 6461,
      "utility": 6462,
      "comparing": 6463,
      "excitation": 6464,
      "##ntinu": 6465,
      "SN": 6466,
      "Chr": 6467,
      "structural": 6468,
      "##ones": 6469,
      "Part": 6470,
      "compr": 6471,
      "build": 6472,
      "##nitor": 6473,
      "##plac": 6474,
      "##ana": 6475,
      "spher": 6476,
      "PM": 6477,
      "JHEP": 6478,
      "highlight": 6479,
      "epi": 6480,
      "##aic": 6481,
      "]\\).": 6482,
      "generic": 6483,
      "photons": 6484,
      "##resent": 6485,
      "aspects": 6486,
      "trace": 6487,
      "person": 6488,
      "##bling": 6489,
      "elli": 6490,
      "##nck": 6491,
      "##98": 6492,
      "##dis": 6493,
      "aligned": 6494,
      "recall": 6495,
      "stor": 6496,
      "stellar": 6497,
      "##77": 6498,
      "allowed": 6499,
      "Problem": 6500,
      "##dshi": 6501,
      "optimized": 6502,
      "##EG": 6503,
      "ID": 6504,
      "site": 6505,
      "stack": 6506,
      "sensors": 6507,
      "pie": 6508,
      "##34": 6509,
      "expressions": 6510,
      "##nfe": 6511,
      "##onization": 6512,
      "temperatures": 6513,
      "Carlo": 6514,
      "##lor": 6515,
      "##osure": 6516,
      ".\"": 6517,
      "technology": 6518,
      "##raging": 6519,
      "##ican": 6520,
      "established": 6521,
      "averaged": 6522,
      "creat": 6523,
      "Jan": 6524,
      "nota": 6525,
      "signa": 6526,
      "explained": 6527,
      "MS": 6528,
      "##OC": 6529,
      "##otion": 6530,
      "##layer": 6531,
      "radial": 6532,
      "notat": 6533,
      "##mail": 6534,
      "count": 6535,
      "]\\),": 6536,
      "##llet": 6537,
      "article": 6538,
      "##nologies": 6539,
      "notation": 6540,
      "ret": 6541,
      "##morphis": 6542,
      "subjec": 6543,
      "##Ps": 6544,
      "satisfying": 6545,
      "oscilla": 6546,
      "##nie": 6547,
      "essential": 6548,
      "adopted": 6549,
      "caused": 6550,
      "rapid": 6551,
      "cus": 6552,
      "proved": 6553,
      "##slant": 6554,
      "perturbations": 6555,
      "verify": 6556,
      "##ontal": 6557,
      "ww": 6558,
      "})-": 6559,
      "interpo": 6560,
      "generative": 6561,
      "ISS": 6562,
      "##onden": 6563,
      "Super": 6564,
      "enables": 6565,
      "##mu": 6566,
      "latency": 6567,
      "anomal": 6568,
      "##iddl": 6569,
      "created": 6570,
      "##onstants": 6571,
      "constants": 6572,
      "##31": 6573,
      "##tate": 6574,
      "}},\\]": 6575,
      "propos": 6576,
      "\\(\\{\\": 6577,
      "absorption": 6578,
      "dispersion": 6579,
      "##osti": 6580,
      "describes": 6581,
      "##TS": 6582,
      "quali": 6583,
      "tested": 6584,
      "##wr": 6585,
      "Suppose": 6586,
      "crucial": 6587,
      "1995": 6588,
      "texts": 6589,
      "Because": 6590,
      "Kh": 6591,
      "enhanced": 6592,
      "Appr": 6593,
      "##eau": 6594,
      "##tort": 6595,
      "##parrow": 6596,
      "##32": 6597,
      "promis": 6598,
      "percent": 6599,
      "conden": 6600,
      "##icated": 6601,
      "Parti": 6602,
      "##54": 6603,
      "##sens": 6604,
      "allocation": 6605,
      "##umin": 6606,
      "discret": 6607,
      "##iddle": 6608,
      "##59": 6609,
      "##bilist": 6610,
      "##ovements": 6611,
      "triple": 6612,
      "##bilisti": 6613,
      "www": 6614,
      "##bilistic": 6615,
      "##rity": 6616,
      "atom": 6617,
      "medium": 6618,
      "intervals": 6619,
      "Dav": 6620,
      "##AA": 6621,
      "Key": 6622,
      "kinet": 6623,
      "School": 6624,
      "restrict": 6625,
      "##formed": 6626,
      "look": 6627,
      "pho": 6628,
      "expecta": 6629,
      "##chers": 6630,
      "##mosp": 6631,
      "European": 6632,
      "Ove": 6633,
      "day": 6634,
      "##uclidean": 6635,
      "kineti": 6636,
      "kinetic": 6637,
      "refe": 6638,
      "redshi": 6639,
      "underlin": 6640,
      "underline": 6641,
      "homogeneous": 6642,
      "compression": 6643,
      "mitig": 6644,
      "2k": 6645,
      "##maly": 6646,
      "Att": 6647,
      "resear": 6648,
      "##odynamics": 6649,
      "Je": 6650,
      "##igr": 6651,
      "net": 6652,
      "vehicles": 6653,
      "Onl": 6654,
      "Uni": 6655,
      "##owes": 6656,
      "##ava": 6657,
      "ultra": 6658,
      "##lope": 6659,
      "Sen": 6660,
      "expectat": 6661,
      "comes": 6662,
      "swit": 6663,
      "Val": 6664,
      "##vor": 6665,
      "realist": 6666,
      "Onli": 6667,
      "Onlin": 6668,
      "##nju": 6669,
      "versus": 6670,
      "QCD": 6671,
      "uparrow": 6672,
      "##67": 6673,
      "##current": 6674,
      "Martin": 6675,
      "storage": 6676,
      "wo": 6677,
      "expectation": 6678,
      "Soft": 6679,
      "##cker": 6680,
      "covariance": 6681,
      "##tyl": 6682,
      "Online": 6683,
      "##ortu": 6684,
      "##ores": 6685,
      "##llo": 6686,
      "##iom": 6687,
      "disease": 6688,
      "##rning": 6689,
      "Den": 6690,
      "Intelligence": 6691,
      "investiga": 6692,
      "shar": 6693,
      "SNR": 6694,
      "trav": 6695,
      "platform": 6696,
      ".(": 6697,
      "transa": 6698,
      "motiv": 6699,
      "SSV": 6700,
      "##owest": 6701,
      "##formance": 6702,
      "##)).": 6703,
      "##imate": 6704,
      "##ilia": 6705,
      "Associa": 6706,
      "autonomous": 6707,
      "realisti": 6708,
      "alignment": 6709,
      "realistic": 6710,
      "progress": 6711,
      "pipeli": 6712,
      "SS4": 6713,
      "ris": 6714,
      "normalization": 6715,
      "comparable": 6716,
      "Datas": 6717,
      "away": 6718,
      "##outi": 6719,
      "infr": 6720,
      "lemma": 6721,
      "Symposium": 6722,
      "##eption": 6723,
      "##NI": 6724,
      "spi": 6725,
      "##iders": 6726,
      "smart": 6727,
      "orders": 6728,
      "brief": 6729,
      "applica": 6730,
      "trave": 6731,
      "admi": 6732,
      "}[\\": 6733,
      "eV": 6734,
      "Spe": 6735,
      "Space": 6736,
      "augment": 6737,
      "prod_": 6738,
      "Over": 6739,
      "Py": 6740,
      "FP": 6741,
      "display": 6742,
      "af": 6743,
      "oscill": 6744,
      "}}}{": 6745,
      "improves": 6746,
      "coverage": 6747,
      "emph": 6748,
      "indeed": 6749,
      "precisely": 6750,
      "##rel": 6751,
      "^{-}": 6752,
      "lack": 6753,
      "possibility": 6754,
      "communications": 6755,
      "earlier": 6756,
      "##ptic": 6757,
      "epochs": 6758,
      "##aluat": 6759,
      "##idelity": 6760,
      "je": 6761,
      "Einstein": 6762,
      "located": 6763,
      "species": 6764,
      "##ock": 6765,
      "infra": 6766,
      "##arily": 6767,
      "##ais": 6768,
      "Sca": 6769,
      "##$\\": 6770,
      "_Ma": 6771,
      "stabil": 6772,
      "mono": 6773,
      "videos": 6774,
      "fold": 6775,
      "##mmetry": 6776,
      "efficiently": 6777,
      "Za": 6778,
      "Qi": 6779,
      "behav": 6780,
      "AC": 6781,
      "107": 6782,
      "implicit": 6783,
      "adjacent": 6784,
      "relaxa": 6785,
      "relaxat": 6786,
      "white": 6787,
      "individuals": 6788,
      "dura": 6789,
      "##ngly": 6790,
      "##where": 6791,
      "1994": 6792,
      "spo": 6793,
      "false": 6794,
      "mon": 6795,
      "##onical": 6796,
      "Corollary": 6797,
      "durat": 6798,
      "Green": 6799,
      "Ber": 6800,
      "specifically": 6801,
      "Kl": 6802,
      "relaxation": 6803,
      "##ift": 6804,
      "Combi": 6805,
      "detectors": 6806,
      "Experimental": 6807,
      "##eder": 6808,
      "##rthe": 6809,
      "uniformly": 6810,
      "duration": 6811,
      "investigat": 6812,
      "}),\\]": 6813,
      "km": 6814,
      "##iff": 6815,
      "##dv": 6816,
      "proton": 6817,
      "##nges": 6818,
      "wall": 6819,
      "##iability": 6820,
      "coll": 6821,
      "Cal": 6822,
      "Program": 6823,
      "specified": 6824,
      "##isation": 6825,
      "##curs": 6826,
      "outside": 6827,
      "NL": 6828,
      "##68": 6829,
      "immediate": 6830,
      "ensu": 6831,
      "##turally": 6832,
      "_Inter": 6833,
      "Est": 6834,
      "RGB": 6835,
      "##forming": 6836,
      "_H": 6837,
      "##52": 6838,
      "roo": 6839,
      "links": 6840,
      "##ez": 6841,
      "ISSN": 6842,
      "breaking": 6843,
      "micro": 6844,
      "Ada": 6845,
      "##oscopy": 6846,
      "voltage": 6847,
      "ru": 6848,
      "##bic": 6849,
      "hbox": 6850,
      "penal": 6851,
      "AdS": 6852,
      "Adam": 6853,
      "locally": 6854,
      "cro": 6855,
      "unsu": 6856,
      "forecast": 6857,
      "TAB": 6858,
      ")-(": 6859,
      "branc": 6860,
      "Arti": 6861,
      "##morphic": 6862,
      "sharp": 6863,
      "##rtheta": 6864,
      "horizontal": 6865,
      "##cket": 6866,
      "pric": 6867,
      "market": 6868,
      "##rtaint": 6869,
      "vartheta": 6870,
      "Em": 6871,
      "##trial": 6872,
      "interpreta": 6873,
      "##uk": 6874,
      "##rtainties": 6875,
      "acceleration": 6876,
      "AD": 6877,
      "}}-\\": 6878,
      "##sp": 6879,
      "adapta": 6880,
      "feasible": 6881,
      "Ver": 6882,
      "scala": 6883,
      "##phene": 6884,
      "Effec": 6885,
      "##ively": 6886,
      "transverse": 6887,
      "course": 6888,
      "summary": 6889,
      "interpretat": 6890,
      "trees": 6891,
      "adaptat": 6892,
      "##\\)).": 6893,
      "revers": 6894,
      "carried": 6895,
      "##tian": 6896,
      "104": 6897,
      "colo": 6898,
      "mesh": 6899,
      "price": 6900,
      "angles": 6901,
      "react": 6902,
      "building": 6903,
      "\\}\\": 6904,
      "drive": 6905,
      "##MM": 6906,
      "Germa": 6907,
      "##GD": 6908,
      "commonly": 6909,
      "Ob": 6910,
      "##ctive": 6911,
      "##pired": 6912,
      "Mecha": 6913,
      "interpretation": 6914,
      "##break": 6915,
      "partially": 6916,
      "modulation": 6917,
      "six": 6918,
      "representi": 6919,
      "##ngi": 6920,
      "##llowi": 6921,
      "assigned": 6922,
      "adaptation": 6923,
      "splitting": 6924,
      "happen": 6925,
      "Euclidean": 6926,
      "substant": 6927,
      "coo": 6928,
      "distort": 6929,
      "adjust": 6930,
      "consequence": 6931,
      "representing": 6932,
      "}\\)).": 6933,
      "ways": 6934,
      "hyperparamet": 6935,
      "##mping": 6936,
      "sound": 6937,
      "solar": 6938,
      "referred": 6939,
      "precise": 6940,
      "\".": 6941,
      "##rte": 6942,
      "})}\\": 6943,
      "Schr": 6944,
      "deterministic": 6945,
      "MIMO": 6946,
      "##ntui": 6947,
      "##grang": 6948,
      "policies": 6949,
      "Rie": 6950,
      "##rray": 6951,
      "galaxy": 6952,
      "exploration": 6953,
      "vort": 6954,
      ":\\": 6955,
      "##uling": 6956,
      "##osta": 6957,
      "##nga": 6958,
      "reduci": 6959,
      "##ounding": 6960,
      "visc": 6961,
      "rig": 6962,
      "monitor": 6963,
      "allowi": 6964,
      "digital": 6965,
      "reducing": 6966,
      "cavity": 6967,
      "allowing": 6968,
      "##ged": 6969,
      "Disc": 6970,
      "RS": 6971,
      "cycles": 6972,
      "##diction": 6973,
      "##oles": 6974,
      "##onju": 6975,
      "##llowing": 6976,
      "transforme": 6977,
      "##grangian": 6978,
      "Colla": 6979,
      "transformer": 6980,
      "{}": 6981,
      "##lac": 6982,
      "interacti": 6983,
      "Germany": 6984,
      "database": 6985,
      "##irac": 6986,
      "interacting": 6987,
      "##braic": 6988,
      "##stability": 6989,
      "depende": 6990,
      "http": 6991,
      "Bar": 6992,
      "\\[=\\": 6993,
      "]{": 6994,
      "Ye": 6995,
      "##oust": 6996,
      "plots": 6997,
      "IoT": 6998,
      "conju": 6999,
      "##vis": 7000,
      "indicati": 7001,
      "ir": 7002,
      "##ham": 7003,
      "TABLE": 7004,
      "##jection": 7005,
      "sear": 7006,
      "##)),": 7007,
      "Detec": 7008,
      "uncertainties": 7009,
      "indicating": 7010,
      "}),\\": 7011,
      "involved": 7012,
      "109": 7013,
      "##ndon": 7014,
      "PC": 7015,
      "}})\\)": 7016,
      "lowest": 7017,
      "##fine": 7018,
      "predictive": 7019,
      "embedded": 7020,
      "##ilbert": 7021,
      "quantity": 7022,
      "##onjec": 7023,
      "explored": 7024,
      "DC": 7025,
      "null": 7026,
      "profiles": 7027,
      "involves": 7028,
      "##lles": 7029,
      "crystal": 7030,
      "Process": 7031,
      "relativistic": 7032,
      "conjec": 7033,
      "robots": 7034,
      "potentially": 7035,
      "##41": 7036,
      "##earest": 7037,
      "105": 7038,
      "satisfied": 7039,
      "##ab": 7040,
      "##iming": 7041,
      "Laplac": 7042,
      "built": 7043,
      "##tus": 7044,
      "##):": 7045,
      "Besides": 7046,
      "##66": 7047,
      "unsupervised": 7048,
      "runs": 7049,
      "numerically": 7050,
      "variational": 7051,
      "claim": 7052,
      "Case": 7053,
      "##200": 7054,
      "soli": 7055,
      "##nova": 7056,
      "##duc": 7057,
      "simplicity": 7058,
      "subst": 7059,
      "visible": 7060,
      "##onformal": 7061,
      "intui": 7062,
      "illustrate": 7063,
      "##hu": 7064,
      "revea": 7065,
      "rational": 7066,
      "fai": 7067,
      "##TL": 7068,
      "elimi": 7069,
      "SF": 7070,
      "Las": 7071,
      "Founda": 7072,
      "Foundat": 7073,
      "densities": 7074,
      "##ek": 7075,
      "Numerical": 7076,
      "##ken": 7077,
      "straightforward": 7078,
      ",-": 7079,
      "]:": 7080,
      "CL": 7081,
      "##GAN": 7082,
      "Foundation": 7083,
      "##heri": 7084,
      "Fre": 7085,
      "boundaries": 7086,
      "})+\\": 7087,
      "share": 7088,
      "changing": 7089,
      "absence": 7090,
      "Poisson": 7091,
      "}&\\": 7092,
      "##ounts": 7093,
      "##ung": 7094,
      "overlap": 7095,
      "##ids": 7096,
      "##nton": 7097,
      "##)**": 7098,
      "##ulated": 7099,
      "URL": 7100,
      "involving": 7101,
      "multipl": 7102,
      "##ider": 7103,
      "Open": 7104,
      "117": 7105,
      "##stry": 7106,
      "characterized": 7107,
      "contex": 7108,
      "##rface": 7109,
      "orienta": 7110,
      "orientat": 7111,
      "##n_": 7112,
      "coinc": 7113,
      "analyt": 7114,
      "Proba": 7115,
      "##MC": 7116,
      "shea": 7117,
      "charged": 7118,
      "decreasing": 7119,
      "Field": 7120,
      "onto": 7121,
      "analyti": 7122,
      "scan": 7123,
      "demand": 7124,
      "generates": 7125,
      "keep": 7126,
      "mal": 7127,
      "divided": 7128,
      "compat": 7129,
      "rely": 7130,
      "colon": 7131,
      "orientation": 7132,
      "{{}": 7133,
      "promisi": 7134,
      "##limi": 7135,
      "##igning": 7136,
      "##42": 7137,
      "superconducti": 7138,
      "composed": 7139,
      "superconducting": 7140,
      "##narrow": 7141,
      "promising": 7142,
      "Subs": 7143,
      "prec": 7144,
      "modules": 7145,
      "SE": 7146,
      "dominant": 7147,
      "Roy": 7148,
      "infe": 7149,
      "excited": 7150,
      "attributes": 7151,
      "Neve": 7152,
      "##uctions": 7153,
      "}),": 7154,
      "analyzed": 7155,
      "1993": 7156,
      "cause": 7157,
      "parad": 7158,
      "}=\\{": 7159,
      "##\\)),": 7160,
      "Systems_": 7161,
      "worth": 7162,
      "necessarily": 7163,
      "queries": 7164,
      "renormal": 7165,
      "limitations": 7166,
      "##BS": 7167,
      "##rman": 7168,
      "offs": 7169,
      "opposite": 7170,
      "conformal": 7171,
      "Instead": 7172,
      "_International": 7173,
      "regi": 7174,
      "hierarchical": 7175,
      "400": 7176,
      "##atively": 7177,
      "Lagrangian": 7178,
      "rise": 7179,
      "phonon": 7180,
      "You": 7181,
      "stro": 7182,
      "contained": 7183,
      "Random": 7184,
      "Following": 7185,
      "##MR": 7186,
      "##lative": 7187,
      "rect": 7188,
      "iterative": 7189,
      "comprehen": 7190,
      "Shen": 7191,
      "reasonable": 7192,
      "Duri": 7193,
      "GW": 7194,
      "fidelity": 7195,
      "games": 7196,
      "##ctric": 7197,
      "noted": 7198,
      "concentrat": 7199,
      "##nni": 7200,
      "message": 7201,
      "103": 7202,
      "planar": 7203,
      "bright": 7204,
      "canonical": 7205,
      "Performance": 7206,
      "}\\)),": 7207,
      "acknow": 7208,
      "augmentation": 7209,
      "stream": 7210,
      "CD": 7211,
      "##ectric": 7212,
      "tea": 7213,
      "steady": 7214,
      "eigenvalue": 7215,
      "}).\\]": 7216,
      "Guo": 7217,
      "##tyle": 7218,
      "##pal": 7219,
      "calibration": 7220,
      "##ffers": 7221,
      "bin": 7222,
      "}=-\\": 7223,
      "middle": 7224,
      "mathop": 7225,
      "coopera": 7226,
      "##gers": 7227,
      "##dical": 7228,
      "Evaluat": 7229,
      "anomaly": 7230,
      "##emy": 7231,
      "engineering": 7232,
      "graphene": 7233,
      "mechanical": 7234,
      "molecules": 7235,
      "))\\": 7236,
      "IN": 7237,
      "len": 7238,
      "##,\\,\\": 7239,
      "loga": 7240,
      "DP": 7241,
      "logar": 7242,
      "logari": 7243,
      "logarit": 7244,
      "##eil": 7245,
      "aux": 7246,
      "##ku": 7247,
      "}}\\,": 7248,
      "thin": 7249,
      "grant": 7250,
      "##igible": 7251,
      "tiny": 7252,
      "##conds": 7253,
      "Robotics": 7254,
      "distinguish": 7255,
      "Thr": 7256,
      ";\\": 7257,
      "Recall": 7258,
      "systematic": 7259,
      "satur": 7260,
      "##owski": 7261,
      "pay": 7262,
      "##yl": 7263,
      "Constr": 7264,
      "throughout": 7265,
      "transmi": 7266,
      "CC": 7267,
      "preservi": 7268,
      "fix": 7269,
      "##ography": 7270,
      "Inf": 7271,
      "transformations": 7272,
      "preserving": 7273,
      "##nities": 7274,
      "DR": 7275,
      "document": 7276,
      "During": 7277,
      "elastic": 7278,
      "##otati": 7279,
      "##jing": 7280,
      "ski": 7281,
      "COVID": 7282,
      "3d": 7283,
      "##otating": 7284,
      "##points": 7285,
      "##Es": 7286,
      "##ntrinsic": 7287,
      "circle": 7288,
      "Suppl": 7289,
      "##:\\": 7290,
      "##aka": 7291,
      "couplings": 7292,
      "updates": 7293,
      "ign": 7294,
      "supers": 7295,
      "fractional": 7296,
      "##uler": 7297,
      "updated": 7298,
      "segments": 7299,
      "reflection": 7300,
      "##64": 7301,
      "aims": 7302,
      "##spec": 7303,
      "##ousti": 7304,
      "costs": 7305,
      "Meas": 7306,
      "independently": 7307,
      "focused": 7308,
      "papers": 7309,
      "102": 7310,
      "successfully": 7311,
      "medical": 7312,
      "Grav": 7313,
      "Long": 7314,
      "indices": 7315,
      "Planck": 7316,
      "concentration": 7317,
      "##cro": 7318,
      "concepts": 7319,
      "##ility": 7320,
      "hskip": 7321,
      "##69": 7322,
      "bits": 7323,
      "want": 7324,
      "sequential": 7325,
      "seems": 7326,
      "synthesis": 7327,
      "LH": 7328,
      "$\\": 7329,
      "1016": 7330,
      "notion": 7331,
      "management": 7332,
      "satellite": 7333,
      "##chain": 7334,
      "max_": 7335,
      "draw": 7336,
      "CPU": 7337,
      "actually": 7338,
      "facili": 7339,
      "##oustic": 7340,
      "Compl": 7341,
      "##plus": 7342,
      "reaction": 7343,
      "}})\\": 7344,
      "Hall": 7345,
      "##acle": 7346,
      "##IG": 7347,
      "valued": 7348,
      "Sel": 7349,
      "circular": 7350,
      "connections": 7351,
      "utilized": 7352,
      "shari": 7353,
      "jet": 7354,
      "inflation": 7355,
      "downarrow": 7356,
      "sharing": 7357,
      "Ali": 7358,
      "Chri": 7359,
      "##ntract": 7360,
      "accurately": 7361,
      "##ngled": 7362,
      "##rlin": 7363,
      "instant": 7364,
      "##eq": 7365,
      "Models": 7366,
      "_Adv": 7367,
      "}]\\)": 7368,
      "\\):": 7369,
      "##iliary": 7370,
      "##ssions": 7371,
      "Transformer": 7372,
      "##bat": 7373,
      "lesssim": 7374,
      "analytic": 7375,
      "fina": 7376,
      "formed": 7377,
      "decisions": 7378,
      "Chris": 7379,
      "Dirac": 7380,
      "SA": 7381,
      "findings": 7382,
      "Simulation": 7383,
      "gi": 7384,
      "disco": 7385,
      "items": 7386,
      "symmetries": 7387,
      "neighbors": 7388,
      "coarse": 7389,
      "Wal": 7390,
      "forces": 7391,
      "Observa": 7392,
      "empha": 7393,
      "Im": 7394,
      "##ifa": 7395,
      "utilize": 7396,
      "conveni": 7397,
      "Mass": 7398,
      "1007": 7399,
      "produces": 7400,
      "handle": 7401,
      "Consequently": 7402,
      "amb": 7403,
      "margi": 7404,
      "peaks": 7405,
      "\\}\\),": 7406,
      "iii": 7407,
      "intrinsic": 7408,
      "recover": 7409,
      "Under": 7410,
      "repeated": 7411,
      "kind": 7412,
      "##oming": 7413,
      "emphas": 7414,
      "sites": 7415,
      "Laboratory": 7416,
      "Psi_": 7417,
      "AU": 7418,
      "Statistics": 7419,
      "eve": 7420,
      "choices": 7421,
      "dipole": 7422,
      "parametric": 7423,
      "##bes": 7424,
      "Related": 7425,
      "ring": 7426,
      "##band": 7427,
      "Jaco": 7428,
      "120": 7429,
      "_JHEP": 7430,
      "%,": 7431,
      "##ariate": 7432,
      "##202": 7433,
      "##ologr": 7434,
      "Workshop": 7435,
      "zeta_": 7436,
      "phenomena": 7437,
      "Class": 7438,
      "##);": 7439,
      "trade": 7440,
      "indicated": 7441,
      "##OR": 7442,
      "##loa": 7443,
      "gradients": 7444,
      "epis": 7445,
      "##lators": 7446,
      "shad": 7447,
      "American": 7448,
      "IP": 7449,
      "ef": 7450,
      "Tho": 7451,
      "##ncial": 7452,
      "Jiang": 7453,
      "Grant": 7454,
      "trend": 7455,
      "##ifies": 7456,
      ".[": 7457,
      "arm": 7458,
      "nearest": 7459,
      "oscillations": 7460,
      "##ON": 7461,
      "##uctor": 7462,
      "##OI": 7463,
      "subsequent": 7464,
      "##llia": 7465,
      "##turi": 7466,
      "}|^{": 7467,
      "redshift": 7468,
      "believ": 7469,
      "atmosp": 7470,
      "nearly": 7471,
      "interested": 7472,
      "##\\):": 7473,
      "}}|": 7474,
      "##chae": 7475,
      "why": 7476,
      "trunc": 7477,
      "Local": 7478,
      "Detect": 7479,
      "({": 7480,
      "##umber": 7481,
      "##rted": 7482,
      "moments": 7483,
      "shell": 7484,
      "requirement": 7485,
      "diversity": 7486,
      "ms": 7487,
      "brain": 7488,
      "##nan": 7489,
      "##rely": 7490,
      "deformation": 7491,
      "UV": 7492,
      "custom": 7493,
      "restricted": 7494,
      "}\\):": 7495,
      "Tes": 7496,
      "road": 7497,
      "_JHEP_": 7498,
      "1992": 7499,
      "DL": 7500,
      "linearly": 7501,
      "neurons": 7502,
      "pipelin": 7503,
      "sentence": 7504,
      "Fl": 7505,
      "TR": 7506,
      "##nsens": 7507,
      "##ien": 7508,
      "Col": 7509,
      "##EN": 7510,
      "Id": 7511,
      "PR": 7512,
      "probabilistic": 7513,
      "##rtheless": 7514,
      "divergence": 7515,
      "pipeline": 7516,
      "Nevertheless": 7517,
      "tight": 7518,
      "##500": 7519,
      "Sub": 7520,
      "Even": 7521,
      "##tates": 7522,
      "gates": 7523,
      "})}{": 7524,
      "conjecture": 7525,
      "centr": 7526,
      "Artificial": 7527,
      "representative": 7528,
      "enhancement": 7529,
      "Optimization": 7530,
      "##BM": 7531,
      "filters": 7532,
      "diverse": 7533,
      "Mor": 7534,
      "##proc": 7535,
      "leftarrow": 7536,
      "notic": 7537,
      "##ows": 7538,
      "overhead": 7539,
      "##pris": 7540,
      "losses": 7541,
      "heu": 7542,
      "heur": 7543,
      "outcomes": 7544,
      "##zo": 7545,
      "poor": 7546,
      "##turing": 7547,
      "##wal": 7548,
      "##ouse": 7549,
      "benefit": 7550,
      "Astronomy": 7551,
      "affected": 7552,
      "indus": 7553,
      "_201": 7554,
      "lim_": 7555,
      "combining": 7556,
      "explanation": 7557,
      "extreme": 7558,
      "proc": 7559,
      "unb": 7560,
      "harmonic": 7561,
      "DA": 7562,
      "ratios": 7563,
      "CH": 7564,
      "continuum": 7565,
      "][": 7566,
      "quick": 7567,
      "MeV": 7568,
      "quantitative": 7569,
      "Visual": 7570,
      "##eme": 7571,
      "propto": 7572,
      "##nish": 7573,
      "##ampli": 7574,
      "sem": 7575,
      "approximations": 7576,
      "products": 7577,
      "BERT": 7578,
      "Represent": 7579,
      "heuri": 7580,
      "Pha": 7581,
      "criterion": 7582,
      "Min": 7583,
      "spherical": 7584,
      "May": 7585,
      "introduction": 7586,
      "tokens": 7587,
      "Acknowledge": 7588,
      "plotted": 7589,
      "establish": 7590,
      "##bone": 7591,
      "swa": 7592,
      "]^{": 7593,
      ")}}": 7594,
      "dominated": 7595,
      "##ias": 7596,
      "Hilbert": 7597,
      "##nstability": 7598,
      "##ceil": 7599,
      "respective": 7600,
      "reasoning": 7601,
      "neighborhood": 7602,
      "##ampling": 7603,
      "dB": 7604,
      "obvious": 7605,
      "##brary": 7606,
      "obst": 7607,
      "negligible": 7608,
      "mathit": 7609,
      "failure": 7610,
      "2m": 7611,
      "##80": 7612,
      "##FAR": 7613,
      "##cra": 7614,
      "Fis": 7615,
      "Eqs": 7616,
      "##iling": 7617,
      "spread": 7618,
      "##aly": 7619,
      "Training": 7620,
      "divi": 7621,
      "1D": 7622,
      "AS": 7623,
      "}^{+}": 7624,
      "))\\)": 7625,
      "Large": 7626,
      "Fac": 7627,
      "services": 7628,
      "depicted": 7629,
      "rich": 7630,
      "Kar": 7631,
      "irre": 7632,
      "Most": 7633,
      "##ndl": 7634,
      "##balance": 7635,
      "combinations": 7636,
      "##igat": 7637,
      "{)}\\": 7638,
      "mark": 7639,
      "overview": 7640,
      "Var": 7641,
      "_W": 7642,
      "instability": 7643,
      "##sert": 7644,
      "##61": 7645,
      "##nant": 7646,
      "mill": 7647,
      "##uste": 7648,
      "currently": 7649,
      "receiver": 7650,
      "BC": 7651,
      "unstable": 7652,
      "Lie": 7653,
      "EC": 7654,
      "##ompa": 7655,
      "topi": 7656,
      "criteria": 7657,
      "topic": 7658,
      "nav": 7659,
      "Theore": 7660,
      "Design": 7661,
      "##t_": 7662,
      "regarding": 7663,
      "Recently": 7664,
      "sector": 7665,
      "##evmode": 7666,
      "Cos": 7667,
      "##rey": 7668,
      "leavevmode": 7669,
      "##cci": 7670,
      "##oherence": 7671,
      "##words": 7672,
      "assign": 7673,
      "recogni": 7674,
      "put": 7675,
      "##eva": 7676,
      "statis": 7677,
      "##hs": 7678,
      "little": 7679,
      "##nitions": 7680,
      "drift": 7681,
      "Statistical": 7682,
      "engin": 7683,
      "removed": 7684,
      "hot": 7685,
      "chains": 7686,
      "captured": 7687,
      "geodes": 7688,
      "##oin": 7689,
      "Linear": 7690,
      "smoot": 7691,
      "Sum": 7692,
      "_For": 7693,
      "CVPR": 7694,
      "auxiliary": 7695,
      "routi": 7696,
      "David": 7697,
      "##oltz": 7698,
      "}$": 7699,
      "Pan": 7700,
      "##uer": 7701,
      "metal": 7702,
      "heterogeneous": 7703,
      "researchers": 7704,
      "modelling": 7705,
      "F1": 7706,
      "evolv": 7707,
      "##OL": 7708,
      "unitary": 7709,
      "##ein": 7710,
      "##iented": 7711,
      "prevent": 7712,
      "Discuss": 7713,
      "derivatives": 7714,
      "Classi": 7715,
      "##ulence": 7716,
      "##partite": 7717,
      "##ingly": 7718,
      "technical": 7719,
      "polynomials": 7720,
      "Pl": 7721,
      "artificial": 7722,
      "converges": 7723,
      "naturally": 7724,
      "NP": 7725,
      "##BN": 7726,
      "##ndit": 7727,
      "methodology": 7728,
      "Simo": 7729,
      "amplitudes": 7730,
      "##ney": 7731,
      "bounding": 7732,
      "123": 7733,
      "||": 7734,
      "Electro": 7735,
      "picture": 7736,
      "Language": 7737,
      "##As": 7738,
      "##add": 7739,
      "demonstrates": 7740,
      "safety": 7741,
      "Test": 7742,
      "Associat": 7743,
      "##hub": 7744,
      "##well": 7745,
      "raw": 7746,
      "days": 7747,
      "Wireless": 7748,
      "LS": 7749,
      "Cy": 7750,
      "##95": 7751,
      "##ini": 7752,
      "separated": 7753,
      "extremely": 7754,
      "placed": 7755,
      "##ulty": 7756,
      "Van": 7757,
      "coherence": 7758,
      "##cut": 7759,
      "electromagnetic": 7760,
      "PP": 7761,
      "lumin": 7762,
      "Collaboration": 7763,
      "Wh": 7764,
      "statement": 7765,
      "Eur": 7766,
      "universe": 7767,
      "rou": 7768,
      "improving": 7769,
      "structured": 7770,
      "##nals": 7771,
      "oute": 7772,
      "successful": 7773,
      "##idel": 7774,
      "qc": 7775,
      "##oS": 7776,
      "introduci": 7777,
      "##ogen": 7778,
      "125": 7779,
      "##orse": 7780,
      "intersection": 7781,
      "introducing": 7782,
      "stages": 7783,
      "mixture": 7784,
      "retrieval": 7785,
      "##joint": 7786,
      "devia": 7787,
      "##rrent": 7788,
      "forme": 7789,
      "##ymmetric": 7790,
      "disorder": 7791,
      "leverage": 7792,
      "Black": 7793,
      "reliable": 7794,
      "phenomenon": 7795,
      "She": 7796,
      "mechanics": 7797,
      "##ude": 7798,
      "scheduling": 7799,
      "diagn": 7800,
      "Natural": 7801,
      "##f_": 7802,
      "weakly": 7803,
      "CIFAR": 7804,
      "vir": 7805,
      "##des": 7806,
      "(**": 7807,
      "##irr": 7808,
      "Matter": 7809,
      "##AD": 7810,
      "subspace": 7811,
      "AG": 7812,
      "gg": 7813,
      "##NNs": 7814,
      "##mpen": 7815,
      "##ouds": 7816,
      "**}": 7817,
      "summarized": 7818,
      "organized": 7819,
      "AF": 7820,
      "Notic": 7821,
      "##rea": 7822,
      "Varia": 7823,
      "closer": 7824,
      "127": 7825,
      "travel": 7826,
      "AM": 7827,
      "##93": 7828,
      "};": 7829,
      "corp": 7830,
      "personal": 7831,
      "modeled": 7832,
      "Available": 7833,
      "hyperbolic": 7834,
      "quantization": 7835,
      ")}=": 7836,
      "correspondence": 7837,
      "propaga": 7838,
      "BH": 7839,
      "##ug": 7840,
      "1991": 7841,
      "MD": 7842,
      "##tta": 7843,
      "##thub": 7844,
      "(-\\": 7845,
      "shifts": 7846,
      "potentials": 7847,
      "nobreak": 7848,
      "algebraic": 7849,
      "\\|\\": 7850,
      "##pc": 7851,
      "ina": 7852,
      "subgr": 7853,
      "similarly": 7854,
      ")^{-": 7855,
      "\\!": 7856,
      "mostly": 7857,
      "median": 7858,
      "comprehensive": 7859,
      "Hz": 7860,
      "named": 7861,
      "sal": 7862,
      "##90": 7863,
      "Figs": 7864,
      "110": 7865,
      "##eon": 7866,
      "##morphism": 7867,
      "}}}\\)": 7868,
      "##wing": 7869,
      "private": 7870,
      "neutral": 7871,
      "##yn": 7872,
      "118": 7873,
      "none": 7874,
      "_and": 7875,
      "narrow": 7876,
      "##ese": 7877,
      "##llest": 7878,
      "Assu": 7879,
      "diagrams": 7880,
      "##LU": 7881,
      "##OD": 7882,
      "##local": 7883,
      "argue": 7884,
      "worki": 7885,
      "Academy": 7886,
      "working": 7887,
      "conserva": 7888,
      "possibly": 7889,
      "##CCV": 7890,
      "##rrier": 7891,
      "##ifyi": 7892,
      "concate": 7893,
      "##PC": 7894,
      "}^{*": 7895,
      "Age": 7896,
      "recovery": 7897,
      "parity": 7898,
      "Once": 7899,
      "cry": 7900,
      "localized": 7901,
      "Park": 7902,
      "usual": 7903,
      "aggregation": 7904,
      "\\(-\\)": 7905,
      "Unit": 7906,
      "##--": 7907,
      "Gao": 7908,
      "##rew": 7909,
      "patch": 7910,
      "views": 7911,
      "##ifying": 7912,
      "~{}\\": 7913,
      "##nsert": 7914,
      "##ntly": 7915,
      "Song": 7916,
      "Har": 7917,
      "correctly": 7918,
      "Chem": 7919,
      "##Fs": 7920,
      "former": 7921,
      "##tary": 7922,
      "automatically": 7923,
      "VII": 7924,
      "##ttt": 7925,
      "[(": 7926,
      "kee": 7927,
      "Bei": 7928,
      "differ": 7929,
      "essentially": 7930,
      "Human": 7931,
      "protot": 7932,
      "alter": 7933,
      "history": 7934,
      "##pancy": 7935,
      "longi": 7936,
      "descent": 7937,
      "texttt": 7938,
      ")),": 7939,
      "002": 7940,
      "DS": 7941,
      "estimati": 7942,
      "strain": 7943,
      "candidates": 7944,
      "estimating": 7945,
      "conservat": 7946,
      "complet": 7947,
      "rotating": 7948,
      "##65": 7949,
      "Yan": 7950,
      "##rness": 7951,
      "##para": 7952,
      "Ben": 7953,
      "expen": 7954,
      "investigation": 7955,
      "Real": 7956,
      "Ave": 7957,
      "Grad": 7958,
      "##75": 7959,
      "##pulation": 7960,
      "carry": 7961,
      "smallest": 7962,
      "shall": 7963,
      "strictly": 7964,
      "incident": 7965,
      "paradig": 7966,
      "corn": 7967,
      "logic": 7968,
      "shear": 7969,
      "##imodal": 7970,
      "separately": 7971,
      "conclusion": 7972,
      "##hips": 7973,
      "targets": 7974,
      "capable": 7975,
      "majority": 7976,
      "##ompen": 7977,
      "repli": 7978,
      "##uster": 7979,
      "Through": 7980,
      "concern": 7981,
      "subsec": 7982,
      "##tatively": 7983,
      "##DD": 7984,
      "Ts": 7985,
      "experimentally": 7986,
      "discussions": 7987,
      "squares": 7988,
      "suggested": 7989,
      "exhibits": 7990,
      "dic": 7991,
      "Ol": 7992,
      "arc": 7993,
      "##nfect": 7994,
      "Datase": 7995,
      "Rad": 7996,
      "##ptions": 7997,
      "insert": 7998,
      "cyl": 7999,
      "##conomic": 8000,
      "##opy": 8001,
      "coding": 8002,
      "Compared": 8003,
      "lies": 8004,
      "improvements": 8005,
      "equivalence": 8006,
      "##rightarrow": 8007,
      "encoded": 8008,
      "outer": 8009,
      "##78": 8010,
      "recurs": 8011,
      "subsect": 8012,
      "bat": 8013,
      "##pta": 8014,
      "min_": 8015,
      "##sar": 8016,
      "115": 8017,
      "113": 8018,
      "Chin": 8019,
      "wea": 8020,
      "subsection": 8021,
      "IM": 8022,
      "thickness": 8023,
      "xy": 8024,
      "##ously": 8025,
      "##chael": 8026,
      "##nks": 8027,
      "compen": 8028,
      "Pi_": 8029,
      "PB": 8030,
      "seconds": 8031,
      "Log": 8032,
      "MM": 8033,
      "##aw": 8034,
      "pretr": 8035,
      "complicated": 8036,
      "subgraph": 8037,
      "##utes": 8038,
      "ions": 8039,
      "famil": 8040,
      "hadr": 8041,
      "leqslant": 8042,
      "suppl": 8043,
      "mail": 8044,
      "{(\\": 8045,
      "entries": 8046,
      "tfrac": 8047,
      "##}(": 8048,
      "roughly": 8049,
      "PT": 8050,
      "decoding": 8051,
      "packet": 8052,
      "##rich": 8053,
      "ordered": 8054,
      "##lact": 8055,
      "##cape": 8056,
      "}:=\\": 8057,
      "estimators": 8058,
      "Sr": 8059,
      "##ag": 8060,
      "##ush": 8061,
      "Experiments": 8062,
      "##outh": 8063,
      "Out": 8064,
      "Whi": 8065,
      "er": 8066,
      "deal": 8067,
      "abund": 8068,
      "describing": 8069,
      "patients": 8070,
      "minimizing": 8071,
      "Gre": 8072,
      "replaced": 8073,
      "##uages": 8074,
      "Sil": 8075,
      "Publi": 8076,
      "github": 8077,
      "116": 8078,
      "variants": 8079,
      "predicti": 8080,
      "predicting": 8081,
      "protei": 8082,
      "Dataset": 8083,
      "directed": 8084,
      "accret": 8085,
      "closely": 8086,
      "formalism": 8087,
      "##igation": 8088,
      "tuned": 8089,
      "filteri": 8090,
      "filtering": 8091,
      "##\\);": 8092,
      "student": 8093,
      "##ngh": 8094,
      "##llin": 8095,
      "##iome": 8096,
      "GHz": 8097,
      "##uat": 8098,
      "150": 8099,
      "##lacti": 8100,
      "##RA": 8101,
      "AL": 8102,
      "Cheng": 8103,
      "##{{\\": 8104,
      "Colle": 8105,
      "^{*}\\": 8106,
      "##position": 8107,
      "##dan": 8108,
      "Zheng": 8109,
      "recorded": 8110,
      "##eel": 8111,
      "exponent": 8112,
      "conservation": 8113,
      "111": 8114,
      "connectivity": 8115,
      "bl": 8116,
      "technologies": 8117,
      "##lactic": 8118,
      "Hei": 8119,
      "examin": 8120,
      "oplus": 8121,
      "Opera": 8122,
      "applies": 8123,
      "EP": 8124,
      "una": 8125,
      "}\\);": 8126,
      "mobility": 8127,
      "Anal": 8128,
      "advantages": 8129,
      "};\\": 8130,
      "##ioned": 8131,
      "_is": 8132,
      "_Ne": 8133,
      "circuits": 8134,
      "guarantees": 8135,
      "benefits": 8136,
      "##ederated": 8137,
      "cat": 8138,
      "manifolds": 8139,
      "([": 8140,
      "##GG": 8141,
      "Cho": 8142,
      "pooling": 8143,
      "##Ma": 8144,
      "1990": 8145,
      "formulated": 8146,
      "Er": 8147,
      "US": 8148,
      "imagi": 8149,
      "refers": 8150,
      "Evaluation": 8151,
      "O_": 8152,
      "measuri": 8153,
      "measuring": 8154,
      "acoustic": 8155,
      "definitions": 8156,
      "=-\\": 8157,
      "##rer": 8158,
      "Low": 8159,
      "examine": 8160,
      "cente": 8161,
      "automatic": 8162,
      "##eg": 8163,
      "},{\\": 8164,
      "degenerate": 8165,
      "##osh": 8166,
      "Japan": 8167,
      "stronger": 8168,
      "##cz": 8169,
      "bary": 8170,
      "negle": 8171,
      "lfloor": 8172,
      "Man": 8173,
      "##nned": 8174,
      "##onics": 8175,
      "bullet": 8176,
      "##mith": 8177,
      "Spa": 8178,
      "starts": 8179,
      "intra": 8180,
      "##ima": 8181,
      "##shes": 8182,
      "MSE": 8183,
      "cn": 8184,
      "##79": 8185,
      "##clic": 8186,
      "exponentially": 8187,
      "stop": 8188,
      "##llis": 8189,
      "behaviors": 8190,
      "defe": 8191,
      "Wha": 8192,
      "members": 8193,
      "Earth": 8194,
      "Many": 8195,
      "cyli": 8196,
      "##lves": 8197,
      "oriented": 8198,
      "Ly": 8199,
      "PA": 8200,
      "infect": 8201,
      "1_": 8202,
      "##eading": 8203,
      "backbone": 8204,
      "host": 8205,
      "512": 8206,
      "How": 8207,
      "rfloor": 8208,
      "##ckl": 8209,
      "maximize": 8210,
      "Intelligent": 8211,
      "##FS": 8212,
      "})-\\": 8213,
      "##with": 8214,
      "$}}": 8215,
      "computations": 8216,
      "arguments": 8217,
      "turbulence": 8218,
      "##ogl": 8219,
      "##fault": 8220,
      "lengths": 8221,
      "##rez": 8222,
      "Discussion": 8223,
      "introduces": 8224,
      "mutual": 8225,
      "protein": 8226,
      "5G": 8227,
      "##rents": 8228,
      "superior": 8229,
      "##reted": 8230,
      "Notice": 8231,
      "##aya": 8232,
      "relies": 8233,
      "old": 8234,
      "cosmic": 8235,
      "solver": 8236,
      "subjects": 8237,
      "##({}^{": 8238,
      "orderi": 8239,
      "arise": 8240,
      "ordering": 8241,
      "Up": 8242,
      "##nert": 8243,
      "Schm": 8244,
      "##geneity": 8245,
      "Russ": 8246,
      "crossing": 8247,
      "{-\\": 8248,
      "baselines": 8249,
      ".\\)": 8250,
      ")>": 8251,
      "119": 8252,
      "##ontract": 8253,
      "fermion": 8254,
      "evaluati": 8255,
      "evaluating": 8256,
      "columns": 8257,
      "emptys": 8258,
      "emptyse": 8259,
      "##nca": 8260,
      "Access": 8261,
      "##color": 8262,
      "suba": 8263,
      "overcome": 8264,
      "Berlin": 8265,
      "rewr": 8266,
      "speaker": 8267,
      "patches": 8268,
      "emptyset": 8269,
      "##{}^{\\": 8270,
      "##60": 8271,
      "##P_": 8272,
      "transmit": 8273,
      "span": 8274,
      "##kis": 8275,
      "##opi": 8276,
      "PDF": 8277,
      "offer": 8278,
      "##ostr": 8279,
      "##uel": 8280,
      "finally": 8281,
      "beginning": 8282,
      "shapes": 8283,
      "RR": 8284,
      "##togram": 8285,
      "mapsto": 8286,
      "##emental": 8287,
      "##nki": 8288,
      "##oel": 8289,
      "eigens": 8290,
      "}<\\": 8291,
      "clouds": 8292,
      "##tood": 8293,
      "Efficient": 8294,
      "lens": 8295,
      "##cure": 8296,
      "considera": 8297,
      "throughput": 8298,
      "sus": 8299,
      "##entz": 8300,
      "Michael": 8301,
      "##hind": 8302,
      "##iri": 8303,
      "##tudinal": 8304,
      "##comm": 8305,
      "rela": 8306,
      "dropl": 8307,
      "##tle": 8308,
      "prefer": 8309,
      "##ames": 8310,
      "characterize": 8311,
      "operati": 8312,
      "assignment": 8313,
      "##rde": 8314,
      "operating": 8315,
      "##\\)\\": 8316,
      "cf": 8317,
      "##naps": 8318,
      "orbits": 8319,
      "Equations": 8320,
      "turns": 8321,
      "marginal": 8322,
      "contract": 8323,
      "##odinger": 8324,
      "ImageNet": 8325,
      "initially": 8326,
      "combin": 8327,
      "students": 8328,
      "considerat": 8329,
      "Nov": 8330,
      "tole": 8331,
      "##vision": 8332,
      "disjoint": 8333,
      "diameter": 8334,
      "Optimal": 8335,
      "consideration": 8336,
      "##eeds": 8337,
      "situations": 8338,
      "##tei": 8339,
      "aspect": 8340,
      "package": 8341,
      "characterization": 8342,
      "monitori": 8343,
      "monitoring": 8344,
      "clock": 8345,
      "seed": 8346,
      "variant": 8347,
      "outli": 8348,
      "substi": 8349,
      "##thon": 8350,
      "observables": 8351,
      "Fea": 8352,
      "##imed": 8353,
      "velocities": 8354,
      "##cho": 8355,
      "##gar": 8356,
      "applicable": 8357,
      "NM": 8358,
      "manipulation": 8359,
      "##otically": 8360,
      "##)}": 8361,
      "treated": 8362,
      "substit": 8363,
      "Med": 8364,
      "##fl": 8365,
      "vanishing": 8366,
      "composition": 8367,
      "##uation": 8368,
      "combine": 8369,
      "Tay": 8370,
      "understood": 8371,
      "Despite": 8372,
      "Sma": 8373,
      "##tail": 8374,
      "radar": 8375,
      "1989": 8376,
      "player": 8377,
      "computationally": 8378,
      "proposal": 8379,
      "What": 8380,
      "_U": 8381,
      "fermions": 8382,
      "tend": 8383,
      "powerful": 8384,
      "metalli": 8385,
      "CB": 8386,
      "Flu": 8387,
      "squared": 8388,
      "',": 8389,
      "##kar": 8390,
      "Cali": 8391,
      "##81": 8392,
      "##ncoder": 8393,
      "TS": 8394,
      ")}=\\": 8395,
      "drawn": 8396,
      "Association": 8397,
      "displacement": 8398,
      "Box": 8399,
      "]\\]": 8400,
      "simulate": 8401,
      "Acknowledgements": 8402,
      "interpolation": 8403,
      "ball": 8404,
      "King": 8405,
      "##oshi": 8406,
      "Set": 8407,
      "##iles": 8408,
      "appa": 8409,
      "Apr": 8410,
      "##ige": 8411,
      "Tor": 8412,
      "##IA": 8413,
      "choosing": 8414,
      "##ivariate": 8415,
      "integrals": 8416,
      "Conclusions": 8417,
      "##usted": 8418,
      "designs": 8419,
      "capability": 8420,
      "Know": 8421,
      "artifa": 8422,
      "merge": 8423,
      "##tein": 8424,
      "##uln": 8425,
      "Base": 8426,
      "$}": 8427,
      "%.": 8428,
      "124": 8429,
      "##nance": 8430,
      "##naries": 8431,
      "cumu": 8432,
      "piec": 8433,
      "style": 8434,
      "})(": 8435,
      "ds": 8436,
      "reached": 8437,
      "##;\\;\\": 8438,
      "##natorial": 8439,
      "##ndle": 8440,
      "Poly": 8441,
      "MF": 8442,
      "##stro": 8443,
      "##83": 8444,
      "keV": 8445,
      "CN": 8446,
      "Back": 8447,
      "reasons": 8448,
      "anomalous": 8449,
      "##ulne": 8450,
      "Xiao": 8451,
      "##ulner": 8452,
      "jump": 8453,
      "boxes": 8454,
      "decays": 8455,
      "##iated": 8456,
      "relationships": 8457,
      "immediately": 8458,
      "financial": 8459,
      "##tted": 8460,
      "##gan": 8461,
      "Detection": 8462,
      "behind": 8463,
      "Pra": 8464,
      "intelligence": 8465,
      "_d": 8466,
      "meson": 8467,
      "Theoretical": 8468,
      "piece": 8469,
      "Lor": 8470,
      "verification": 8471,
      "Mult": 8472,
      "Hong": 8473,
      "edit": 8474,
      "year": 8475,
      "##sional": 8476,
      "##GC": 8477,
      "stored": 8478,
      "_Nature": 8479,
      "Annual": 8480,
      "responses": 8481,
      "##coming": 8482,
      "##72": 8483,
      "##rev": 8484,
      "sky": 8485,
      "Sol": 8486,
      "unlike": 8487,
      "##iar": 8488,
      "qualitative": 8489,
      "/(": 8490,
      "##test": 8491,
      "quickly": 8492,
      "grained": 8493,
      "}}/": 8494,
      "##nko": 8495,
      "minimization": 8496,
      "##ndat": 8497,
      "##matics": 8498,
      "accretion": 8499,
      "CF": 8500,
      "demonstrat": 8501,
      "Jose": 8502,
      "Fas": 8503,
      "##ographic": 8504,
      "analyses": 8505,
      "##book": 8506,
      "##spired": 8507,
      "##nspired": 8508,
      "}~{}": 8509,
      "marked": 8510,
      "principal": 8511,
      "replac": 8512,
      "scenes": 8513,
      "##imer": 8514,
      "Scientific": 8515,
      "##owd": 8516,
      "subsets": 8517,
      "##89": 8518,
      "##63": 8519,
      "loo": 8520,
      "2d": 8521,
      "##nstream": 8522,
      "variability": 8523,
      "London": 8524,
      "categor": 8525,
      "Hea": 8526,
      "CFT": 8527,
      "mirr": 8528,
      "extent": 8529,
      "##oon": 8530,
      "Del": 8531,
      "hologr": 8532,
      "balanced": 8533,
      "switching": 8534,
      "usage": 8535,
      "chr": 8536,
      "_Advances": 8537,
      "Speech": 8538,
      "default": 8539,
      "##iative": 8540,
      "NO": 8541,
      "=\\{": 8542,
      "Chang": 8543,
      "Init": 8544,
      "panels": 8545,
      "Bh": 8546,
      "##r_": 8547,
      "Self": 8548,
      "Impl": 8549,
      "##ngent": 8550,
      "recurrent": 8551,
      "agree": 8552,
      "shock": 8553,
      "backward": 8554,
      "Nat": 8555,
      "PDE": 8556,
      "##NA": 8557,
      "nan": 8558,
      "realized": 8559,
      "averaging": 8560,
      "##orati": 8561,
      "##c_": 8562,
      "enfor": 8563,
      "Phas": 8564,
      "##mond": 8565,
      "##70": 8566,
      "intelligent": 8567,
      "]),": 8568,
      "bri": 8569,
      "DFT": 8570,
      "inert": 8571,
      "defining": 8572,
      "DT": 8573,
      "inspired": 8574,
      "Schrodinger": 8575,
      "thanks": 8576,
      "Not": 8577,
      "Tang": 8578,
      "##onsens": 8579,
      "##orm": 8580,
      "assessment": 8581,
      "goes": 8582,
      "Toward": 8583,
      "##62": 8584,
      "##uchi": 8585,
      "thereby": 8586,
      "##ngest": 8587,
      "Alt": 8588,
      "bio": 8589,
      "polym": 8590,
      "##orating": 8591,
      ",{\\": 8592,
      "##ntually": 8593,
      "flexible": 8594,
      "})]": 8595,
      "conductivity": 8596,
      "determines": 8597,
      "Global": 8598,
      "Alex": 8599,
      "reaches": 8600,
      "UK": 8601,
      "dissipation": 8602,
      "##ulus": 8603,
      "plays": 8604,
      "LHC": 8605,
      "beams": 8606,
      "resonant": 8607,
      "resolved": 8608,
      "##sights": 8609,
      "ensures": 8610,
      "movement": 8611,
      "##nsights": 8612,
      "##lities": 8613,
      "resp": 8614,
      "principles": 8615,
      "protocols": 8616,
      ")})": 8617,
      "pd": 8618,
      "Phase": 8619,
      "slope": 8620,
      "clean": 8621,
      "walk": 8622,
      "Normal": 8623,
      "Intera": 8624,
      "##Ms": 8625,
      "##siders": 8626,
      "library": 8627,
      "112": 8628,
      "equality": 8629,
      "Bell": 8630,
      "##icity": 8631,
      "Ao": 8632,
      "compatible": 8633,
      "##nherent": 8634,
      "approximated": 8635,
      "perturbative": 8636,
      "entity": 8637,
      "excess": 8638,
      "listed": 8639,
      "capabilities": 8640,
      "reconstructed": 8641,
      "sw": 8642,
      "spins": 8643,
      "asymptotically": 8644,
      "}\\)\\": 8645,
      "})/": 8646,
      "Aus": 8647,
      "insights": 8648,
      "symbols": 8649,
      "Yuan": 8650,
      "##nsiders": 8651,
      "}+(": 8652,
      "rows": 8653,
      "##warz": 8654,
      "##entric": 8655,
      "occurrence": 8656,
      "##ntinuous": 8657,
      "##ressing": 8658,
      "appearance": 8659,
      "Advances": 8660,
      "##Se": 8661,
      "inherent": 8662,
      "##heric": 8663,
      "Fast": 8664,
      "defec": 8665,
      "dust": 8666,
      "sf": 8667,
      "##els": 8668,
      "discovery": 8669,
      "meet": 8670,
      "polarized": 8671,
      "Power": 8672,
      "mathtt": 8673,
      "##ett": 8674,
      "obtaining": 8675,
      "##cin": 8676,
      "instrument": 8677,
      "blockchain": 8678,
      "Aug": 8679,
      "Smith": 8680,
      "Group": 8681,
      "believe": 8682,
      "Err": 8683,
      "##ication": 8684,
      "##used": 8685,
      "Figures": 8686,
      "##onsiders": 8687,
      "considers": 8688,
      "land": 8689,
      "##oting": 8690,
      "978": 8691,
      "interpreted": 8692,
      "Sal": 8693,
      "colors": 8694,
      "Taylor": 8695,
      "Mon": 8696,
      "Neur": 8697,
      "##usiness": 8698,
      "Genera": 8699,
      "2i": 8700,
      "PL": 8701,
      "1987": 8702,
      "illustrates": 8703,
      "##uctures": 8704,
      "##matically": 8705,
      "{]}": 8706,
      "attempt": 8707,
      "Measu": 8708,
      "centered": 8709,
      "hours": 8710,
      "Measur": 8711,
      "##card": 8712,
      "##rned": 8713,
      "subarray": 8714,
      "##74": 8715,
      "##chitz": 8716,
      "briefly": 8717,
      "doc": 8718,
      "discre": 8719,
      "Series": 8720,
      "##ices": 8721,
      "Paramet": 8722,
      "SH": 8723,
      "##tsu": 8724,
      "continue": 8725,
      "erg": 8726,
      "Ren": 8727,
      "##ifications": 8728,
      "Simon": 8729,
      "##polar": 8730,
      "##tractive": 8731,
      "}}^{(": 8732,
      "ranges": 8733,
      "##rance": 8734,
      "((": 8735,
      "visualization": 8736,
      "Isi": 8737,
      "completion": 8738,
      "replace": 8739,
      "##there": 8740,
      "##73": 8741,
      "_Comp": 8742,
      "}:\\": 8743,
      "kernels": 8744,
      "##mpts": 8745,
      "##ndation": 8746,
      "##ifu": 8747,
      "Thomas": 8748,
      "Bou": 8749,
      "Pat": 8750,
      "determining": 8751,
      "signature": 8752,
      "consens": 8753,
      "vulner": 8754,
      "##med": 8755,
      "Step": 8756,
      "magne": 8757,
      "##ositions": 8758,
      "1988": 8759,
      "Jun": 8760,
      "difficulty": 8761,
      "defect": 8762,
      "##UR": 8763,
      "##orph": 8764,
      "##enta": 8765,
      "defines": 8766,
      "Physics_": 8767,
      "##PP": 8768,
      "##uck": 8769,
      "Tan": 8770,
      "TD": 8771,
      "##oft": 8772,
      "##zz": 8773,
      "invariance": 8774,
      "##sha": 8775,
      "CE": 8776,
      "Schwarz": 8777,
      "Lorentz": 8778,
      "AN": 8779,
      "114": 8780,
      "child": 8781,
      "##IPS": 8782,
      "##izer": 8783,
      "returns": 8784,
      "MT": 8785,
      "##NIST": 8786,
      "##quest": 8787,
      "Their": 8788,
      "augmented": 8789,
      "consensus": 8790,
      "identifyi": 8791,
      "longitudinal": 8792,
      "Dia": 8793,
      "ER": 8794,
      "##GA": 8795,
      "##lam": 8796,
      "scaled": 8797,
      "thermodynamic": 8798,
      "automated": 8799,
      "imaginary": 8800,
      "identifying": 8801,
      "languages": 8802,
      "competitive": 8803,
      "assisted": 8804,
      "gover": 8805,
      "##ooling": 8806,
      "##pschitz": 8807,
      "Dark": 8808,
      "protec": 8809,
      "edi": 8810,
      "##ire": 8811,
      "##rromagnetic": 8812,
      "sparsity": 8813,
      "Euler": 8814,
      "matches": 8815,
      "worst": 8816,
      "##while": 8817,
      "Act": 8818,
      "simplified": 8819,
      "emi": 8820,
      "inversion": 8821,
      "achievi": 8822,
      "annotations": 8823,
      "Assumption": 8824,
      "achieving": 8825,
      "client": 8826,
      "faces": 8827,
      "activities": 8828,
      "protect": 8829,
      "Ray": 8830,
      "Gh": 8831,
      "glu": 8832,
      "Willia": 8833,
      "Jia": 8834,
      "fiber": 8835,
      "Micr": 8836,
      "##gon": 8837,
      "messages": 8838,
      "fewer": 8839,
      "##ecut": 8840,
      "focuses": 8841,
      "Robust": 8842,
      "suppose": 8843,
      "jointly": 8844,
      "reliability": 8845,
      "transformed": 8846,
      ")].": 8847,
      "##91": 8848,
      "##edy": 8849,
      "counting": 8850,
      "++": 8851,
      "Security": 8852,
      "##ples": 8853,
      "conclusions": 8854,
      "helps": 8855,
      "loops": 8856,
      "collective": 8857,
      "Type": 8858,
      "arises": 8859,
      "Red": 8860,
      "learns": 8861,
      "##iant": 8862,
      "texti": 8863,
      "##xiv": 8864,
      "\\;": 8865,
      "##Cs": 8866,
      "##hio": 8867,
      "##utt": 8868,
      "##mporal": 8869,
      "Insti": 8870,
      "textit": 8871,
      "}.\\": 8872,
      "##nik": 8873,
      "passing": 8874,
      "##structure": 8875,
      "boo": 8876,
      "susc": 8877,
      "classifiers": 8878,
      "stated": 8879,
      "team": 8880,
      "detecti": 8881,
      "versions": 8882,
      "Materials": 8883,
      "isolated": 8884,
      "detecting": 8885,
      "suscept": 8886,
      "Point": 8887,
      "bubble": 8888,
      "##owers": 8889,
      "ends": 8890,
      "pump": 8891,
      "fits": 8892,
      "##rnet": 8893,
      "despite": 8894,
      "players": 8895,
      "nonc": 8896,
      "121": 8897,
      "MLP": 8898,
      "##lescope": 8899,
      "interfer": 8900,
      "limiti": 8901,
      "infinity": 8902,
      "projected": 8903,
      "Stokes": 8904,
      "##chen": 8905,
      "##usive": 8906,
      "interior": 8907,
      "dece": 8908,
      "discrimina": 8909,
      "limiting": 8910,
      ",...,": 8911,
      "reci": 8912,
      "Chinese": 8913,
      "##86": 8914,
      "tel": 8915,
      "^{+": 8916,
      "##down": 8917,
      "##sate": 8918,
      "modern": 8919,
      ").:": 8920,
      "circles": 8921,
      "##osis": 8922,
      "LR": 8923,
      "analogous": 8924,
      "pick": 8925,
      "pool": 8926,
      "Standard": 8927,
      "##aise": 8928,
      "reconstruct": 8929,
      "adapted": 8930,
      "causes": 8931,
      "Ising": 8932,
      "_Q": 8933,
      "}}[": 8934,
      "Joint": 8935,
      "##thi": 8936,
      "##idal": 8937,
      "Italy": 8938,
      "LP": 8939,
      "##tters": 8940,
      "TeV": 8941,
      "budge": 8942,
      "comparisons": 8943,
      "classified": 8944,
      "going": 8945,
      "pos": 8946,
      "##ementioned": 8947,
      "entangled": 8948,
      "studyi": 8949,
      "##uded": 8950,
      "studying": 8951,
      "nev": 8952,
      "##ogue": 8953,
      "RT": 8954,
      "effort": 8955,
      "];": 8956,
      "spatially": 8957,
      "happens": 8958,
      "##forementioned": 8959,
      "})|": 8960,
      "contrastive": 8961,
      "tends": 8962,
      "##kawa": 8963,
      "neve": 8964,
      "##84": 8965,
      "FR": 8966,
      "sili": 8967,
      "##ementa": 8968,
      "deviations": 8969,
      "never": 8970,
      "surve": 8971,
      "bran": 8972,
      "web": 8973,
      "entities": 8974,
      "##labe": 8975,
      "##71": 8976,
      "optimi": 8977,
      "equally": 8978,
      "tunnel": 8979,
      "pulses": 8980,
      "moves": 8981,
      "maintain": 8982,
      "##ognitive": 8983,
      "Haw": 8984,
      "aggrega": 8985,
      "##ifur": 8986,
      "##ulent": 8987,
      "Bern": 8988,
      "##oidal": 8989,
      "notice": 8990,
      "##cription": 8991,
      "brane": 8992,
      "##hort": 8993,
      "bipartite": 8994,
      "lie": 8995,
      "Single": 8996,
      "aforementioned": 8997,
      "Rei": 8998,
      "inequalities": 8999,
      "Instit": 9000,
      "giving": 9001,
      "Ap": 9002,
      "Wo": 9003,
      "})^{\\": 9004,
      "motivated": 9005,
      "##orre": 9006,
      "Dong": 9007,
      "generality": 9008,
      "Seve": 9009,
      "ES": 9010,
      "cooling": 9011,
      "expert": 9012,
      "##CO": 9013,
      "heuris": 9014,
      "pur": 9015,
      "paradigm": 9016,
      "##76": 9017,
      "periods": 9018,
      "Theory_": 9019,
      "##thm": 9020,
      "##dance": 9021,
      "Maj": 9022,
      "##field": 9023,
      "varies": 9024,
      "##)[": 9025,
      "##uctors": 9026,
      "ranki": 9027,
      "ranking": 9028,
      "infor": 9029,
      "references": 9030,
      "IRS": 9031,
      "##ays": 9032,
      "##cali": 9033,
      "Pas": 9034,
      "incorporate": 9035,
      "status": 9036,
      "ik": 9037,
      "##nas": 9038,
      "axion": 9039,
      "compri": 9040,
      "Sele": 9041,
      "sentences": 9042,
      "option": 9043,
      "additive": 9044,
      "Interest": 9045,
      "responsible": 9046,
      "Software": 9047,
      "navigation": 9048,
      "##gati": 9049,
      "{[}\\": 9050,
      "transactions": 9051,
      "##pte": 9052,
      "textnormal": 9053,
      "003": 9054,
      "##94": 9055,
      "growi": 9056,
      "Lipschitz": 9057,
      "1986": 9058,
      "growing": 9059,
      "##uit": 9060,
      "##tion_": 9061,
      "##secut": 9062,
      "##ovic": 9063,
      "rapidly": 9064,
      "##oval": 9065,
      "fill": 9066,
      "generalize": 9067,
      "derivation": 9068,
      "##mics": 9069,
      "Automation": 9070,
      "Universe": 9071,
      "##pital": 9072,
      "##chard": 9073,
      "permutation": 9074,
      "expensive": 9075,
      ")|\\": 9076,
      "purposes": 9077,
      "##mpa": 9078,
      "matched": 9079,
      "viewed": 9080,
      "patient": 9081,
      "deployment": 9082,
      "Fin": 9083,
      "SIAM": 9084,
      "excitations": 9085,
      "##aps": 9086,
      "##ncil": 9087,
      "NY": 9088,
      "##85": 9089,
      "##rtz": 9090,
      "wavegu": 9091,
      "Its": 9092,
      "programs": 9093,
      "Detail": 9094,
      "##ians": 9095,
      "KL": 9096,
      "##fit": 9097,
      "##Ds": 9098,
      "collapse": 9099,
      "penalty": 9100,
      "Cher": 9101,
      "##IAM": 9102,
      "advanced": 9103,
      "##nen": 9104,
      "##ici": 9105,
      "countr": 9106,
      "singularity": 9107,
      "Differential": 9108,
      "##ines": 9109,
      "##hea": 9110,
      "stre": 9111,
      "dict": 9112,
      "##nsecut": 9113,
      "##onsecut": 9114,
      "##pendi": 9115,
      "Nonlinear": 9116,
      "summarize": 9117,
      "##gating": 9118,
      "##nho": 9119,
      "luminosity": 9120,
      "##GS": 9121,
      "diss": 9122,
      "differentiable": 9123,
      "calculating": 9124,
      "##ailability": 9125,
      "##iance": 9126,
      "binding": 9127,
      "nuclei": 9128,
      "consecut": 9129,
      "##mistry": 9130,
      "viscosity": 9131,
      "Future": 9132,
      "contradiction": 9133,
      "Anders": 9134,
      "##tly": 9135,
      "##off": 9136,
      "FS": 9137,
      "##>\\": 9138,
      "hyperparameters": 9139,
      "Ox": 9140,
      "##LC": 9141,
      "dimensionality": 9142,
      "DE": 9143,
      "},...,": 9144,
      "##)=": 9145,
      "}{(": 9146,
      "said": 9147,
      "Lei": 9148,
      "benchmarks": 9149,
      "##zero": 9150,
      "lVert": 9151,
      "}\\,,\\]": 9152,
      "Stei": 9153,
      "Blo": 9154,
      "glass": 9155,
      "##oses": 9156,
      "##factor": 9157,
      "percentage": 9158,
      "##orld": 9159,
      "worse": 9160,
      "modification": 9161,
      "consistently": 9162,
      "Beijing": 9163,
      "##nsa": 9164,
      "led": 9165,
      "##tered": 9166,
      "forecasti": 9167,
      "forecasting": 9168,
      "##001": 9169,
      "validate": 9170,
      "CVF": 9171,
      "Zi": 9172,
      "##nnec": 9173,
      "##rbed": 9174,
      "##zh": 9175,
      "barrier": 9176,
      "apparent": 9177,
      "DD": 9178,
      "selecti": 9179,
      "involve": 9180,
      "predicts": 9181,
      "limita": 9182,
      "##ntaneous": 9183,
      "lep": 9184,
      "runtime": 9185,
      "selecting": 9186,
      "##ostic": 9187,
      "isotropic": 9188,
      "##rad": 9189,
      "##orous": 9190,
      "alo": 9191,
      "log_": 9192,
      "limitat": 9193,
      "##92": 9194,
      "render": 9195,
      "122": 9196,
      "Wilson": 9197,
      "limitation": 9198,
      "Xia": 9199,
      "##pare": 9200,
      "126": 9201,
      "FC": 9202,
      "RNN": 9203,
      "imply": 9204,
      "##rban": 9205,
      "Assume": 9206,
      "alon": 9207,
      "damping": 9208,
      "}||": 9209,
      "Meta": 9210,
      "downstream": 9211,
      "entry": 9212,
      "corpus": 9213,
      "Bl": 9214,
      "##idity": 9215,
      "poses": 9216,
      "supervision": 9217,
      "##istence": 9218,
      "France": 9219,
      "##tracts": 9220,
      "diffr": 9221,
      "chro": 9222,
      "##pter": 9223,
      "diffra": 9224,
      "pairi": 9225,
      "addressed": 9226,
      "anisotropy": 9227,
      "pairing": 9228,
      "ox": 9229,
      "Sept": 9230,
      "600": 9231,
      "Hermi": 9232,
      "##ick": 9233,
      "explanations": 9234,
      "Among": 9235,
      "synthes": 9236,
      "HD": 9237,
      "##odr": 9238,
      ")}\\),": 9239,
      "reserv": 9240,
      "Classification": 9241,
      "Overall": 9242,
      "Poli": 9243,
      "##lon": 9244,
      "AT": 9245,
      "##rious": 9246,
      "##trinos": 9247,
      "resistance": 9248,
      "alone": 9249,
      "##rta": 9250,
      "logical": 9251,
      "cent": 9252,
      "Feng": 9253,
      "enabled": 9254,
      "modular": 9255,
      "Accur": 9256,
      "surpris": 9257,
      "_Re": 9258,
      "##oltzmann": 9259,
      "##lag": 9260,
      "Ry": 9261,
      "zo": 9262,
      "##US": 9263,
      "degra": 9264,
      "cellular": 9265,
      "##sight": 9266,
      "Unlike": 9267,
      "##\\)[": 9268,
      "request": 9269,
      "|\\)": 9270,
      "pru": 9271,
      "##wards": 9272,
      "Jin": 9273,
      "...": 9274,
      "focusi": 9275,
      "Sant": 9276,
      "acts": 9277,
      "##overn": 9278,
      "##acke": 9279,
      "##weight": 9280,
      "focusing": 9281,
      "ordi": 9282,
      "##scence": 9283,
      "controll": 9284,
      "controls": 9285,
      "Dynamic": 9286,
      "##aus": 9287,
      "##eets": 9288,
      "decou": 9289,
      "broade": 9290,
      "##anged": 9291,
      "recommendation": 9292,
      "significance": 9293,
      "acquis": 9294,
      "distortion": 9295,
      "logarithmic": 9296,
      "##val": 9297,
      "poss": 9298,
      "room": 9299,
      "##ckle": 9300,
      "Liang": 9301,
      "\\)\\(": 9302,
      "regimes": 9303,
      "Kumar": 9304,
      "secondary": 9305,
      "forming": 9306,
      "acquisi": 9307,
      "surrounding": 9308,
      "ic": 9309,
      "##jan": 9310,
      "TP": 9311,
      "}\\)[": 9312,
      "priors": 9313,
      "##chr": 9314,
      "##owi": 9315,
      "domi": 9316,
      "grows": 9317,
      "##reduc": 9318,
      "Wave": 9319,
      "##titute": 9320,
      "nano": 9321,
      "Pers": 9322,
      "Reco": 9323,
      "counts": 9324,
      "##win": 9325,
[...]
