{
  "version": "1.0",
  "truncation": null,
  "padding": null,
  "added_tokens": [
    {
      "id": 0,
      "content": "<unk>",
      "single_word": false,
      "lstrip": false,
      "rstrip": false,
      "normalized": false,
      "special": true
    },
    {
      "id": 1,
      "content": "<pad>",
      "single_word": false,
      "lstrip": false,
      "rstrip": false,
      "normalized": false,
      "special": true
    },
    {
      "id": 2,
      "content": "<bos>",
      "single_word": false,
      "lstrip": false,
      "rstrip": false,
      "normalized": false,
      "special": true
    },
    {
      "id": 3,
      "content": "<eos>",
      "single_word": false,
      "lstrip": false,
      "rstrip": false,
      "normalized": false,
      "special": true
    },
    {
      "id": 4,
      "content": "\n\n",
      "single_word": false,
      "lstrip": false,
      "rstrip": false,
      "normalized": false,
      "special": true
    }
  ],
  "normalizer": null,
  "pre_tokenizer": {
    "type": "Whitespace"
  },
  "post_processor": {
    "type": "TemplateProcessing",
    "single": [
      {
        "SpecialToken": {
          "id": "<bos>",
          "type_id": 0
        }
      },
      {
        "Sequence": {
          "id": "A",
          "type_id": 0
        }
      },
      {
        "SpecialToken": {
          "id": "<eos>",
          "type_id": 0
        }
      }
    ],
    "pair": [
      {
        "Sequence": {
          "id": "A",
          "type_id": 0
        }
      },
      {
        "Sequence": {
          "id": "B",
          "type_id": 1
        }
      }
    ],
    "special_tokens": {
      "<bos>": {
        "id": "<bos>",
        "ids": [
          2
        ],
        "tokens": [
          "<bos>"
        ]
      },
      "<eos>": {
        "id": "<eos>",
        "ids": [
          3
        ],
        "tokens": [
          "<eos>"
        ]
      }
    }
  },
  "decoder": null,
  "model": {
    "type": "WordPiece",
    "unk_token": "<unk>",
    "continuing_subword_prefix": "##",
    "max_input_chars_per_word": 100,
    "vocab": {
      "<unk>": 0,
      "<pad>": 1,
      "<bos>": 2,
      "<eos>": 3,
      "\n\n": 4,
      "!": 5,
      "\"": 6,
      "#": 7,
      "$": 8,
      "%": 9,
      "&": 10,
      "'": 11,
      "(": 12,
      ")": 13,
      "*": 14,
      "+": 15,
      ",": 16,
      "-": 17,
      ".": 18,
      "/": 19,
      "0": 20,
      "1": 21,
      "2": 22,
      "3": 23,
      "4": 24,
      "5": 25,
      "6": 26,
      "7": 27,
      "8": 28,
      "9": 29,
      ":": 30,
      ";": 31,
      "<": 32,
      "=": 33,
      ">": 34,
      "?": 35,
      "@": 36,
      "A": 37,
      "B": 38,
      "C": 39,
      "D": 40,
      "E": 41,
      "F": 42,
      "G": 43,
      "H": 44,
      "I": 45,
      "J": 46,
      "K": 47,
      "L": 48,
      "M": 49,
      "N": 50,
      "O": 51,
      "P": 52,
      "Q": 53,
      "R": 54,
      "S": 55,
      "T": 56,
      "U": 57,
      "V": 58,
      "W": 59,
      "X": 60,
      "Y": 61,
      "Z": 62,
      "[": 63,
      "\\": 64,
      "]": 65,
      "^": 66,
      "_": 67,
      "`": 68,
      "a": 69,
      "b": 70,
      "c": 71,
      "d": 72,
      "e": 73,
      "f": 74,
      "g": 75,
      "h": 76,
      "i": 77,
      "j": 78,
      "k": 79,
      "l": 80,
      "m": 81,
      "n": 82,
      "o": 83,
      "p": 84,
      "q": 85,
      "r": 86,
      "s": 87,
      "t": 88,
      "u": 89,
      "v": 90,
      "w": 91,
      "x": 92,
      "y": 93,
      "z": 94,
      "{": 95,
      "|": 96,
      "}": 97,
      "~": 98,
      "¡": 99,
      "£": 100,
      "§": 101,
      "©": 102,
      "®": 103,
      "¯": 104,
      "°": 105,
      "±": 106,
      "²": 107,
      "³": 108,
      "´": 109,
      "µ": 110,
      "¶": 111,
      "·": 112,
      "¹": 113,
      "º": 114,
      "½": 115,
      "¿": 116,
      "Â": 117,
      "Å": 118,
      "Æ": 119,
      "È": 120,
      "É": 121,
      "Ö": 122,
      "×": 123,
      "Ø": 124,
      "Ü": 125,
      "ß": 126,
      "à": 127,
      "á": 128,
      "â": 129,
      "ã": 130,
      "ä": 131,
      "å": 132,
      "æ": 133,
      "ç": 134,
      "è": 135,
      "é": 136,
      "ê": 137,
      "ë": 138,
      "ì": 139,
      "í": 140,
      "î": 141,
      "ï": 142,
      "ñ": 143,
      "ò": 144,
      "ó": 145,
      "ô": 146,
      "õ": 147,
      "ö": 148,
      "ø": 149,
      "ú": 150,
      "ü": 151,
      "ý": 152,
      "ā": 153,
      "ć": 154,
      "Č": 155,
      "č": 156,
      "đ": 157,
      "ė": 158,
      "ğ": 159,
      "ī": 160,
      "ı": 161,
      "Ł": 162,
      "ł": 163,
      "ń": 164,
      "ň": 165,
      "ő": 166,
      "œ": 167,
      "Ř": 168,
      "ř": 169,
      "ś": 170,
      "ş": 171,
      "Š": 172,
      "š": 173,
      "ū": 174,
      "Ž": 175,
      "ơ": 176,
      "ư": 177,
      "ǐ": 178,
      "ǒ": 179,
      "ǧ": 180,
      "˙": 181,
      "́": 182,
      "̂": 183,
      "̃": 184,
      "̄": 185,
      "̇": 186,
      "̈": 187,
      "̧": 188,
      "̵": 189,
      "Δ": 190,
      "Σ": 191,
      "Ω": 192,
      "α": 193,
      "β": 194,
      "γ": 195,
      "δ": 196,
      "ε": 197,
      "θ": 198,
      "λ": 199,
      "μ": 200,
      "ν": 201,
      "ξ": 202,
      "π": 203,
      "ρ": 204,
      "σ": 205,
      "τ": 206,
      "φ": 207,
      "ϕ": 208,
      "ϵ": 209,
      "Б": 210,
      "В": 211,
      "Г": 212,
      "Е": 213,
      "З": 214,
      "И": 215,
      "К": 216,
      "М": 217,
      "П": 218,
      "Р": 219,
      "С": 220,
      "Т": 221,
      "а": 222,
      "б": 223,
      "в": 224,
      "г": 225,
      "д": 226,
      "е": 227,
      "ж": 228,
      "з": 229,
      "и": 230,
      "й": 231,
      "к": 232,
      "л": 233,
      "м": 234,
      "н": 235,
      "о": 236,
      "п": 237,
      "р": 238,
      "с": 239,
      "т": 240,
      "у": 241,
      "ф": 242,
      "х": 243,
      "ц": 244,
      "ч": 245,
      "ш": 246,
      "щ": 247,
      "ы": 248,
      "ь": 249,
      "э": 250,
      "ю": 251,
      "я": 252,
      "ё": 253,
      "ḍ": 254,
      "ḡ": 255,
      "ḥ": 256,
      "ḷ": 257,
      "ṃ": 258,
      "ṅ": 259,
      "ṇ": 260,
      "ṛ": 261,
      "ṣ": 262,
      "ṭ": 263,
      "ầ": 264,
      "ẹ": 265,
      "ế": 266,
      "ề": 267,
      "ọ": 268,
      "ớ": 269,
      "ờ": 270,
      "ủ": 271,
      "​": 272,
      "‐": 273,
      "–": 274,
      "—": 275,
      "‖": 276,
      "‘": 277,
      "’": 278,
      "“": 279,
      "”": 280,
      "†": 281,
      "‡": 282,
      "•": 283,
      "‣": 284,
      "…": 285,
      "′": 286,
      "″": 287,
      "⁢": 288,
      "⁰": 289,
      "⁴": 290,
      "⁵": 291,
      "⁶": 292,
      "⁷": 293,
      "⁸": 294,
      "⁹": 295,
      "₀": 296,
      "₁": 297,
      "₂": 298,
      "₃": 299,
      "₄": 300,
      "₅": 301,
      "₆": 302,
      "₇": 303,
      "₉": 304,
      "€": 305,
      "⃝": 306,
      "℃": 307,
      "™": 308,
      "Ⅰ": 309,
      "Ⅱ": 310,
      "Ⅲ": 311,
      "↑": 312,
      "→": 313,
      "↓": 314,
      "∑": 315,
      "−": 316,
      "∥": 317,
      "≤": 318,
      "⋅": 319,
      "⋮": 320,
      "①": 321,
      "②": 322,
      "③": 323,
      "④": 324,
      "⑤": 325,
      "⑥": 326,
      "⑦": 327,
      "⑧": 328,
      "○": 329,
      "●": 330,
      "◑": 331,
      "✓": 332,
      "✔": 333,
      "✕": 334,
      "✖": 335,
      "✗": 336,
      "✘": 337,
      "✚": 338,
      "✝": 339,
      "➀": 340,
      "➁": 341,
      "➂": 342,
      "➃": 343,
      "➆": 344,
      "➈": 345,
      "➉": 346,
      "⟨": 347,
      "⟩": 348,
      "、": 349,
      "。": 350,
      "《": 351,
      "》": 352,
      "【": 353,
      "】": 354,
      "〜": 355,
      "こ": 356,
      "し": 357,
      "す": 358,
      "た": 359,
      "て": 360,
      "で": 361,
      "と": 362,
      "に": 363,
      "の": 364,
      "は": 365,
      "び": 366,
      "よ": 367,
      "り": 368,
      "る": 369,
      "れ": 370,
      "を": 371,
      "ィ": 372,
      "ウ": 373,
      "サ": 374,
      "セ": 375,
      "タ": 376,
      "テ": 377,
      "パ": 378,
      "ル": 379,
      "ン": 380,
      "・": 381,
      "ー": 382,
      "㈡": 383,
      "㶲": 384,
      "一": 385,
      "丁": 386,
      "七": 387,
      "万": 388,
      "丈": 389,
      "三": 390,
      "上": 391,
      "下": 392,
      "不": 393,
      "与": 394,
      "丑": 395,
      "专": 396,
      "且": 397,
      "丕": 398,
      "世": 399,
      "丘": 400,
      "丙": 401,
      "业": 402,
      "丛": 403,
      "东": 404,
      "丝": 405,
      "丢": 406,
      "两": 407,
      "严": 408,
      "丧": 409,
      "个": 410,
      "丫": 411,
      "中": 412,
      "丰": 413,
      "串": 414,
      "临": 415,
      "丸": 416,
      "丹": 417,
      "为": 418,
      "主": 419,
      "丽": 420,
      "举": 421,
      "乃": 422,
      "久": 423,
      "么": 424,
      "义": 425,
      "之": 426,
      "乌": 427,
      "乍": 428,
      "乎": 429,
      "乏": 430,
      "乐": 431,
      "乒": 432,
      "乓": 433,
      "乔": 434,
      "乖": 435,
      "乘": 436,
      "乙": 437,
      "九": 438,
      "乞": 439,
      "也": 440,
      "习": 441,
      "乡": 442,
      "书": 443,
      "买": 444,
      "乱": 445,
      "乳": 446,
      "乾": 447,
      "了": 448,
      "予": 449,
      "争": 450,
      "事": 451,
      "二": 452,
      "于": 453,
      "亏": 454,
      "云": 455,
      "互": 456,
      "五": 457,
      "井": 458,
      "亚": 459,
      "些": 460,
      "亟": 461,
      "亡": 462,
      "交": 463,
      "亥": 464,
      "亦": 465,
      "产": 466,
      "亨": 467,
      "亩": 468,
      "享": 469,
      "京": 470,
      "亭": 471,
      "亮": 472,
      "亲": 473,
      "亵": 474,
      "人": 475,
      "亿": 476,
      "什": 477,
      "仁": 478,
      "仅": 479,
      "仆": 480,
      "仇": 481,
      "今": 482,
      "介": 483,
      "仍": 484,
      "从": 485,
      "仑": 486,
      "仓": 487,
      "仔": 488,
      "仕": 489,
      "他": 490,
      "仗": 491,
      "付": 492,
      "仙": 493,
      "代": 494,
      "令": 495,
      "以": 496,
      "仪": 497,
      "们": 498,
      "仰": 499,
      "仲": 500,
      "件": 501,
      "价": 502,
      "任": 503,
      "份": 504,
      "仿": 505,
      "企": 506,
      "伊": 507,
      "伍": 508,
      "伎": 509,
      "伏": 510,
      "伐": 511,
      "休": 512,
      "众": 513,
      "优": 514,
      "伙": 515,
      "会": 516,
      "伞": 517,
      "伟": 518,
      "传": 519,
      "伤": 520,
      "伦": 521,
      "伪": 522,
      "伯": 523,
      "估": 524,
      "伴": 525,
      "伸": 526,
      "伺": 527,
      "似": 528,
      "伽": 529,
      "佃": 530,
      "但": 531,
      "位": 532,
      "低": 533,
      "住": 534,
      "佐": 535,
      "佑": 536,
      "体": 537,
      "何": 538,
      "佘": 539,
      "余": 540,
      "佛": 541,
      "作": 542,
      "佟": 543,
      "你": 544,
      "佣": 545,
      "佤": 546,
      "佩": 547,
      "佬": 548,
      "佯": 549,
      "佳": 550,
      "佼": 551,
      "使": 552,
      "侃": 553,
      "侄": 554,
      "侈": 555,
      "例": 556,
      "侏": 557,
      "侑": 558,
      "供": 559,
      "依": 560,
      "侠": 561,
      "侣": 562,
      "侥": 563,
      "侦": 564,
      "侧": 565,
      "侨": 566,
      "侪": 567,
      "侬": 568,
      "侮": 569,
      "侯": 570,
      "侵": 571,
      "便": 572,
      "促": 573,
      "俄": 574,
      "俊": 575,
      "俏": 576,
      "俗": 577,
      "俘": 578,
      "俚": 579,
      "保": 580,
      "信": 581,
      "俣": 582,
      "俩": 583,
      "俭": 584,
      "修": 585,
      "俯": 586,
      "俱": 587,
      "俳": 588,
      "俾": 589,
      "倍": 590,
      "倏": 591,
      "倒": 592,
      "候": 593,
      "倚": 594,
      "借": 595,
      "倡": 596,
      "倦": 597,
      "倩": 598,
      "倪": 599,
      "倭": 600,
      "债": 601,
      "值": 602,
      "倾": 603,
      "假": 604,
      "偏": 605,
      "偕": 606,
      "做": 607,
      "停": 608,
      "健": 609,
      "偶": 610,
      "偷": 611,
      "偿": 612,
      "傀": 613,
      "傅": 614,
      "傍": 615,
      "储": 616,
      "催": 617,
      "傲": 618,
      "傻": 619,
      "像": 620,
      "僚": 621,
      "僧": 622,
      "僵": 623,
      "僻": 624,
      "儒": 625,
      "儡": 626,
      "儿": 627,
      "兀": 628,
      "允": 629,
      "元": 630,
      "兄": 631,
      "充": 632,
      "兆": 633,
      "先": 634,
      "光": 635,
      "克": 636,
      "免": 637,
      "兑": 638,
      "兔": 639,
      "党": 640,
      "兜": 641,
      "入": 642,
      "全": 643,
      "八": 644,
      "公": 645,
      "六": 646,
      "兰": 647,
      "共": 648,
      "关": 649,
      "兴": 650,
      "兵": 651,
      "其": 652,
      "具": 653,
      "典": 654,
      "兹": 655,
      "养": 656,
      "兼": 657,
      "兽": 658,
      "冀": 659,
      "内": 660,
      "冈": 661,
      "冉": 662,
      "册": 663,
      "再": 664,
      "冒": 665,
      "冕": 666,
      "冗": 667,
      "写": 668,
      "军": 669,
      "农": 670,
      "冠": 671,
      "冢": 672,
      "冥": 673,
      "冬": 674,
      "冯": 675,
      "冰": 676,
      "冲": 677,
      "决": 678,
      "况": 679,
      "冶": 680,
      "冷": 681,
      "冻": 682,
      "冼": 683,
      "净": 684,
      "准": 685,
      "凉": 686,
      "凋": 687,
      "凌": 688,
      "减": 689,
      "凑": 690,
      "凛": 691,
      "凝": 692,
      "几": 693,
      "凡": 694,
      "凤": 695,
      "凭": 696,
      "凯": 697,
      "凰": 698,
      "凳": 699,
      "凶": 700,
      "凸": 701,
      "凹": 702,
      "出": 703,
      "击": 704,
      "凼": 705,
      "函": 706,
      "凿": 707,
      "刀": 708,
      "刁": 709,
      "刃": 710,
      "分": 711,
      "切": 712,
      "刈": 713,
      "刊": 714,
      "刑": 715,
      "划": 716,
      "列": 717,
      "刘": 718,
      "则": 719,
      "刚": 720,
      "创": 721,
      "初": 722,
      "删": 723,
      "判": 724,
      "刨": 725,
      "利": 726,
      "别": 727,
      "刮": 728,
      "到": 729,
      "制": 730,
      "刷": 731,
      "券": 732,
      "刹": 733,
      "刺": 734,
      "刻": 735,
      "剂": 736,
      "剃": 737,
      "削": 738,
      "剌": 739,
      "前": 740,
      "剑": 741,
      "剔": 742,
      "剖": 743,
      "剥": 744,
      "剧": 745,
      "剩": 746,
      "剪": 747,
      "副": 748,
      "割": 749,
      "剽": 750,
      "劈": 751,
      "力": 752,
      "劝": 753,
      "办": 754,
      "功": 755,
      "加": 756,
      "务": 757,
      "劣": 758,
      "动": 759,
      "助": 760,
      "努": 761,
      "劫": 762,
      "励": 763,
      "劲": 764,
      "劳": 765,
      "劾": 766,
      "势": 767,
      "勃": 768,
      "勇": 769,
      "勉": 770,
      "勋": 771,
      "勒": 772,
      "勖": 773,
      "勘": 774,
      "募": 775,
      "勤": 776,
      "勺": 777,
      "勾": 778,
      "勿": 779,
      "匀": 780,
      "包": 781,
      "匆": 782,
      "匈": 783,
      "匕": 784,
      "化": 785,
      "北": 786,
      "匙": 787,
      "匝": 788,
      "匠": 789,
      "匡": 790,
      "匣": 791,
      "匪": 792,
      "匮": 793,
      "匹": 794,
      "区": 795,
      "医": 796,
      "匾": 797,
      "匿": 798,
      "十": 799,
      "千": 800,
      "升": 801,
      "午": 802,
      "卉": 803,
      "半": 804,
      "华": 805,
      "协": 806,
      "卑": 807,
      "卒": 808,
      "卓": 809,
      "单": 810,
      "卖": 811,
      "南": 812,
      "博": 813,
      "卜": 814,
      "卞": 815,
      "卟": 816,
      "占": 817,
      "卡": 818,
      "卢": 819,
      "卤": 820,
      "卦": 821,
      "卧": 822,
      "卫": 823,
      "印": 824,
      "危": 825,
      "即": 826,
      "却": 827,
      "卵": 828,
      "卷": 829,
      "卸": 830,
      "厂": 831,
      "厄": 832,
      "厅": 833,
      "历": 834,
      "厉": 835,
      "压": 836,
      "厌": 837,
      "厕": 838,
      "厘": 839,
      "厚": 840,
      "原": 841,
      "厢": 842,
      "厥": 843,
      "厦": 844,
      "厨": 845,
      "厩": 846,
      "去": 847,
      "县": 848,
      "参": 849,
      "又": 850,
      "叉": 851,
      "及": 852,
      "友": 853,
      "双": 854,
      "反": 855,
      "发": 856,
      "叔": 857,
      "取": 858,
      "受": 859,
      "变": 860,
      "叙": 861,
      "叛": 862,
      "叠": 863,
      "口": 864,
      "古": 865,
      "句": 866,
      "另": 867,
      "叨": 868,
      "只": 869,
      "叫": 870,
      "召": 871,
      "叭": 872,
      "叮": 873,
      "可": 874,
      "台": 875,
      "史": 876,
      "右": 877,
      "叶": 878,
      "号": 879,
      "司": 880,
      "叹": 881,
      "叻": 882,
      "叼": 883,
      "叽": 884,
      "吁": 885,
      "吃": 886,
      "各": 887,
      "合": 888,
      "吉": 889,
      "吊": 890,
      "同": 891,
      "名": 892,
      "后": 893,
      "吐": 894,
      "向": 895,
      "吓": 896,
      "吕": 897,
      "吖": 898,
      "吗": 899,
      "君": 900,
      "吝": 901,
      "吞": 902,
      "吟": 903,
      "吠": 904,
      "吡": 905,
      "否": 906,
      "吧": 907,
      "吨": 908,
      "吩": 909,
      "含": 910,
      "听": 911,
      "启": 912,
      "吱": 913,
      "吲": 914,
      "吴": 915,
      "吵": 916,
      "吸": 917,
      "吹": 918,
      "吻": 919,
      "吼": 920,
      "吾": 921,
      "呀": 922,
      "呃": 923,
      "呆": 924,
      "呈": 925,
      "告": 926,
      "呋": 927,
      "呐": 928,
      "呕": 929,
      "员": 930,
      "呜": 931,
      "呢": 932,
      "呤": 933,
      "周": 934,
      "味": 935,
      "呵": 936,
      "呸": 937,
      "呻": 938,
      "呼": 939,
      "命": 940,
      "咀": 941,
      "咂": 942,
      "咄": 943,
      "咆": 944,
      "和": 945,
      "咎": 946,
      "咏": 947,
      "咒": 948,
      "咔": 949,
      "咕": 950,
      "咖": 951,
      "咙": 952,
      "咚": 953,
      "咧": 954,
      "咨": 955,
      "咪": 956,
      "咫": 957,
      "咬": 958,
      "咯": 959,
      "咲": 960,
      "咳": 961,
      "咸": 962,
      "咽": 963,
      "哀": 964,
      "品": 965,
      "哄": 966,
      "哇": 967,
      "哈": 968,
      "哉": 969,
      "哌": 970,
      "响": 971,
      "哎": 972,
      "哑": 973,
      "哒": 974,
      "哔": 975,
      "哗": 976,
      "哚": 977,
      "哝": 978,
      "哟": 979,
      "哥": 980,
      "哦": 981,
      "哨": 982,
      "哩": 983,
      "哪": 984,
      "哭": 985,
      "哮": 986,
      "哲": 987,
      "哺": 988,
      "哼": 989,
      "唇": 990,
      "唉": 991,
      "唐": 992,
      "唑": 993,
      "唠": 994,
      "唢": 995,
      "唤": 996,
      "售": 997,
      "唯": 998,
      "唱": 999,
      "唷": 1000,
      "唾": 1001,
      "啁": 1002,
      "啃": 1003,
      "啄": 1004,
      "商": 1005,
      "啉": 1006,
      "啊": 1007,
      "啜": 1008,
      "啡": 1009,
      "啤": 1010,
      "啥": 1011,
      "啦": 1012,
      "啪": 1013,
      "啬": 1014,
      "啮": 1015,
      "啰": 1016,
      "啶": 1017,
      "啸": 1018,
      "啾": 1019,
      "喀": 1020,
      "喂": 1021,
      "喃": 1022,
      "善": 1023,
      "喆": 1024,
      "喇": 1025,
      "喉": 1026,
      "喊": 1027,
      "喋": 1028,
      "喘": 1029,
      "喙": 1030,
      "喜": 1031,
      "喝": 1032,
      "喧": 1033,
      "喱": 1034,
      "喳": 1035,
      "喷": 1036,
      "喹": 1037,
      "喻": 1038,
      "嗅": 1039,
      "嗒": 1040,
      "嗜": 1041,
      "嗝": 1042,
      "嗡": 1043,
      "嗣": 1044,
      "嗦": 1045,
      "嗨": 1046,
      "嗪": 1047,
      "嗬": 1048,
      "嗯": 1049,
      "嗽": 1050,
      "嘈": 1051,
      "嘉": 1052,
      "嘌": 1053,
      "嘎": 1054,
      "嘘": 1055,
      "嘛": 1056,
      "嘟": 1057,
      "嘧": 1058,
      "嘭": 1059,
      "嘱": 1060,
      "嘲": 1061,
      "嘴": 1062,
      "嘶": 1063,
      "嘻": 1064,
      "嘿": 1065,
      "噌": 1066,
      "噗": 1067,
      "噜": 1068,
      "噢": 1069,
      "器": 1070,
      "噩": 1071,
      "噪": 1072,
      "噬": 1073,
      "噱": 1074,
      "噶": 1075,
      "噻": 1076,
      "噼": 1077,
      "嚎": 1078,
      "嚏": 1079,
      "嚣": 1080,
      "嚼": 1081,
      "囊": 1082,
      "囚": 1083,
      "四": 1084,
      "回": 1085,
      "因": 1086,
      "团": 1087,
      "囤": 1088,
      "园": 1089,
      "困": 1090,
      "囱": 1091,
      "围": 1092,
      "固": 1093,
      "国": 1094,
      "图": 1095,
      "圃": 1096,
      "圆": 1097,
      "圈": 1098,
      "土": 1099,
      "圣": 1100,
      "圧": 1101,
      "在": 1102,
      "圭": 1103,
      "地": 1104,
      "圳": 1105,
      "场": 1106,
      "圾": 1107,
      "址": 1108,
      "坂": 1109,
      "均": 1110,
      "坊": 1111,
      "坍": 1112,
      "坎": 1113,
      "坏": 1114,
      "坐": 1115,
      "坑": 1116,
      "块": 1117,
      "坚": 1118,
      "坛": 1119,
      "坜": 1120,
      "坝": 1121,
      "坞": 1122,
      "坟": 1123,
      "坠": 1124,
      "坡": 1125,
      "坤": 1126,
      "坦": 1127,
      "坩": 1128,
      "坪": 1129,
      "坯": 1130,
      "坷": 1131,
      "垂": 1132,
      "垃": 1133,
      "垄": 1134,
      "型": 1135,
      "垒": 1136,
      "垛": 1137,
      "垢": 1138,
      "垣": 1139,
      "垩": 1140,
      "垫": 1141,
      "垮": 1142,
      "埃": 1143,
      "埋": 1144,
      "城": 1145,
      "埔": 1146,
      "埚": 1147,
      "域": 1148,
      "埠": 1149,
      "培": 1150,
      "基": 1151,
      "埼": 1152,
      "堀": 1153,
      "堂": 1154,
      "堆": 1155,
      "堑": 1156,
      "堕": 1157,
      "堡": 1158,
      "堤": 1159,
      "堪": 1160,
      "堰": 1161,
      "堵": 1162,
      "堺": 1163,
      "塌": 1164,
      "塑": 1165,
      "塔": 1166,
      "塘": 1167,
      "塞": 1168,
      "填": 1169,
      "塾": 1170,
      "境": 1171,
      "墅": 1172,
      "墓": 1173,
      "増": 1174,
      "墙": 1175,
      "增": 1176,
      "墟": 1177,
      "墨": 1178,
      "墩": 1179,
      "壁": 1180,
      "壅": 1181,
      "壑": 1182,
      "壕": 1183,
      "壤": 1184,
      "士": 1185,
      "壬": 1186,
      "壮": 1187,
      "声": 1188,
      "壳": 1189,
      "壶": 1190,
      "处": 1191,
      "备": 1192,
      "変": 1193,
      "复": 1194,
      "夏": 1195,
      "夕": 1196,
      "外": 1197,
      "多": 1198,
      "夜": 1199,
      "够": 1200,
      "大": 1201,
      "天": 1202,
      "太": 1203,
      "夫": 1204,
      "夭": 1205,
      "央": 1206,
      "失": 1207,
      "头": 1208,
      "夷": 1209,
      "夸": 1210,
      "夹": 1211,
      "夺": 1212,
      "奇": 1213,
      "奈": 1214,
      "奉": 1215,
      "奋": 1216,
      "奎": 1217,
      "奏": 1218,
      "契": 1219,
      "奔": 1220,
      "奖": 1221,
      "套": 1222,
      "奚": 1223,
      "奠": 1224,
      "奢": 1225,
      "奥": 1226,
      "女": 1227,
      "奴": 1228,
      "奶": 1229,
      "奸": 1230,
      "她": 1231,
      "好": 1232,
      "如": 1233,
      "妃": 1234,
      "妄": 1235,
      "妆": 1236,
      "妇": 1237,
      "妈": 1238,
      "妊": 1239,
      "妍": 1240,
      "妒": 1241,
      "妓": 1242,
      "妖": 1243,
      "妙": 1244,
      "妤": 1245,
      "妥": 1246,
      "妨": 1247,
      "妮": 1248,
      "妲": 1249,
      "妹": 1250,
      "妻": 1251,
      "姆": 1252,
      "姊": 1253,
      "始": 1254,
      "姐": 1255,
      "姑": 1256,
      "姓": 1257,
      "委": 1258,
      "姚": 1259,
      "姜": 1260,
      "姝": 1261,
      "姣": 1262,
      "姨": 1263,
      "姬": 1264,
      "姻": 1265,
      "姿": 1266,
      "威": 1267,
      "娃": 1268,
      "娄": 1269,
      "娅": 1270,
      "娇": 1271,
      "娘": 1272,
      "娜": 1273,
      "娟": 1274,
      "娠": 1275,
      "娣": 1276,
      "娥": 1277,
      "娩": 1278,
      "娱": 1279,
      "娶": 1280,
      "婆": 1281,
      "婉": 1282,
      "婕": 1283,
      "婚": 1284,
      "婪": 1285,
      "婴": 1286,
      "婵": 1287,
      "婷": 1288,
      "媒": 1289,
      "媚": 1290,
      "媛": 1291,
      "媲": 1292,
      "嫁": 1293,
      "嫉": 1294,
      "嫌": 1295,
      "嫦": 1296,
      "嫩": 1297,
      "嬉": 1298,
      "嬗": 1299,
      "子": 1300,
      "孔": 1301,
      "孕": 1302,
      "字": 1303,
      "存": 1304,
      "孙": 1305,
      "孚": 1306,
      "孜": 1307,
      "孝": 1308,
      "孟": 1309,
      "孢": 1310,
      "季": 1311,
      "孤": 1312,
      "学": 1313,
      "孩": 1314,
      "孪": 1315,
      "孵": 1316,
      "孽": 1317,
      "宁": 1318,
      "它": 1319,
      "宅": 1320,
      "宇": 1321,
      "守": 1322,
      "安": 1323,
      "宋": 1324,
      "完": 1325,
      "宏": 1326,
      "宓": 1327,
      "宗": 1328,
      "官": 1329,
      "宙": 1330,
      "定": 1331,
      "宛": 1332,
      "宜": 1333,
      "宝": 1334,
      "实": 1335,
      "宠": 1336,
      "审": 1337,
      "客": 1338,
      "宣": 1339,
      "室": 1340,
      "宪": 1341,
      "宫": 1342,
      "宰": 1343,
      "害": 1344,
      "宴": 1345,
      "宵": 1346,
      "家": 1347,
      "容": 1348,
      "宽": 1349,
      "宾": 1350,
      "宿": 1351,
      "寂": 1352,
      "寄": 1353,
      "寅": 1354,
      "密": 1355,
      "寇": 1356,
      "富": 1357,
      "寒": 1358,
      "寓": 1359,
      "寝": 1360,
      "察": 1361,
      "寡": 1362,
      "寨": 1363,
      "寮": 1364,
      "寰": 1365,
      "寸": 1366,
      "对": 1367,
      "寺": 1368,
      "寻": 1369,
      "导": 1370,
      "対": 1371,
      "寿": 1372,
      "封": 1373,
      "射": 1374,
      "将": 1375,
      "尉": 1376,
      "尊": 1377,
      "小": 1378,
      "少": 1379,
      "尔": 1380,
      "尖": 1381,
      "尘": 1382,
      "尚": 1383,
      "尝": 1384,
      "尤": 1385,
      "尧": 1386,
      "尬": 1387,
      "就": 1388,
      "尴": 1389,
      "尸": 1390,
      "尹": 1391,
      "尺": 1392,
      "尻": 1393,
      "尼": 1394,
      "尽": 1395,
      "尾": 1396,
      "尿": 1397,
      "局": 1398,
      "屁": 1399,
      "层": 1400,
      "居": 1401,
      "屈": 1402,
      "屉": 1403,
      "届": 1404,
      "屋": 1405,
      "屎": 1406,
      "屏": 1407,
      "屑": 1408,
      "展": 1409,
      "属": 1410,
      "屠": 1411,
      "屡": 1412,
      "履": 1413,
      "屯": 1414,
      "山": 1415,
      "屿": 1416,
      "岁": 1417,
      "岐": 1418,
      "岑": 1419,
      "岔": 1420,
      "岖": 1421,
      "岗": 1422,
      "岘": 1423,
      "岚": 1424,
      "岛": 1425,
      "岩": 1426,
      "岬": 1427,
      "岭": 1428,
      "岱": 1429,
      "岳": 1430,
      "岷": 1431,
      "岸": 1432,
      "峙": 1433,
      "峡": 1434,
      "峥": 1435,
      "峨": 1436,
      "峭": 1437,
      "峰": 1438,
      "峻": 1439,
      "崇": 1440,
      "崎": 1441,
      "崔": 1442,
      "崖": 1443,
      "崛": 1444,
      "崩": 1445,
      "崭": 1446,
      "崽": 1447,
      "嵌": 1448,
      "嵘": 1449,
      "嵛": 1450,
      "嵩": 1451,
      "嵯": 1452,
      "嵴": 1453,
      "巅": 1454,
      "巍": 1455,
      "川": 1456,
      "州": 1457,
      "巡": 1458,
      "巢": 1459,
      "工": 1460,
      "左": 1461,
      "巧": 1462,
      "巨": 1463,
      "巩": 1464,
      "巫": 1465,
      "差": 1466,
      "巯": 1467,
      "己": 1468,
      "已": 1469,
      "巴": 1470,
      "巷": 1471,
      "巽": 1472,
      "巾": 1473,
      "币": 1474,
      "市": 1475,
      "布": 1476,
      "帅": 1477,
      "帆": 1478,
      "师": 1479,
      "希": 1480,
      "帐": 1481,
      "帕": 1482,
      "帖": 1483,
      "帘": 1484,
      "帚": 1485,
      "帜": 1486,
      "帝": 1487,
      "带": 1488,
      "帧": 1489,
      "席": 1490,
      "帮": 1491,
      "帷": 1492,
      "常": 1493,
      "帽": 1494,
      "幂": 1495,
      "幅": 1496,
      "幌": 1497,
      "幔": 1498,
      "幕": 1499,
      "干": 1500,
      "平": 1501,
      "年": 1502,
      "并": 1503,
      "幸": 1504,
      "幺": 1505,
      "幻": 1506,
      "幼": 1507,
      "幽": 1508,
      "广": 1509,
      "庄": 1510,
      "庆": 1511,
      "庇": 1512,
      "床": 1513,
      "序": 1514,
      "库": 1515,
      "应": 1516,
      "底": 1517,
      "店": 1518,
      "庙": 1519,
      "庚": 1520,
      "府": 1521,
      "庞": 1522,
      "废": 1523,
      "度": 1524,
      "座": 1525,
      "庭": 1526,
      "康": 1527,
      "庸": 1528,
      "廉": 1529,
      "廊": 1530,
      "廓": 1531,
      "廖": 1532,
      "延": 1533,
      "廷": 1534,
      "建": 1535,
      "开": 1536,
      "异": 1537,
      "弃": 1538,
      "弄": 1539,
      "弈": 1540,
      "弊": 1541,
      "式": 1542,
      "弑": 1543,
      "弓": 1544,
      "引": 1545,
      "弗": 1546,
      "弘": 1547,
      "弛": 1548,
      "弟": 1549,
      "张": 1550,
      "弥": 1551,
      "弦": 1552,
      "弧": 1553,
      "弯": 1554,
      "弱": 1555,
      "弹": 1556,
      "强": 1557,
      "弼": 1558,
      "归": 1559,
      "当": 1560,
      "录": 1561,
      "彗": 1562,
      "形": 1563,
      "彤": 1564,
      "彦": 1565,
      "彩": 1566,
      "彪": 1567,
      "彬": 1568,
      "彭": 1569,
      "彰": 1570,
      "影": 1571,
      "役": 1572,
      "彻": 1573,
      "彼": 1574,
      "往": 1575,
      "征": 1576,
      "径": 1577,
      "待": 1578,
      "很": 1579,
      "徊": 1580,
      "律": 1581,
      "徐": 1582,
      "徒": 1583,
      "徕": 1584,
      "得": 1585,
      "徘": 1586,
      "徙": 1587,
      "御": 1588,
      "循": 1589,
      "微": 1590,
      "德": 1591,
      "徽": 1592,
      "心": 1593,
      "必": 1594,
      "忆": 1595,
      "忌": 1596,
      "忍": 1597,
      "忏": 1598,
      "忒": 1599,
      "志": 1600,
      "忘": 1601,
      "忙": 1602,
      "忠": 1603,
      "忧": 1604,
      "快": 1605,
      "念": 1606,
      "忽": 1607,
      "怀": 1608,
      "态": 1609,
      "怎": 1610,
      "怒": 1611,
      "怕": 1612,
      "怖": 1613,
      "怜": 1614,
      "思": 1615,
      "怠": 1616,
      "怡": 1617,
      "急": 1618,
      "性": 1619,
      "怨": 1620,
      "怪": 1621,
      "怯": 1622,
      "总": 1623,
      "恋": 1624,
      "恍": 1625,
      "恐": 1626,
      "恒": 1627,
      "恕": 1628,
      "恢": 1629,
      "恤": 1630,
      "恨": 1631,
      "恩": 1632,
      "恭": 1633,
      "息": 1634,
      "恰": 1635,
      "恳": 1636,
      "恶": 1637,
      "恼": 1638,
      "悄": 1639,
      "悉": 1640,
      "悌": 1641,
      "悍": 1642,
      "悔": 1643,
      "悖": 1644,
      "悚": 1645,
      "悟": 1646,
      "悠": 1647,
      "患": 1648,
      "悦": 1649,
      "您": 1650,
      "悪": 1651,
      "悬": 1652,
      "悯": 1653,
      "悲": 1654,
      "悴": 1655,
      "悸": 1656,
      "悼": 1657,
      "情": 1658,
      "惇": 1659,
      "惊": 1660,
      "惑": 1661,
      "惕": 1662,
      "惚": 1663,
      "惜": 1664,
      "惟": 1665,
      "惠": 1666,
      "惧": 1667,
      "惨": 1668,
      "惩": 1669,
      "惫": 1670,
      "惯": 1671,
      "惰": 1672,
      "想": 1673,
      "惶": 1674,
      "惹": 1675,
      "愈": 1676,
      "愉": 1677,
      "意": 1678,
      "愚": 1679,
      "感": 1680,
      "愤": 1681,
      "愧": 1682,
      "愿": 1683,
      "慈": 1684,
      "慌": 1685,
      "慎": 1686,
      "慑": 1687,
      "慕": 1688,
      "慢": 1689,
      "慧": 1690,
      "慨": 1691,
      "慰": 1692,
      "慷": 1693,
      "憎": 1694,
      "憔": 1695,
      "憩": 1696,
      "憾": 1697,
      "懂": 1698,
      "懈": 1699,
      "懋": 1700,
      "懒": 1701,
      "戈": 1702,
      "戊": 1703,
      "戎": 1704,
      "戏": 1705,
      "成": 1706,
      "我": 1707,
      "戒": 1708,
      "或": 1709,
      "战": 1710,
      "戚": 1711,
      "戛": 1712,
      "戟": 1713,
      "截": 1714,
      "戮": 1715,
      "戳": 1716,
      "戴": 1717,
      "户": 1718,
      "戾": 1719,
      "房": 1720,
      "所": 1721,
      "扁": 1722,
      "扇": 1723,
      "扉": 1724,
      "手": 1725,
      "才": 1726,
      "扎": 1727,
      "扑": 1728,
      "打": 1729,
      "扔": 1730,
      "托": 1731,
      "扛": 1732,
      "扣": 1733,
      "执": 1734,
      "扩": 1735,
      "扪": 1736,
      "扫": 1737,
      "扬": 1738,
      "扭": 1739,
      "扮": 1740,
      "扯": 1741,
      "扰": 1742,
      "扳": 1743,
      "扶": 1744,
      "批": 1745,
      "扼": 1746,
      "找": 1747,
      "承": 1748,
      "技": 1749,
      "抄": 1750,
      "把": 1751,
      "抑": 1752,
      "抒": 1753,
      "抓": 1754,
      "投": 1755,
      "抖": 1756,
      "抗": 1757,
      "折": 1758,
      "抚": 1759,
      "抛": 1760,
      "抠": 1761,
      "抢": 1762,
      "护": 1763,
      "报": 1764,
      "抨": 1765,
      "披": 1766,
      "抬": 1767,
      "抱": 1768,
      "抵": 1769,
      "抹": 1770,
      "押": 1771,
      "抽": 1772,
      "拄": 1773,
      "担": 1774,
      "拆": 1775,
      "拇": 1776,
      "拉": 1777,
      "拌": 1778,
      "拍": 1779,
      "拎": 1780,
      "拐": 1781,
      "拒": 1782,
      "拓": 1783,
      "拔": 1784,
      "拖": 1785,
      "拘": 1786,
      "拙": 1787,
      "招": 1788,
      "拜": 1789,
      "拟": 1790,
      "拢": 1791,
      "拣": 1792,
      "拥": 1793,
      "拦": 1794,
      "拧": 1795,
      "拨": 1796,
      "择": 1797,
      "括": 1798,
      "拭": 1799,
      "拮": 1800,
      "拯": 1801,
      "拱": 1802,
      "拳": 1803,
      "拴": 1804,
      "拷": 1805,
      "拼": 1806,
      "拽": 1807,
      "拾": 1808,
      "拿": 1809,
      "持": 1810,
      "挂": 1811,
      "指": 1812,
      "按": 1813,
      "挎": 1814,
      "挑": 1815,
      "挖": 1816,
      "挚": 1817,
      "挛": 1818,
      "挝": 1819,
      "挠": 1820,
      "挡": 1821,
      "挣": 1822,
      "挤": 1823,
      "挥": 1824,
      "挨": 1825,
      "挪": 1826,
      "挫": 1827,
      "振": 1828,
      "挺": 1829,
      "挽": 1830,
      "捂": 1831,
      "捆": 1832,
      "捉": 1833,
      "捍": 1834,
      "捎": 1835,
      "捏": 1836,
      "捐": 1837,
      "捕": 1838,
      "捞": 1839,
      "损": 1840,
      "捡": 1841,
      "换": 1842,
      "捣": 1843,
      "捧": 1844,
      "捩": 1845,
      "据": 1846,
      "捷": 1847,
      "捻": 1848,
      "掀": 1849,
      "授": 1850,
      "掉": 1851,
      "掌": 1852,
      "掏": 1853,
      "排": 1854,
      "掘": 1855,
      "掠": 1856,
      "探": 1857,
      "接": 1858,
      "控": 1859,
      "推": 1860,
      "掩": 1861,
      "措": 1862,
      "掷": 1863,
      "掺": 1864,
      "揉": 1865,
      "描": 1866,
      "提": 1867,
      "插": 1868,
      "握": 1869,
      "揭": 1870,
      "援": 1871,
      "揽": 1872,
      "搁": 1873,
      "搅": 1874,
      "搏": 1875,
      "搐": 1876,
      "搓": 1877,
      "搜": 1878,
      "搞": 1879,
      "搡": 1880,
      "搬": 1881,
      "搭": 1882,
      "携": 1883,
      "摄": 1884,
      "摆": 1885,
      "摇": 1886,
      "摊": 1887,
      "摔": 1888,
      "摘": 1889,
      "摧": 1890,
      "摩": 1891,
      "摸": 1892,
      "撅": 1893,
      "撇": 1894,
      "撑": 1895,
      "撒": 1896,
      "撕": 1897,
      "撞": 1898,
      "撤": 1899,
      "撬": 1900,
      "播": 1901,
      "撮": 1902,
      "撰": 1903,
      "撼": 1904,
      "擅": 1905,
      "操": 1906,
      "擎": 1907,
      "擒": 1908,
      "擞": 1909,
      "擤": 1910,
      "擦": 1911,
      "攀": 1912,
      "支": 1913,
      "收": 1914,
      "攸": 1915,
      "改": 1916,
      "攻": 1917,
      "放": 1918,
      "政": 1919,
      "故": 1920,
      "效": 1921,
      "敌": 1922,
      "敏": 1923,
      "救": 1924,
      "敖": 1925,
      "教": 1926,
      "敛": 1927,
      "敞": 1928,
      "敢": 1929,
      "散": 1930,
      "敦": 1931,
      "敬": 1932,
      "数": 1933,
      "敲": 1934,
      "整": 1935,
      "敷": 1936,
      "文": 1937,
      "斋": 1938,
      "斌": 1939,
      "斐": 1940,
      "斑": 1941,
      "斗": 1942,
      "料": 1943,
      "斜": 1944,
      "斟": 1945,
      "斡": 1946,
      "斤": 1947,
      "斥": 1948,
      "斧": 1949,
      "斩": 1950,
      "断": 1951,
      "斯": 1952,
      "新": 1953,
      "方": 1954,
      "施": 1955,
      "旁": 1956,
      "旅": 1957,
      "旋": 1958,
      "族": 1959,
      "旗": 1960,
      "无": 1961,
      "既": 1962,
      "日": 1963,
      "旦": 1964,
      "旧": 1965,
      "旨": 1966,
      "早": 1967,
      "旬": 1968,
      "旭": 1969,
      "旱": 1970,
      "时": 1971,
      "旷": 1972,
      "旺": 1973,
      "旻": 1974,
      "旼": 1975,
      "昂": 1976,
      "昆": 1977,
      "昌": 1978,
      "明": 1979,
      "昏": 1980,
      "易": 1981,
      "昔": 1982,
      "昙": 1983,
      "星": 1984,
      "映": 1985,
      "春": 1986,
      "昧": 1987,
      "昨": 1988,
      "昭": 1989,
      "是": 1990,
      "昴": 1991,
      "昵": 1992,
      "昼": 1993,
      "显": 1994,
      "晁": 1995,
      "晃": 1996,
      "晋": 1997,
      "晒": 1998,
      "晓": 1999,
      "晔": 2000,
      "晕": 2001,
      "晖": 2002,
      "晚": 2003,
      "晟": 2004,
      "晤": 2005,
      "晦": 2006,
      "晨": 2007,
      "普": 2008,
      "景": 2009,
      "晰": 2010,
      "晴": 2011,
      "晶": 2012,
      "晷": 2013,
      "智": 2014,
      "晾": 2015,
      "暂": 2016,
      "暇": 2017,
      "暑": 2018,
      "暖": 2019,
      "暗": 2020,
      "暧": 2021,
      "暨": 2022,
      "暮": 2023,
      "暴": 2024,
      "暹": 2025,
      "曙": 2026,
      "曜": 2027,
      "曝": 2028,
      "曦": 2029,
      "曲": 2030,
      "曳": 2031,
      "更": 2032,
      "曹": 2033,
      "曼": 2034,
      "曾": 2035,
      "替": 2036,
      "最": 2037,
      "月": 2038,
      "有": 2039,
      "朊": 2040,
      "朋": 2041,
      "服": 2042,
      "朗": 2043,
      "望": 2044,
      "朝": 2045,
      "期": 2046,
      "朦": 2047,
      "木": 2048,
      "未": 2049,
      "末": 2050,
      "本": 2051,
      "札": 2052,
      "术": 2053,
      "朱": 2054,
      "朴": 2055,
      "朵": 2056,
      "机": 2057,
      "朽": 2058,
      "杀": 2059,
      "杂": 2060,
      "权": 2061,
      "杆": 2062,
      "杉": 2063,
      "李": 2064,
      "杏": 2065,
      "材": 2066,
      "村": 2067,
      "杓": 2068,
      "杖": 2069,
      "杜": 2070,
      "杞": 2071,
      "束": 2072,
      "杠": 2073,
      "条": 2074,
      "来": 2075,
      "杨": 2076,
      "杭": 2077,
      "杯": 2078,
      "杰": 2079,
      "杵": 2080,
      "松": 2081,
      "板": 2082,
      "极": 2083,
      "构": 2084,
      "枉": 2085,
      "析": 2086,
      "枕": 2087,
      "林": 2088,
      "枚": 2089,
      "果": 2090,
      "枝": 2091,
      "枢": 2092,
      "枣": 2093,
      "枪": 2094,
      "枫": 2095,
      "枯": 2096,
      "架": 2097,
      "枸": 2098,
      "柄": 2099,
      "柏": 2100,
      "某": 2101,
      "柑": 2102,
      "染": 2103,
      "柔": 2104,
      "柚": 2105,
      "柜": 2106,
      "柠": 2107,
      "查": 2108,
      "柬": 2109,
      "柯": 2110,
      "柱": 2111,
      "柳": 2112,
      "柴": 2113,
      "柿": 2114,
      "栃": 2115,
      "栅": 2116,
      "标": 2117,
      "栈": 2118,
      "栉": 2119,
      "栋": 2120,
      "栎": 2121,
      "栏": 2122,
      "树": 2123,
      "栓": 2124,
      "栖": 2125,
      "栗": 2126,
      "校": 2127,
      "栩": 2128,
      "株": 2129,
      "样": 2130,
      "核": 2131,
      "根": 2132,
      "格": 2133,
      "栽": 2134,
      "栾": 2135,
      "桀": 2136,
      "桁": 2137,
      "桂": 2138,
      "桃": 2139,
      "桅": 2140,
      "框": 2141,
      "案": 2142,
      "桉": 2143,
      "桌": 2144,
      "桎": 2145,
      "桐": 2146,
      "桑": 2147,
      "桡": 2148,
      "桢": 2149,
      "档": 2150,
      "桥": 2151,
      "桦": 2152,
      "桧": 2153,
      "桨": 2154,
      "桩": 2155,
      "桶": 2156,
      "梁": 2157,
      "梅": 2158,
      "梏": 2159,
      "梓": 2160,
      "梗": 2161,
      "梢": 2162,
      "梦": 2163,
      "梧": 2164,
      "梨": 2165,
      "梭": 2166,
      "梯": 2167,
      "械": 2168,
      "梳": 2169,
      "梵": 2170,
      "梶": 2171,
      "检": 2172,
      "棉": 2173,
      "棋": 2174,
      "棍": 2175,
      "棒": 2176,
      "棕": 2177,
      "棘": 2178,
      "棚": 2179,
      "棠": 2180,
      "棣": 2181,
      "森": 2182,
      "棱": 2183,
      "棵": 2184,
      "棺": 2185,
      "椅": 2186,
      "椋": 2187,
      "植": 2188,
      "椎": 2189,
      "椒": 2190,
      "検": 2191,
      "椭": 2192,
      "椰": 2193,
      "椹": 2194,
      "楔": 2195,
      "楚": 2196,
      "楞": 2197,
      "楠": 2198,
      "楦": 2199,
      "楷": 2200,
      "楼": 2201,
      "概": 2202,
      "榄": 2203,
      "榆": 2204,
      "榈": 2205,
      "榊": 2206,
      "榎": 2207,
      "榕": 2208,
      "榛": 2209,
      "榜": 2210,
      "榨": 2211,
      "榫": 2212,
      "榭": 2213,
      "榴": 2214,
      "榷": 2215,
      "槃": 2216,
      "槌": 2217,
      "槎": 2218,
      "槐": 2219,
      "槙": 2220,
      "槛": 2221,
      "槟": 2222,
      "槲": 2223,
      "槻": 2224,
      "槽": 2225,
      "樋": 2226,
      "樟": 2227,
      "模": 2228,
      "横": 2229,
      "樫": 2230,
      "樱": 2231,
      "樽": 2232,
      "橄": 2233,
      "橇": 2234,
      "橘": 2235,
      "橙": 2236,
      "橡": 2237,
      "橱": 2238,
      "橼": 2239,
      "檀": 2240,
      "檐": 2241,
      "檬": 2242,
      "欠": 2243,
      "次": 2244,
      "欢": 2245,
      "欣": 2246,
      "欧": 2247,
      "欲": 2248,
      "欺": 2249,
      "款": 2250,
      "歇": 2251,
      "歉": 2252,
      "歌": 2253,
      "止": 2254,
      "正": 2255,
      "此": 2256,
      "步": 2257,
      "武": 2258,
      "歧": 2259,
      "歪": 2260,
      "死": 2261,
      "歼": 2262,
      "殆": 2263,
      "殊": 2264,
      "残": 2265,
      "殖": 2266,
      "殴": 2267,
      "段": 2268,
      "殷": 2269,
      "殿": 2270,
      "毁": 2271,
      "毂": 2272,
      "毅": 2273,
      "毋": 2274,
      "母": 2275,
      "每": 2276,
      "毒": 2277,
      "毓": 2278,
      "比": 2279,
      "毕": 2280,
      "毗": 2281,
      "毛": 2282,
      "毡": 2283,
      "毫": 2284,
      "毯": 2285,
      "毽": 2286,
      "氏": 2287,
      "民": 2288,
      "氓": 2289,
      "气": 2290,
      "氕": 2291,
      "氖": 2292,
      "氘": 2293,
      "氙": 2294,
      "氚": 2295,
      "氛": 2296,
      "氟": 2297,
      "氡": 2298,
      "氢": 2299,
      "氦": 2300,
      "氧": 2301,
      "氨": 2302,
      "氩": 2303,
      "氪": 2304,
      "氮": 2305,
      "氯": 2306,
      "氰": 2307,
      "水": 2308,
      "永": 2309,
      "汀": 2310,
      "汁": 2311,
      "求": 2312,
      "汇": 2313,
      "汉": 2314,
      "汐": 2315,
      "汕": 2316,
      "汗": 2317,
      "汝": 2318,
      "汞": 2319,
      "江": 2320,
      "池": 2321,
      "污": 2322,
      "汤": 2323,
      "汪": 2324,
      "汰": 2325,
      "汲": 2326,
      "汶": 2327,
      "汹": 2328,
      "汽": 2329,
      "汾": 2330,
      "沁": 2331,
      "沂": 2332,
      "沃": 2333,
      "沈": 2334,
      "沉": 2335,
      "沌": 2336,
      "沐": 2337,
      "沓": 2338,
      "沙": 2339,
      "沛": 2340,
      "沟": 2341,
      "没": 2342,
      "沣": 2343,
      "沥": 2344,
      "沧": 2345,
      "沪": 2346,
      "沫": 2347,
      "沮": 2348,
      "河": 2349,
      "沸": 2350,
      "油": 2351,
      "治": 2352,
      "沼": 2353,
      "沾": 2354,
      "沿": 2355,
      "泄": 2356,
      "泉": 2357,
      "泊": 2358,
      "泌": 2359,
      "法": 2360,
      "泗": 2361,
      "泛": 2362,
      "泞": 2363,
      "泡": 2364,
      "波": 2365,
      "泣": 2366,
      "泥": 2367,
      "注": 2368,
      "泪": 2369,
      "泮": 2370,
      "泰": 2371,
      "泳": 2372,
      "泵": 2373,
      "泷": 2374,
      "泸": 2375,
      "泻": 2376,
      "泼": 2377,
      "泽": 2378,
      "洁": 2379,
      "洄": 2380,
      "洋": 2381,
      "洒": 2382,
      "洗": 2383,
      "洙": 2384,
      "洛": 2385,
      "洞": 2386,
      "津": 2387,
      "洪": 2388,
      "洲": 2389,
      "活": 2390,
      "洼": 2391,
      "洽": 2392,
      "派": 2393,
      "流": 2394,
      "浅": 2395,
      "浆": 2396,
      "浇": 2397,
      "浊": 2398,
      "测": 2399,
      "济": 2400,
      "浏": 2401,
      "浑": 2402,
      "浓": 2403,
      "浙": 2404,
      "浚": 2405,
      "浣": 2406,
      "浦": 2407,
      "浩": 2408,
      "浪": 2409,
      "浮": 2410,
      "浴": 2411,
      "海": 2412,
      "浸": 2413,
      "涂": 2414,
      "涅": 2415,
      "消": 2416,
      "涉": 2417,
      "涌": 2418,
      "涎": 2419,
      "涓": 2420,
      "涕": 2421,
      "涛": 2422,
      "涝": 2423,
      "涟": 2424,
      "涡": 2425,
      "涤": 2426,
      "润": 2427,
      "涨": 2428,
      "涩": 2429,
      "涯": 2430,
      "液": 2431,
      "涵": 2432,
      "涸": 2433,
      "淀": 2434,
      "淄": 2435,
      "淆": 2436,
      "淇": 2437,
      "淋": 2438,
      "淌": 2439,
      "淑": 2440,
      "淘": 2441,
      "淡": 2442,
      "淤": 2443,
      "淫": 2444,
      "淬": 2445,
      "淮": 2446,
      "深": 2447,
      "淳": 2448,
      "混": 2449,
      "淹": 2450,
      "添": 2451,
      "淼": 2452,
      "清": 2453,
      "渊": 2454,
      "渍": 2455,
      "渎": 2456,
      "渐": 2457,
      "渔": 2458,
      "渕": 2459,
      "渗": 2460,
      "渝": 2461,
      "渠": 2462,
      "渡": 2463,
      "渣": 2464,
      "渤": 2465,
      "渥": 2466,
      "温": 2467,
      "渭": 2468,
      "港": 2469,
      "渲": 2470,
      "渴": 2471,
      "游": 2472,
      "渺": 2473,
      "湄": 2474,
      "湍": 2475,
      "湖": 2476,
      "湘": 2477,
      "湛": 2478,
      "湮": 2479,
      "湾": 2480,
      "湿": 2481,
      "溃": 2482,
      "溅": 2483,
      "溉": 2484,
      "源": 2485,
      "溜": 2486,
      "溢": 2487,
      "溥": 2488,
      "溪": 2489,
      "溯": 2490,
      "溴": 2491,
      "溶": 2492,
      "溺": 2493,
      "滋": 2494,
      "滑": 2495,
      "滓": 2496,
      "滔": 2497,
      "滕": 2498,
      "滚": 2499,
      "滞": 2500,
      "满": 2501,
      "滤": 2502,
      "滥": 2503,
      "滨": 2504,
      "滩": 2505,
      "滴": 2506,
      "漂": 2507,
      "漆": 2508,
      "漉": 2509,
      "漏": 2510,
      "演": 2511,
      "漠": 2512,
      "漩": 2513,
      "漪": 2514,
      "漫": 2515,
      "漯": 2516,
      "漱": 2517,
      "潇": 2518,
      "潍": 2519,
      "潘": 2520,
      "潜": 2521,
      "潞": 2522,
      "潦": 2523,
      "潭": 2524,
      "潮": 2525,
      "潼": 2526,
      "澄": 2527,
      "澈": 2528,
      "澜": 2529,
      "澡": 2530,
      "澳": 2531,
      "激": 2532,
      "濑": 2533,
      "濒": 2534,
      "濮": 2535,
      "瀑": 2536,
      "瀚": 2537,
      "灌": 2538,
      "火": 2539,
      "灭": 2540,
      "灯": 2541,
      "灰": 2542,
      "灵": 2543,
      "灶": 2544,
      "灸": 2545,
      "灼": 2546,
      "灾": 2547,
      "灿": 2548,
      "炉": 2549,
      "炊": 2550,
      "炎": 2551,
      "炒": 2552,
      "炔": 2553,
      "炕": 2554,
      "炖": 2555,
      "炙": 2556,
      "炫": 2557,
      "炬": 2558,
      "炭": 2559,
      "炮": 2560,
      "炯": 2561,
      "炸": 2562,
      "点": 2563,
      "炻": 2564,
      "炼": 2565,
      "炽": 2566,
      "烁": 2567,
      "烂": 2568,
      "烃": 2569,
      "烈": 2570,
      "烘": 2571,
      "烙": 2572,
      "烛": 2573,
      "烟": 2574,
      "烤": 2575,
      "烦": 2576,
      "烧": 2577,
      "烩": 2578,
      "烫": 2579,
      "烬": 2580,
      "热": 2581,
      "烯": 2582,
      "烷": 2583,
      "烹": 2584,
      "焉": 2585,
      "焊": 2586,
      "焓": 2587,
      "焕": 2588,
      "焙": 2589,
      "焚": 2590,
      "焦": 2591,
      "焰": 2592,
      "焱": 2593,
      "然": 2594,
      "煅": 2595,
      "煌": 2596,
      "煎": 2597,
      "煐": 2598,
      "煞": 2599,
      "煤": 2600,
      "照": 2601,
      "煮": 2602,
      "煽": 2603,
      "熄": 2604,
      "熊": 2605,
      "熏": 2606,
      "熔": 2607,
      "熙": 2608,
      "熟": 2609,
      "熨": 2610,
      "熬": 2611,
      "熵": 2612,
      "熹": 2613,
      "燃": 2614,
      "燊": 2615,
      "燕": 2616,
      "燥": 2617,
      "燮": 2618,
      "爆": 2619,
      "爪": 2620,
      "爬": 2621,
      "爱": 2622,
      "爵": 2623,
      "父": 2624,
      "爷": 2625,
      "爸": 2626,
      "爹": 2627,
      "爽": 2628,
      "片": 2629,
      "版": 2630,
      "牌": 2631,
      "牒": 2632,
      "牙": 2633,
      "牛": 2634,
      "牟": 2635,
      "牡": 2636,
      "牢": 2637,
      "牦": 2638,
      "牧": 2639,
      "物": 2640,
      "牲": 2641,
      "牵": 2642,
      "特": 2643,
      "牺": 2644,
      "犀": 2645,
      "犁": 2646,
      "犬": 2647,
      "犯": 2648,
      "犰": 2649,
      "状": 2650,
      "犸": 2651,
      "犹": 2652,
      "狂": 2653,
      "狄": 2654,
      "狐": 2655,
      "狒": 2656,
      "狓": 2657,
      "狗": 2658,
      "狙": 2659,
      "狠": 2660,
      "狡": 2661,
      "狨": 2662,
      "狩": 2663,
      "独": 2664,
      "狭": 2665,
      "狮": 2666,
      "狱": 2667,
      "狳": 2668,
      "狸": 2669,
      "狼": 2670,
      "猎": 2671,
      "猕": 2672,
      "猖": 2673,
      "猛": 2674,
      "猜": 2675,
      "猝": 2676,
      "猥": 2677,
      "猩": 2678,
      "猪": 2679,
      "猫": 2680,
      "猬": 2681,
      "献": 2682,
      "猴": 2683,
      "猾": 2684,
      "猿": 2685,
      "獒": 2686,
      "獗": 2687,
      "獭": 2688,
      "獾": 2689,
      "玄": 2690,
      "率": 2691,
      "玉": 2692,
      "王": 2693,
      "玖": 2694,
      "玛": 2695,
      "玩": 2696,
      "玫": 2697,
      "环": 2698,
      "现": 2699,
      "玲": 2700,
      "玷": 2701,
      "玹": 2702,
      "玺": 2703,
      "玻": 2704,
      "珀": 2705,
      "珂": 2706,
      "珉": 2707,
      "珊": 2708,
      "珍": 2709,
      "珏": 2710,
      "珑": 2711,
      "珞": 2712,
      "珠": 2713,
      "珥": 2714,
      "珩": 2715,
      "班": 2716,
      "球": 2717,
      "琅": 2718,
      "理": 2719,
      "琉": 2720,
      "琏": 2721,
      "琐": 2722,
      "琛": 2723,
      "琢": 2724,
      "琥": 2725,
      "琦": 2726,
      "琨": 2727,
      "琪": 2728,
      "琬": 2729,
      "琰": 2730,
      "琳": 2731,
      "琴": 2732,
      "琵": 2733,
      "琶": 2734,
      "琼": 2735,
      "瑕": 2736,
      "瑙": 2737,
      "瑚": 2738,
      "瑛": 2739,
      "瑜": 2740,
      "瑞": 2741,
      "瑟": 2742,
      "瑠": 2743,
      "瑰": 2744,
      "瑶": 2745,
      "璃": 2746,
      "璎": 2747,
      "璐": 2748,
      "璜": 2749,
      "璞": 2750,
      "瓜": 2751,
      "瓢": 2752,
      "瓣": 2753,
      "瓦": 2754,
      "瓮": 2755,
      "瓯": 2756,
      "瓶": 2757,
      "瓷": 2758,
      "瓿": 2759,
      "甄": 2760,
      "甘": 2761,
      "甙": 2762,
      "甚": 2763,
      "甜": 2764,
      "生": 2765,
      "用": 2766,
      "甩": 2767,
      "甫": 2768,
      "田": 2769,
      "由": 2770,
      "甲": 2771,
      "申": 2772,
      "电": 2773,
      "男": 2774,
      "甸": 2775,
      "町": 2776,
      "画": 2777,
      "甾": 2778,
      "畅": 2779,
      "界": 2780,
      "畏": 2781,
      "畑": 2782,
      "畔": 2783,
      "留": 2784,
      "畜": 2785,
      "畠": 2786,
      "略": 2787,
      "番": 2788,
      "畴": 2789,
      "畸": 2790,
      "畿": 2791,
      "疆": 2792,
      "疏": 2793,
      "疑": 2794,
      "疖": 2795,
      "疗": 2796,
      "疚": 2797,
      "疝": 2798,
      "疟": 2799,
      "疡": 2800,
      "疣": 2801,
      "疤": 2802,
      "疥": 2803,
      "疫": 2804,
      "疮": 2805,
      "疯": 2806,
      "疱": 2807,
      "疲": 2808,
      "疵": 2809,
      "疹": 2810,
      "疼": 2811,
      "疽": 2812,
      "疾": 2813,
      "痂": 2814,
      "病": 2815,
      "症": 2816,
      "痈": 2817,
      "痉": 2818,
      "痊": 2819,
      "痒": 2820,
      "痕": 2821,
      "痘": 2822,
      "痛": 2823,
      "痢": 2824,
      "痣": 2825,
      "痤": 2826,
      "痪": 2827,
      "痫": 2828,
      "痰": 2829,
      "痴": 2830,
      "痹": 2831,
      "瘘": 2832,
      "瘙": 2833,
      "瘟": 2834,
      "瘠": 2835,
      "瘤": 2836,
      "瘦": 2837,
      "瘪": 2838,
      "瘫": 2839,
      "瘾": 2840,
      "癌": 2841,
      "癔": 2842,
      "癖": 2843,
      "癫": 2844,
      "癸": 2845,
      "発": 2846,
      "登": 2847,
      "白": 2848,
      "百": 2849,
      "皂": 2850,
      "的": 2851,
      "皆": 2852,
      "皇": 2853,
      "皈": 2854,
      "皙": 2855,
      "皮": 2856,
      "皱": 2857,
      "皿": 2858,
      "盅": 2859,
      "盆": 2860,
      "盈": 2861,
      "益": 2862,
      "盎": 2863,
      "盏": 2864,
      "盐": 2865,
      "监": 2866,
      "盒": 2867,
      "盔": 2868,
      "盖": 2869,
      "盗": 2870,
      "盘": 2871,
      "盛": 2872,
      "盟": 2873,
      "盥": 2874,
      "目": 2875,
      "盯": 2876,
      "盲": 2877,
      "直": 2878,
      "相": 2879,
      "盹": 2880,
      "盼": 2881,
      "盾": 2882,
      "省": 2883,
      "眉": 2884,
      "看": 2885,
      "真": 2886,
      "眠": 2887,
      "眦": 2888,
      "眨": 2889,
      "眩": 2890,
      "眯": 2891,
      "眶": 2892,
      "眼": 2893,
      "着": 2894,
      "睁": 2895,
      "睐": 2896,
      "睑": 2897,
      "睛": 2898,
      "睡": 2899,
      "督": 2900,
      "睦": 2901,
      "睫": 2902,
      "睹": 2903,
      "睽": 2904,
      "睾": 2905,
      "睿": 2906,
      "瞄": 2907,
      "瞌": 2908,
      "瞒": 2909,
      "瞥": 2910,
      "瞩": 2911,
      "瞪": 2912,
      "瞬": 2913,
      "瞭": 2914,
      "瞰": 2915,
      "瞳": 2916,
      "瞻": 2917,
      "瞿": 2918,
      "矗": 2919,
      "矛": 2920,
      "矜": 2921,
      "矢": 2922,
      "知": 2923,
      "矩": 2924,
      "矫": 2925,
      "短": 2926,
      "矮": 2927,
      "石": 2928,
      "矶": 2929,
      "矾": 2930,
      "矿": 2931,
      "码": 2932,
      "砂": 2933,
      "砌": 2934,
      "砍": 2935,
      "研": 2936,
      "砖": 2937,
      "砜": 2938,
      "砥": 2939,
      "砧": 2940,
      "砰": 2941,
      "破": 2942,
      "砷": 2943,
      "砸": 2944,
      "砹": 2945,
      "砻": 2946,
      "砾": 2947,
      "础": 2948,
      "硅": 2949,
      "硒": 2950,
      "硕": 2951,
      "硝": 2952,
      "硫": 2953,
      "硬": 2954,
      "确": 2955,
      "硼": 2956,
      "碁": 2957,
      "碌": 2958,
      "碍": 2959,
      "碎": 2960,
      "碑": 2961,
      "碗": 2962,
      "碘": 2963,
      "碛": 2964,
      "碟": 2965,
      "碧": 2966,
      "碰": 2967,
      "碱": 2968,
      "碲": 2969,
      "碳": 2970,
      "碴": 2971,
      "碾": 2972,
      "磁": 2973,
      "磅": 2974,
      "磊": 2975,
      "磋": 2976,
      "磐": 2977,
      "磡": 2978,
      "磨": 2979,
      "磷": 2980,
      "磺": 2981,
      "礁": 2982,
      "礴": 2983,
      "示": 2984,
      "礼": 2985,
      "社": 2986,
      "祈": 2987,
      "祉": 2988,
      "祖": 2989,
      "祗": 2990,
      "祝": 2991,
      "神": 2992,
      "祥": 2993,
      "票": 2994,
      "祭": 2995,
      "祯": 2996,
      "祷": 2997,
      "祸": 2998,
      "禀": 2999,
      "禁": 3000,
      "禄": 3001,
      "禅": 3002,
      "福": 3003,
      "禧": 3004,
      "禺": 3005,
      "离": 3006,
      "禽": 3007,
      "禾": 3008,
      "秀": 3009,
      "私": 3010,
      "秃": 3011,
      "秆": 3012,
      "秉": 3013,
      "秋": 3014,
      "种": 3015,
      "科": 3016,
      "秒": 3017,
      "秘": 3018,
      "租": 3019,
      "秤": 3020,
      "秦": 3021,
      "秩": 3022,
      "积": 3023,
      "称": 3024,
      "移": 3025,
      "秽": 3026,
      "稀": 3027,
      "程": 3028,
      "稍": 3029,
      "税": 3030,
      "稔": 3031,
      "稗": 3032,
      "稚": 3033,
      "稠": 3034,
      "稣": 3035,
      "稳": 3036,
      "稻": 3037,
      "稼": 3038,
      "稽": 3039,
      "稿": 3040,
      "穆": 3041,
      "穗": 3042,
      "穴": 3043,
      "究": 3044,
      "穷": 3045,
      "穹": 3046,
      "空": 3047,
      "穿": 3048,
      "突": 3049,
      "窃": 3050,
      "窄": 3051,
      "窍": 3052,
      "窑": 3053,
      "窒": 3054,
      "窖": 3055,
      "窗": 3056,
      "窘": 3057,
      "窜": 3058,
      "窝": 3059,
      "窟": 3060,
      "窥": 3061,
      "窦": 3062,
      "立": 3063,
      "竖": 3064,
      "站": 3065,
      "竞": 3066,
      "竟": 3067,
      "章": 3068,
      "竣": 3069,
      "童": 3070,
      "竭": 3071,
      "端": 3072,
      "竹": 3073,
      "竺": 3074,
      "竿": 3075,
      "笃": 3076,
      "笈": 3077,
      "笋": 3078,
      "笑": 3079,
      "笔": 3080,
      "笙": 3081,
      "笛": 3082,
      "笠": 3083,
      "符": 3084,
      "笨": 3085,
      "第": 3086,
      "笹": 3087,
      "笺": 3088,
      "笼": 3089,
      "等": 3090,
      "筋": 3091,
      "筏": 3092,
      "筐": 3093,
      "筑": 3094,
      "筒": 3095,
      "答": 3096,
      "策": 3097,
      "筛": 3098,
      "筝": 3099,
      "筱": 3100,
      "筷": 3101,
      "筹": 3102,
      "签": 3103,
      "简": 3104,
      "箍": 3105,
      "箔": 3106,
      "箕": 3107,
      "算": 3108,
      "管": 3109,
      "箭": 3110,
      "箱": 3111,
      "篇": 3112,
      "篝": 3113,
      "篡": 3114,
      "篮": 3115,
      "篱": 3116,
      "篷": 3117,
      "篾": 3118,
      "簇": 3119,
      "簧": 3120,
      "簸": 3121,
      "簿": 3122,
      "籁": 3123,
      "籍": 3124,
      "米": 3125,
      "类": 3126,
      "籼": 3127,
      "籽": 3128,
      "粉": 3129,
      "粒": 3130,
      "粗": 3131,
      "粘": 3132,
      "粟": 3133,
      "粤": 3134,
      "粥": 3135,
      "粪": 3136,
      "粬": 3137,
      "粮": 3138,
      "粲": 3139,
      "粳": 3140,
      "粹": 3141,
      "精": 3142,
      "糊": 3143,
      "糕": 3144,
      "糖": 3145,
      "糙": 3146,
      "糜": 3147,
      "糟": 3148,
      "系": 3149,
      "紊": 3150,
      "素": 3151,
      "索": 3152,
      "紧": 3153,
      "紫": 3154,
      "累": 3155,
      "絮": 3156,
      "総": 3157,
      "繁": 3158,
      "纂": 3159,
      "纠": 3160,
      "红": 3161,
      "纤": 3162,
      "约": 3163,
      "级": 3164,
      "纪": 3165,
      "纫": 3166,
      "纬": 3167,
      "纯": 3168,
      "纱": 3169,
      "纲": 3170,
      "纳": 3171,
      "纵": 3172,
      "纶": 3173,
      "纷": 3174,
      "纸": 3175,
      "纹": 3176,
      "纺": 3177,
      "纽": 3178,
      "纾": 3179,
      "线": 3180,
      "绀": 3181,
      "练": 3182,
      "组": 3183,
      "绅": 3184,
      "细": 3185,
      "织": 3186,
      "终": 3187,
      "绉": 3188,
      "绊": 3189,
      "绌": 3190,
      "绍": 3191,
      "绎": 3192,
      "经": 3193,
      "绑": 3194,
      "绒": 3195,
      "结": 3196,
      "绕": 3197,
      "绗": 3198,
      "绘": 3199,
      "给": 3200,
      "络": 3201,
      "绝": 3202,
      "绞": 3203,
      "统": 3204,
      "绣": 3205,
      "绥": 3206,
      "绦": 3207,
      "继": 3208,
      "绩": 3209,
      "绪": 3210,
      "绫": 3211,
      "续": 3212,
      "绮": 3213,
      "绰": 3214,
      "绳": 3215,
      "维": 3216,
      "绵": 3217,
      "绷": 3218,
      "绸": 3219,
      "绺": 3220,
      "综": 3221,
      "绽": 3222,
      "绿": 3223,
      "缀": 3224,
      "缅": 3225,
      "缆": 3226,
      "缉": 3227,
      "缓": 3228,
      "缔": 3229,
      "缕": 3230,
      "编": 3231,
      "缘": 3232,
      "缚": 3233,
      "缛": 3234,
      "缝": 3235,
      "缠": 3236,
      "缢": 3237,
      "缤": 3238,
      "缦": 3239,
      "缨": 3240,
      "缩": 3241,
      "缪": 3242,
      "缬": 3243,
      "缭": 3244,
      "缰": 3245,
      "缴": 3246,
      "缸": 3247,
      "缺": 3248,
      "罂": 3249,
      "罐": 3250,
      "网": 3251,
      "罕": 3252,
      "罗": 3253,
      "罚": 3254,
      "罡": 3255,
      "罢": 3256,
      "罩": 3257,
      "罪": 3258,
      "置": 3259,
      "署": 3260,
      "罹": 3261,
      "羊": 3262,
      "美": 3263,
      "羔": 3264,
      "羚": 3265,
      "羞": 3266,
      "羟": 3267,
      "羡": 3268,
      "群": 3269,
      "羧": 3270,
      "羰": 3271,
      "羲": 3272,
      "羽": 3273,
      "翁": 3274,
      "翅": 3275,
      "翊": 3276,
      "翎": 3277,
      "翔": 3278,
      "翘": 3279,
      "翟": 3280,
      "翠": 3281,
      "翡": 3282,
      "翰": 3283,
      "翱": 3284,
      "翻": 3285,
      "翼": 3286,
      "耀": 3287,
      "老": 3288,
      "考": 3289,
      "者": 3290,
      "耆": 3291,
      "而": 3292,
      "耍": 3293,
      "耐": 3294,
      "耕": 3295,
      "耗": 3296,
      "耙": 3297,
      "耦": 3298,
      "耳": 3299,
      "耶": 3300,
      "耸": 3301,
      "耻": 3302,
      "耿": 3303,
      "聂": 3304,
      "聆": 3305,
      "聊": 3306,
      "聋": 3307,
      "职": 3308,
      "联": 3309,
      "聘": 3310,
      "聚": 3311,
      "聪": 3312,
      "聿": 3313,
      "肃": 3314,
      "肆": 3315,
      "肇": 3316,
      "肉": 3317,
      "肋": 3318,
      "肌": 3319,
      "肖": 3320,
      "肘": 3321,
      "肚": 3322,
      "肛": 3323,
      "肝": 3324,
      "肟": 3325,
      "肠": 3326,
      "股": 3327,
      "肢": 3328,
      "肤": 3329,
      "肥": 3330,
      "肩": 3331,
      "肪": 3332,
      "肮": 3333,
      "肯": 3334,
      "肱": 3335,
      "育": 3336,
      "肴": 3337,
      "肺": 3338,
      "肼": 3339,
      "肽": 3340,
      "肾": 3341,
      "肿": 3342,
      "胀": 3343,
      "胁": 3344,
      "胂": 3345,
      "胃": 3346,
      "胆": 3347,
      "背": 3348,
      "胍": 3349,
      "胎": 3350,
      "胖": 3351,
      "胚": 3352,
      "胛": 3353,
      "胜": 3354,
      "胝": 3355,
      "胞": 3356,
      "胡": 3357,
      "胥": 3358,
      "胧": 3359,
      "胫": 3360,
      "胭": 3361,
      "胰": 3362,
      "胱": 3363,
      "胶": 3364,
      "胸": 3365,
      "胺": 3366,
      "胼": 3367,
      "能": 3368,
      "脂": 3369,
      "脆": 3370,
      "脉": 3371,
      "脊": 3372,
      "脏": 3373,
      "脐": 3374,
      "脑": 3375,
      "脒": 3376,
      "脓": 3377,
      "脖": 3378,
      "脚": 3379,
      "脯": 3380,
      "脱": 3381,
      "脲": 3382,
      "脸": 3383,
      "脾": 3384,
      "腈": 3385,
      "腊": 3386,
      "腋": 3387,
      "腌": 3388,
      "腐": 3389,
      "腓": 3390,
      "腔": 3391,
      "腕": 3392,
      "腘": 3393,
      "腙": 3394,
      "腥": 3395,
      "腭": 3396,
      "腮": 3397,
      "腰": 3398,
      "腱": 3399,
      "腹": 3400,
      "腺": 3401,
      "腻": 3402,
      "腾": 3403,
      "腿": 3404,
      "膀": 3405,
      "膈": 3406,
      "膏": 3407,
      "膛": 3408,
      "膜": 3409,
      "膝": 3410,
      "膦": 3411,
      "膨": 3412,
      "膳": 3413,
      "臀": 3414,
      "臂": 3415,
      "臃": 3416,
      "臣": 3417,
      "臧": 3418,
      "自": 3419,
      "臭": 3420,
      "至": 3421,
      "致": 3422,
      "臻": 3423,
      "臼": 3424,
      "舀": 3425,
      "舆": 3426,
      "舌": 3427,
      "舍": 3428,
      "舐": 3429,
      "舒": 3430,
      "舔": 3431,
      "舛": 3432,
      "舜": 3433,
      "舞": 3434,
      "舟": 3435,
      "航": 3436,
      "般": 3437,
      "舰": 3438,
      "舱": 3439,
      "舵": 3440,
      "舶": 3441,
      "舷": 3442,
      "船": 3443,
      "舾": 3444,
      "艇": 3445,
      "艏": 3446,
      "艘": 3447,
      "艮": 3448,
      "良": 3449,
      "艰": 3450,
      "色": 3451,
      "艳": 3452,
      "艺": 3453,
      "艾": 3454,
      "节": 3455,
      "芒": 3456,
      "芘": 3457,
      "芙": 3458,
      "芜": 3459,
      "芝": 3460,
      "芥": 3461,
      "芦": 3462,
      "芨": 3463,
      "芬": 3464,
      "芭": 3465,
      "芮": 3466,
      "芯": 3467,
      "花": 3468,
      "芳": 3469,
      "芴": 3470,
      "芹": 3471,
      "芽": 3472,
      "苄": 3473,
      "苋": 3474,
      "苍": 3475,
      "苏": 3476,
      "苑": 3477,
      "苓": 3478,
      "苔": 3479,
      "苗": 3480,
      "苛": 3481,
      "苜": 3482,
      "苝": 3483,
      "苟": 3484,
      "若": 3485,
      "苦": 3486,
      "苯": 3487,
      "英": 3488,
      "苴": 3489,
      "苷": 3490,
      "苹": 3491,
      "茁": 3492,
      "茂": 3493,
      "范": 3494,
      "茄": 3495,
      "茅": 3496,
      "茎": 3497,
      "茑": 3498,
      "茚": 3499,
      "茜": 3500,
      "茧": 3501,
      "茨": 3502,
      "茫": 3503,
      "茯": 3504,
      "茱": 3505,
      "茴": 3506,
      "茵": 3507,
      "茶": 3508,
      "茸": 3509,
      "茹": 3510,
      "荀": 3511,
      "荆": 3512,
      "草": 3513,
      "荐": 3514,
      "荒": 3515,
      "荔": 3516,
      "荚": 3517,
      "荞": 3518,
      "荟": 3519,
      "荠": 3520,
      "荡": 3521,
      "荣": 3522,
      "荧": 3523,
      "荨": 3524,
      "荪": 3525,
      "荫": 3526,
      "药": 3527,
      "荷": 3528,
      "荻": 3529,
      "荼": 3530,
      "莉": 3531,
      "莎": 3532,
      "莒": 3533,
      "莓": 3534,
      "莞": 3535,
      "莪": 3536,
      "莫": 3537,
      "莱": 3538,
      "莲": 3539,
      "获": 3540,
      "莹": 3541,
      "莺": 3542,
      "莽": 3543,
      "菀": 3544,
      "菁": 3545,
      "菅": 3546,
      "菇": 3547,
      "菊": 3548,
      "菌": 3549,
      "菜": 3550,
      "菟": 3551,
      "菠": 3552,
      "菩": 3553,
      "菱": 3554,
      "菲": 3555,
      "萃": 3556,
      "萄": 3557,
      "萌": 3558,
      "萍": 3559,
      "萎": 3560,
      "萘": 3561,
      "萜": 3562,
      "萝": 3563,
      "萤": 3564,
      "营": 3565,
      "萧": 3566,
      "萨": 3567,
      "萩": 3568,
      "萼": 3569,
      "落": 3570,
      "著": 3571,
      "葚": 3572,
      "葛": 3573,
      "葡": 3574,
      "董": 3575,
      "葫": 3576,
      "葬": 3577,
      "葱": 3578,
      "葵": 3579,
      "蒂": 3580,
      "蒋": 3581,
      "蒙": 3582,
      "蒜": 3583,
      "蒯": 3584,
      "蒲": 3585,
      "蒸": 3586,
      "蒽": 3587,
      "蒿": 3588,
      "蓄": 3589,
      "蓉": 3590,
      "蓓": 3591,
      "蓖": 3592,
      "蓝": 3593,
      "蓟": 3594,
      "蓬": 3595,
      "蓼": 3596,
      "蓿": 3597,
      "蔑": 3598,
      "蔓": 3599,
      "蔗": 3600,
      "蔚": 3601,
      "蔡": 3602,
      "蔬": 3603,
      "蔷": 3604,
      "蔻": 3605,
      "蔽": 3606,
      "蕉": 3607,
      "蕊": 3608,
      "蕨": 3609,
      "蕴": 3610,
      "蕾": 3611,
      "薄": 3612,
      "薇": 3613,
      "薛": 3614,
      "薪": 3615,
      "薮": 3616,
      "薯": 3617,
      "薰": 3618,
      "藉": 3619,
      "藏": 3620,
      "藐": 3621,
      "藓": 3622,
      "藤": 3623,
      "藻": 3624,
      "蘑": 3625,
      "蘖": 3626,
      "虎": 3627,
      "虏": 3628,
      "虐": 3629,
      "虑": 3630,
      "虔": 3631,
      "虚": 3632,
      "虫": 3633,
      "虱": 3634,
      "虹": 3635,
      "虽": 3636,
      "虾": 3637,
      "蚀": 3638,
      "蚁": 3639,
      "蚂": 3640,
      "蚊": 3641,
      "蚓": 3642,
      "蚕": 3643,
      "蚜": 3644,
      "蚣": 3645,
      "蚤": 3646,
      "蚪": 3647,
      "蚯": 3648,
      "蚱": 3649,
      "蚴": 3650,
      "蛀": 3651,
      "蛄": 3652,
      "蛇": 3653,
      "蛋": 3654,
      "蛎": 3655,
      "蛔": 3656,
      "蛙": 3657,
      "蛛": 3658,
      "蛞": 3659,
      "蛟": 3660,
      "蛤": 3661,
      "蛭": 3662,
      "蛮": 3663,
      "蛹": 3664,
      "蛾": 3665,
      "蜀": 3666,
      "蜂": 3667,
      "蜃": 3668,
      "蜈": 3669,
      "蜉": 3670,
      "蜍": 3671,
      "蜒": 3672,
      "蜓": 3673,
      "蜕": 3674,
      "蜗": 3675,
      "蜘": 3676,
      "蜜": 3677,
      "蜡": 3678,
      "蜢": 3679,
      "蜥": 3680,
      "蜱": 3681,
      "蜴": 3682,
      "蜻": 3683,
      "蜿": 3684,
      "蝇": 3685,
      "蝉": 3686,
      "蝌": 3687,
      "蝎": 3688,
      "蝓": 3689,
      "蝗": 3690,
      "蝙": 3691,
      "蝠": 3692,
      "蝣": 3693,
      "蝴": 3694,
      "蝶": 3695,
      "蝾": 3696,
      "螂": 3697,
      "螃": 3698,
      "螅": 3699,
      "螈": 3700,
      "融": 3701,
      "螨": 3702,
      "螯": 3703,
      "螳": 3704,
      "螺": 3705,
      "蟀": 3706,
      "蟋": 3707,
      "蟑": 3708,
      "蟒": 3709,
      "蟹": 3710,
      "蟾": 3711,
      "蠓": 3712,
      "蠕": 3713,
      "蠖": 3714,
      "蠢": 3715,
      "血": 3716,
      "衅": 3717,
      "行": 3718,
      "衍": 3719,
      "衔": 3720,
      "街": 3721,
      "衡": 3722,
      "衣": 3723,
      "补": 3724,
      "表": 3725,
      "衫": 3726,
      "衬": 3727,
      "衰": 3728,
      "衷": 3729,
      "袁": 3730,
      "袋": 3731,
      "袍": 3732,
      "袒": 3733,
      "袖": 3734,
      "袜": 3735,
      "被": 3736,
      "袭": 3737,
      "袱": 3738,
      "裁": 3739,
      "裂": 3740,
      "装": 3741,
      "裔": 3742,
      "裕": 3743,
      "裘": 3744,
      "裙": 3745,
      "裤": 3746,
      "裨": 3747,
      "裴": 3748,
      "裸": 3749,
      "裹": 3750,
      "褐": 3751,
      "褒": 3752,
      "褚": 3753,
      "褥": 3754,
      "褪": 3755,
      "褶": 3756,
      "襞": 3757,
      "襟": 3758,
      "西": 3759,
      "要": 3760,
      "覆": 3761,
      "见": 3762,
      "观": 3763,
      "规": 3764,
      "觅": 3765,
      "视": 3766,
      "览": 3767,
      "觉": 3768,
      "觊": 3769,
      "觎": 3770,
      "觐": 3771,
      "觑": 3772,
      "角": 3773,
      "解": 3774,
      "触": 3775,
      "言": 3776,
      "訾": 3777,
      "詹": 3778,
      "誉": 3779,
      "誓": 3780,
      "警": 3781,
      "计": 3782,
      "订": 3783,
      "讣": 3784,
      "认": 3785,
      "讨": 3786,
      "让": 3787,
      "讪": 3788,
      "训": 3789,
      "议": 3790,
      "讯": 3791,
      "记": 3792,
      "讲": 3793,
      "讳": 3794,
      "讶": 3795,
      "讷": 3796,
      "许": 3797,
      "论": 3798,
      "讼": 3799,
      "讽": 3800,
      "设": 3801,
      "访": 3802,
      "诀": 3803,
      "证": 3804,
      "诃": 3805,
      "评": 3806,
      "诅": 3807,
      "识": 3808,
      "诈": 3809,
      "诉": 3810,
      "诊": 3811,
      "诋": 3812,
      "词": 3813,
      "译": 3814,
      "试": 3815,
      "诗": 3816,
      "诙": 3817,
      "诚": 3818,
      "话": 3819,
      "诞": 3820,
      "诠": 3821,
      "诡": 3822,
      "询": 3823,
      "该": 3824,
      "详": 3825,
      "诩": 3826,
      "诫": 3827,
      "语": 3828,
      "误": 3829,
      "诱": 3830,
      "说": 3831,
      "诵": 3832,
      "请": 3833,
      "诸": 3834,
      "诺": 3835,
      "读": 3836,
      "诽": 3837,
      "课": 3838,
      "诿": 3839,
      "谁": 3840,
      "调": 3841,
      "谅": 3842,
      "谈": 3843,
      "谊": 3844,
      "谋": 3845,
      "谍": 3846,
      "谎": 3847,
      "谐": 3848,
      "谓": 3849,
      "谔": 3850,
      "谕": 3851,
      "谚": 3852,
      "谛": 3853,
      "谜": 3854,
      "谟": 3855,
      "谢": 3856,
      "谣": 3857,
      "谤": 3858,
      "谦": 3859,
      "谨": 3860,
      "谬": 3861,
      "谭": 3862,
      "谱": 3863,
      "谴": 3864,
      "谷": 3865,
      "豁": 3866,
      "豆": 3867,
      "豌": 3868,
      "豚": 3869,
      "象": 3870,
      "豪": 3871,
      "豫": 3872,
      "豹": 3873,
      "貂": 3874,
      "貉": 3875,
      "貌": 3876,
      "貘": 3877,
      "贝": 3878,
      "贞": 3879,
      "负": 3880,
      "贡": 3881,
      "财": 3882,
      "责": 3883,
      "贤": 3884,
      "败": 3885,
      "账": 3886,
      "货": 3887,
      "质": 3888,
      "贩": 3889,
      "贪": 3890,
      "贫": 3891,
      "贬": 3892,
      "购": 3893,
      "贮": 3894,
      "贯": 3895,
      "贱": 3896,
      "贴": 3897,
      "贵": 3898,
      "贷": 3899,
      "贸": 3900,
      "费": 3901,
      "贺": 3902,
      "贻": 3903,
      "贼": 3904,
      "贾": 3905,
      "贿": 3906,
      "赁": 3907,
      "赂": 3908,
      "资": 3909,
      "赋": 3910,
      "赌": 3911,
      "赎": 3912,
      "赏": 3913,
      "赐": 3914,
      "赔": 3915,
      "赖": 3916,
      "赘": 3917,
      "赚": 3918,
      "赛": 3919,
      "赝": 3920,
      "赞": 3921,
      "赠": 3922,
      "赢": 3923,
      "赤": 3924,
      "赫": 3925,
      "赭": 3926,
      "走": 3927,
      "赴": 3928,
      "赵": 3929,
      "赶": 3930,
      "起": 3931,
      "趁": 3932,
      "超": 3933,
      "越": 3934,
      "趋": 3935,
      "趟": 3936,
      "趣": 3937,
      "足": 3938,
      "趴": 3939,
      "趾": 3940,
      "跃": 3941,
      "跋": 3942,
      "跌": 3943,
      "跑": 3944,
      "跖": 3945,
      "跚": 3946,
      "跛": 3947,
      "距": 3948,
      "跟": 3949,
      "跤": 3950,
      "跨": 3951,
      "跪": 3952,
      "路": 3953,
      "跳": 3954,
      "践": 3955,
      "跷": 3956,
      "跻": 3957,
      "踏": 3958,
      "踝": 3959,
      "踢": 3960,
      "踩": 3961,
      "踪": 3962,
      "踱": 3963,
      "踵": 3964,
      "蹂": 3965,
      "蹄": 3966,
      "蹈": 3967,
      "蹑": 3968,
      "蹒": 3969,
      "蹦": 3970,
      "蹩": 3971,
      "蹲": 3972,
      "蹼": 3973,
      "躁": 3974,
      "躏": 3975,
      "身": 3976,
      "躬": 3977,
      "躯": 3978,
      "躲": 3979,
      "躺": 3980,
      "车": 3981,
      "轧": 3982,
      "轨": 3983,
      "轩": 3984,
      "轫": 3985,
      "转": 3986,
      "轭": 3987,
      "轮": 3988,
      "软": 3989,
      "轰": 3990,
      "轲": 3991,
      "轴": 3992,
      "轶": 3993,
      "轻": 3994,
      "载": 3995,
      "轿": 3996,
      "较": 3997,
      "辅": 3998,
      "辆": 3999,
      "辈": 4000,
      "辉": 4001,
      "辊": 4002,
      "辋": 4003,
      "辍": 4004,
      "辏": 4005,
      "辐": 4006,
      "辑": 4007,
      "输": 4008,
      "辕": 4009,
      "辖": 4010,
      "辙": 4011,
      "辛": 4012,
      "辜": 4013,
      "辞": 4014,
      "辟": 4015,
      "辣": 4016,
      "辨": 4017,
      "辩": 4018,
      "辫": 4019,
      "辰": 4020,
      "辱": 4021,
      "边": 4022,
      "辻": 4023,
      "辽": 4024,
      "达": 4025,
      "迁": 4026,
      "迂": 4027,
      "迄": 4028,
      "迅": 4029,
      "过": 4030,
      "迈": 4031,
      "迎": 4032,
      "运": 4033,
      "近": 4034,
      "返": 4035,
      "还": 4036,
      "这": 4037,
      "进": 4038,
      "远": 4039,
      "违": 4040,
      "连": 4041,
      "迟": 4042,
      "迦": 4043,
      "迪": 4044,
      "迫": 4045,
      "迭": 4046,
      "述": 4047,
      "迷": 4048,
      "迹": 4049,
      "追": 4050,
      "退": 4051,
      "送": 4052,
      "适": 4053,
      "逃": 4054,
      "逅": 4055,
      "逆": 4056,
      "选": 4057,
      "逊": 4058,
      "透": 4059,
      "逐": 4060,
      "递": 4061,
      "途": 4062,
      "逗": 4063,
      "通": 4064,
      "逛": 4065,
      "逝": 4066,
      "逞": 4067,
      "速": 4068,
      "造": 4069,
      "逢": 4070,
      "逮": 4071,
      "逸": 4072,
      "逻": 4073,
      "逼": 4074,
      "逾": 4075,
      "遂": 4076,
      "遇": 4077,
      "遍": 4078,
      "遏": 4079,
      "道": 4080,
      "遗": 4081,
      "遛": 4082,
      "遣": 4083,
      "遥": 4084,
      "遭": 4085,
      "遮": 4086,
      "遵": 4087,
      "避": 4088,
      "邀": 4089,
      "邂": 4090,
      "邃": 4091,
      "邑": 4092,
      "邓": 4093,
      "邝": 4094,
      "邢": 4095,
      "那": 4096,
      "邦": 4097,
      "邪": 4098,
      "邬": 4099,
      "邮": 4100,
      "邰": 4101,
      "邱": 4102,
      "邵": 4103,
      "邸": 4104,
      "邹": 4105,
      "邻": 4106,
      "郁": 4107,
      "郊": 4108,
      "郎": 4109,
      "郑": 4110,
      "郓": 4111,
      "郝": 4112,
      "郡": 4113,
      "郦": 4114,
      "部": 4115,
      "郭": 4116,
      "都": 4117,
      "鄂": 4118,
      "鄙": 4119,
      "酉": 4120,
      "酋": 4121,
      "酌": 4122,
      "配": 4123,
      "酐": 4124,
      "酒": 4125,
      "酗": 4126,
      "酚": 4127,
      "酝": 4128,
      "酞": 4129,
      "酪": 4130,
      "酬": 4131,
      "酮": 4132,
      "酯": 4133,
      "酰": 4134,
      "酱": 4135,
      "酵": 4136,
      "酶": 4137,
      "酷": 4138,
      "酸": 4139,
      "酿": 4140,
      "醇": 4141,
      "醉": 4142,
      "醋": 4143,
      "醌": 4144,
      "醒": 4145,
      "醚": 4146,
      "醛": 4147,
      "采": 4148,
      "釉": 4149,
      "释": 4150,
      "里": 4151,
      "重": 4152,
      "野": 4153,
      "量": 4154,
      "金": 4155,
      "釜": 4156,
      "鉴": 4157,
      "銮": 4158,
      "鎓": 4159,
      "鑫": 4160,
      "钆": 4161,
      "钇": 4162,
      "针": 4163,
      "钉": 4164,
      "钊": 4165,
      "钋": 4166,
      "钌": 4167,
      "钍": 4168,
      "钎": 4169,
      "钐": 4170,
      "钒": 4171,
      "钓": 4172,
      "钕": 4173,
      "钙": 4174,
      "钚": 4175,
      "钛": 4176,
      "钝": 4177,
      "钞": 4178,
      "钟": 4179,
      "钠": 4180,
      "钡": 4181,
      "钢": 4182,
      "钣": 4183,
      "钥": 4184,
      "钦": 4185,
      "钨": 4186,
      "钩": 4187,
      "钪": 4188,
      "钬": 4189,
      "钮": 4190,
      "钯": 4191,
      "钰": 4192,
      "钱": 4193,
      "钳": 4194,
      "钴": 4195,
      "钵": 4196,
      "钹": 4197,
      "钻": 4198,
      "钼": 4199,
      "钽": 4200,
      "钾": 4201,
      "铀": 4202,
      "铁": 4203,
      "铂": 4204,
      "铃": 4205,
      "铅": 4206,
      "铆": 4207,
      "铈": 4208,
      "铊": 4209,
      "铋": 4210,
      "铌": 4211,
      "铍": 4212,
      "铎": 4213,
      "铐": 4214,
      "铑": 4215,
      "铒": 4216,
      "铕": 4217,
      "铙": 4218,
      "铛": 4219,
      "铜": 4220,
      "铝": 4221,
      "铟": 4222,
      "铣": 4223,
      "铥": 4224,
      "铪": 4225,
      "铬": 4226,
      "铭": 4227,
      "铮": 4228,
      "铯": 4229,
      "铰": 4230,
      "铱": 4231,
      "铲": 4232,
      "铵": 4233,
      "银": 4234,
      "铷": 4235,
      "铸": 4236,
      "铹": 4237,
      "铺": 4238,
      "铼": 4239,
      "铽": 4240,
      "链": 4241,
      "铿": 4242,
      "销": 4243,
      "锁": 4244,
      "锂": 4245,
      "锅": 4246,
      "锆": 4247,
      "锇": 4248,
      "锈": 4249,
      "锉": 4250,
      "锋": 4251,
      "锌": 4252,
      "锍": 4253,
      "锐": 4254,
      "锑": 4255,
      "锕": 4256,
      "锗": 4257,
      "错": 4258,
      "锚": 4259,
      "锡": 4260,
      "锣": 4261,
      "锤": 4262,
      "锥": 4263,
      "锦": 4264,
      "锭": 4265,
      "键": 4266,
      "锯": 4267,
      "锰": 4268,
      "锵": 4269,
      "锶": 4270,
      "锷": 4271,
      "锻": 4272,
      "镀": 4273,
      "镁": 4274,
      "镅": 4275,
      "镇": 4276,
      "镉": 4277,
      "镊": 4278,
      "镍": 4279,
      "镐": 4280,
      "镑": 4281,
      "镓": 4282,
      "镖": 4283,
      "镜": 4284,
      "镝": 4285,
      "镥": 4286,
      "镧": 4287,
      "镨": 4288,
      "镭": 4289,
      "镯": 4290,
      "镰": 4291,
      "镱": 4292,
      "镲": 4293,
      "镶": 4294,
      "长": 4295,
      "门": 4296,
      "闩": 4297,
      "闪": 4298,
      "闭": 4299,
      "问": 4300,
      "闯": 4301,
      "闰": 4302,
      "闲": 4303,
      "间": 4304,
      "闵": 4305,
      "闷": 4306,
      "闸": 4307,
      "闹": 4308,
      "闺": 4309,
      "闻": 4310,
      "闽": 4311,
      "阀": 4312,
      "阁": 4313,
      "阂": 4314,
      "阅": 4315,
      "阈": 4316,
      "阋": 4317,
      "阐": 4318,
      "阑": 4319,
      "阔": 4320,
      "阙": 4321,
      "阚": 4322,
      "阜": 4323,
      "队": 4324,
      "阡": 4325,
      "阪": 4326,
      "阮": 4327,
      "阱": 4328,
      "防": 4329,
      "阳": 4330,
      "阴": 4331,
      "阵": 4332,
      "阶": 4333,
      "阻": 4334,
      "阿": 4335,
      "陀": 4336,
      "附": 4337,
      "际": 4338,
      "陆": 4339,
      "陈": 4340,
      "陋": 4341,
      "陌": 4342,
      "降": 4343,
      "限": 4344,
      "陕": 4345,
      "陛": 4346,
      "陡": 4347,
      "院": 4348,
      "除": 4349,
      "陨": 4350,
      "险": 4351,
      "陪": 4352,
      "陵": 4353,
      "陶": 4354,
      "陷": 4355,
      "隅": 4356,
      "隆": 4357,
      "隈": 4358,
      "隋": 4359,
      "随": 4360,
      "隐": 4361,
      "隔": 4362,
      "隘": 4363,
      "隙": 4364,
      "障": 4365,
      "隧": 4366,
      "隶": 4367,
      "隼": 4368,
      "难": 4369,
      "雀": 4370,
      "雁": 4371,
      "雄": 4372,
      "雅": 4373,
      "集": 4374,
      "雇": 4375,
      "雉": 4376,
      "雌": 4377,
      "雍": 4378,
      "雏": 4379,
      "雒": 4380,
      "雕": 4381,
      "雨": 4382,
      "雪": 4383,
      "雯": 4384,
      "雳": 4385,
      "零": 4386,
      "雷": 4387,
      "雹": 4388,
      "雾": 4389,
      "需": 4390,
      "霁": 4391,
      "霄": 4392,
      "霆": 4393,
      "震": 4394,
      "霉": 4395,
      "霍": 4396,
      "霓": 4397,
      "霖": 4398,
      "霜": 4399,
      "霞": 4400,
      "霰": 4401,
      "露": 4402,
      "霸": 4403,
      "霹": 4404,
      "霾": 4405,
      "青": 4406,
      "靖": 4407,
      "静": 4408,
      "靛": 4409,
      "非": 4410,
      "靠": 4411,
      "面": 4412,
      "革": 4413,
      "靳": 4414,
      "靴": 4415,
      "靶": 4416,
      "靼": 4417,
      "鞅": 4418,
      "鞋": 4419,
      "鞍": 4420,
      "鞑": 4421,
      "鞘": 4422,
      "鞠": 4423,
      "鞭": 4424,
      "韦": 4425,
      "韧": 4426,
      "韩": 4427,
      "韭": 4428,
      "音": 4429,
      "韵": 4430,
      "页": 4431,
      "顶": 4432,
      "顷": 4433,
      "项": 4434,
      "顺": 4435,
      "须": 4436,
      "顽": 4437,
      "顾": 4438,
      "顿": 4439,
      "颁": 4440,
      "颂": 4441,
      "预": 4442,
      "颅": 4443,
      "领": 4444,
      "颇": 4445,
      "颈": 4446,
      "颊": 4447,
      "颌": 4448,
      "颐": 4449,
      "频": 4450,
      "颓": 4451,
      "颖": 4452,
      "颗": 4453,
      "题": 4454,
      "颚": 4455,
      "颜": 4456,
      "额": 4457,
      "颞": 4458,
      "颠": 4459,
      "颤": 4460,
      "颧": 4461,
      "风": 4462,
      "飒": 4463,
      "飓": 4464,
      "飘": 4465,
      "飙": 4466,
      "飚": 4467,
      "飞": 4468,
      "食": 4469,
      "餐": 4470,
      "饥": 4471,
      "饨": 4472,
      "饪": 4473,
      "饭": 4474,
      "饮": 4475,
      "饯": 4476,
      "饰": 4477,
      "饱": 4478,
      "饲": 4479,
      "饵": 4480,
      "饶": 4481,
      "饺": 4482,
      "饼": 4483,
      "饿": 4484,
      "馄": 4485,
      "馅": 4486,
      "馆": 4487,
      "馈": 4488,
      "馏": 4489,
      "首": 4490,
      "香": 4491,
      "馨": 4492,
      "騨": 4493,
      "驒": 4494,
      "马": 4495,
      "驭": 4496,
      "驯": 4497,
      "驰": 4498,
      "驱": 4499,
      "驳": 4500,
      "驴": 4501,
      "驶": 4502,
      "驷": 4503,
      "驹": 4504,
      "驻": 4505,
      "驼": 4506,
      "驾": 4507,
      "骁": 4508,
      "骂": 4509,
      "骄": 4510,
      "骆": 4511,
      "骋": 4512,
      "验": 4513,
      "骏": 4514,
      "骑": 4515,
      "骗": 4516,
      "骚": 4517,
      "骛": 4518,
      "骜": 4519,
      "骡": 4520,
      "骤": 4521,
      "骥": 4522,
      "骨": 4523,
      "骰": 4524,
      "骶": 4525,
      "骷": 4526,
      "骸": 4527,
      "骺": 4528,
      "骼": 4529,
      "髁": 4530,
      "髂": 4531,
      "髅": 4532,
      "髋": 4533,
      "髌": 4534,
      "髓": 4535,
      "高": 4536,
      "髦": 4537,
      "髻": 4538,
      "鬃": 4539,
      "鬣": 4540,
      "鬼": 4541,
      "魁": 4542,
      "魂": 4543,
      "魅": 4544,
      "魏": 4545,
      "魔": 4546,
      "鱼": 4547,
      "鱿": 4548,
      "鲁": 4549,
      "鲈": 4550,
      "鲍": 4551,
      "鲎": 4552,
      "鲑": 4553,
      "鲜": 4554,
      "鲢": 4555,
      "鲤": 4556,
      "鲥": 4557,
      "鲨": 4558,
      "鲱": 4559,
      "鲲": 4560,
      "鲶": 4561,
      "鲷": 4562,
      "鲸": 4563,
      "鲻": 4564,
      "鲼": 4565,
      "鲽": 4566,
      "鳀": 4567,
      "鳃": 4568,
      "鳄": 4569,
      "鳅": 4570,
      "鳉": 4571,
      "鳍": 4572,
      "鳎": 4573,
      "鳐": 4574,
      "鳔": 4575,
      "鳕": 4576,
      "鳖": 4577,
      "鳗": 4578,
      "鳝": 4579,
      "鳞": 4580,
      "鳟": 4581,
      "鳢": 4582,
      "鸟": 4583,
      "鸠": 4584,
      "鸡": 4585,
      "鸢": 4586,
      "鸣": 4587,
      "鸥": 4588,
      "鸦": 4589,
      "鸪": 4590,
      "鸬": 4591,
      "鸭": 4592,
      "鸵": 4593,
      "鸸": 4594,
      "鸻": 4595,
      "鸽": 4596,
      "鸾": 4597,
      "鸿": 4598,
      "鹀": 4599,
      "鹂": 4600,
      "鹃": 4601,
      "鹅": 4602,
      "鹈": 4603,
      "鹉": 4604,
      "鹋": 4605,
      "鹌": 4606,
      "鹎": 4607,
      "鹏": 4608,
      "鹑": 4609,
      "鹕": 4610,
      "鹚": 4611,
      "鹤": 4612,
      "鹦": 4613,
      "鹧": 4614,
      "鹩": 4615,
      "鹫": 4616,
      "鹬": 4617,
      "鹭": 4618,
      "鹰": 4619,
      "鹳": 4620,
      "鹿": 4621,
      "麋": 4622,
      "麒": 4623,
      "麓": 4624,
      "麝": 4625,
      "麟": 4626,
      "麦": 4627,
      "麸": 4628,
      "麻": 4629,
      "黄": 4630,
      "黎": 4631,
      "黑": 4632,
      "黔": 4633,
      "默": 4634,
      "黛": 4635,
      "黜": 4636,
      "黯": 4637,
      "黾": 4638,
      "鼎": 4639,
      "鼓": 4640,
      "鼠": 4641,
      "鼹": 4642,
      "鼻": 4643,
      "鼾": 4644,
      "齐": 4645,
      "齿": 4646,
      "龄": 4647,
      "龈": 4648,
      "龙": 4649,
      "龚": 4650,
      "龛": 4651,
      "龟": 4652,
      "！": 4653,
      "＃": 4654,
      "％": 4655,
      "＆": 4656,
      "（": 4657,
      "）": 4658,
      "，": 4659,
      "．": 4660,
      "：": 4661,
      "；": 4662,
      "＝": 4663,
      "？": 4664,
      "～": 4665,
      "🖂": 4666,
      "##角": 4667,
      "##部": 4668,
      "##C": 4669,
      "##S": 4670,
      "##A": 4671,
      "##O": 4672,
      "##e": 4673,
      "##l": 4674,
      "##i": 4675,
      "##n": 4676,
      "##d": 4677,
      "##a": 4678,
      "##嘉": 4679,
      "##敏": 4680,
      "##3": 4681,
      "##9": 4682,
      "##4": 4683,
      "##o": 4684,
      "##t": 4685,
      "##森": 4686,
      "##诺": 4687,
      "##s": 4688,
      "##c": 4689,
      "##h": 4690,
      "##k": 4691,
      "##宽": 4692,
      "##会": 4693,
      "##5": 4694,
      "##0": 4695,
      "##留": 4696,
      "##强": 4697,
      "##设": 4698,
      "##协": 4699,
      "##变": 4700,
      "##u": 4701,
      "##T": 4702,
      "##N": 4703,
      "##子": 4704,
      "##振": 4705,
      "##动": 4706,
      "##r": 4707,
      "##g": 4708,
      "##y": 4709,
      "##M": 4710,
      "##x": 4711,
      "##L": 4712,
      "##U": 4713,
      "##F": 4714,
      "##1": 4715,
      "##f": 4716,
      "##p": 4717,
      "##来": 4718,
      "##v": 4719,
      "##6": 4720,
      "##8": 4721,
      "##j": 4722,
      "##娃": 4723,
      "##明": 4724,
      "##大": 4725,
      "##7": 4726,
      "##w": 4727,
      "##九": 4728,
      "##版": 4729,
      "##B": 4730,
      "##阶": 4731,
      "##次": 4732,
      "##磁": 4733,
      "##H": 4734,
      "##I": 4735,
      "##G": 4736,
      "##R": 4737,
      "##D": 4738,
      "##E": 4739,
      "##2": 4740,
      "##记": 4741,
      "##录": 4742,
      "##贝": 4743,
      "##伦": 4744,
      "##内": 4745,
      "##边": 4746,
      "##m": 4747,
      "##z": 4748,
      "##图": 4749,
      "##b": 4750,
      "##量": 4751,
      "##业": 4752,
      "##至": 4753,
      "##誉": 4754,
      "##奖": 4755,
      "##域": 4756,
      "##度": 4757,
      "##论": 4758,
      "##区": 4759,
      "##电": 4760,
      "##虚": 4761,
      "##复": 4762,
      "##娜": 4763,
      "##向": 4764,
      "##捕": 4765,
      "##X": 4766,
      "##处": 4767,
      "##建": 4768,
      "##在": 4769,
      "##萨": 4770,
      "##永": 4771,
      "##斌": 4772,
      "##J": 4773,
      "##多": 4774,
      "##雷": 4775,
      "##破": 4776,
      "##肘": 4777,
      "##鄂": 4778,
      "##K": 4779,
      "##林": 4780,
      "##菲": 4781,
      "##P": 4782,
      "##水": 4783,
      "##堆": 4784,
      "##维": 4785,
      "##晓": 4786,
      "##然": 4787,
      "##射": 4788,
      "##出": 4789,
      "##旭": 4790,
      "##庆": 4791,
      "##松": 4792,
      "##安": 4793,
      "##例": 4794,
      "##赘": 4795,
      "##q": 4796,
      "##W": 4797,
      "##丽": 4798,
      "##差": 4799,
      "##乐": 4800,
      "##宇": 4801,
      "##制": 4802,
      "##指": 4803,
      "##数": 4804,
      "##份": 4805,
      "##切": 4806,
      "##新": 4807,
      "##聚": 4808,
      "##集": 4809,
      "##间": 4810,
      "##文": 4811,
      "##斯": 4812,
      "##兰": 4813,
      "##施": 4814,
      "##鲁": 4815,
      "##丁": 4816,
      "##格": 4817,
      "##项": 4818,
      "##浴": 4819,
      "##养": 4820,
      "##围": 4821,
      "##棋": 4822,
      "##生": 4823,
      "##和": 4824,
      "##朱": 4825,
      "##条": 4826,
      "##路": 4827,
      "##线": 4828,
      "##高": 4829,
      "##时": 4830,
      "##步": 4831,
      "##Q": 4832,
      "##无": 4833,
      "##源": 4834,
      "##克": 4835,
      "##利": 4836,
      "##学": 4837,
      "##韦": 4838,
      "##茨": 4839,
      "##国": 4840,
      "##参": 4841,
      "##议": 4842,
      "##院": 4843,
      "##尔": 4844,
      "##赞": 4845,
      "##冰": 4846,
      "##决": 4847,
      "##Z": 4848,
      "##居": 4849,
      "##城": 4850,
      "##市": 4851,
      "##一": 4852,
      "##逆": 4853,
      "##谱": 4854,
      "##奥": 4855,
      "##蒂": 4856,
      "##熙": 4857,
      "##宏": 4858,
      "##弱": 4859,
      "##植": 4860,
      "##园": 4861,
      "##分": 4862,
      "##割": 4863,
      "##闭": 4864,
      "##沼": 4865,
      "##卡": 4866,
      "##奇": 4867,
      "##V": 4868,
      "##军": 4869,
      "##圣": 4870,
      "##洛": 4871,
      "##场": 4872,
      "##才": 4873,
      "##队": 4874,
      "##伍": 4875,
      "##田": 4876,
      "##隙": 4877,
      "##迪": 4878,
      "##略": 4879,
      "##深": 4880,
      "##到": 4881,
      "##马": 4882,
      "##折": 4883,
      "##如": 4884,
      "##表": 4885,
      "##的": 4886,
      "##说": 4887,
      "##阅": 4888,
      "##持": 4889,
      "##性": 4890,
      "##远": 4891,
      "##沃": 4892,
      "##佐": 4893,
      "##热": 4894,
      "##非": 4895,
      "##定": 4896,
      "##不": 4897,
      "##移": 4898,
      "##千": 4899,
      "##英": 4900,
      "##加": 4901,
      "##霉": 4902,
      "##瓦": 4903,
      "##那": 4904,
      "##倒": 4905,
      "##公": 4906,
      "##平": 4907,
      "##阿": 4908,
      "##越": 4909,
      "##对": 4910,
      "##比": 4911,
      "##扫": 4912,
      "##过": 4913,
      "##套": 4914,
      "##泛": 4915,
      "##磨": 4916,
      "##效": 4917,
      "##恩": 4918,
      "##本": 4919,
      "##脑": 4920,
      "##架": 4921,
      "##基": 4922,
      "##山": 4923,
      "##涡": 4924,
      "##可": 4925,
      "##交": 4926,
      "##值": 4927,
      "##写": 4928,
      "##伟": 4929,
      "##彦": 4930,
      "##中": 4931,
      "##亚": 4932,
      "##涤": 4933,
      "##器": 4934,
      "##蟹": 4935,
      "##莱": 4936,
      "##忙": 4937,
      "##仅": 4938,
      "##泡": 4939,
      "##带": 4940,
      "##吕": 4941,
      "##町": 4942,
      "##冈": 4943,
      "##伸": 4944,
      "##应": 4945,
      "##晴": 4946,
      "##方": 4947,
      "##毫": 4948,
      "##米": 4949,
      "##长": 4950,
      "##遗": 4951,
      "##憾": 4952,
      "##尼": 4953,
      "##二": 4954,
      "##威": 4955,
      "##解": 4956,
      "##典": 4957,
      "##掉": 4958,
      "##提": 4959,
      "##修": 4960,
      "##朗": 4961,
      "##道": 4962,
      "##外": 4963,
      "##工": 4964,
      "##作": 4965,
      "##博": 4966,
      "##族": 4967,
      "##阻": 4968,
      "##拉": 4969,
      "##特": 4970,
      "##绪": 4971,
      "##播": 4972,
      "##任": 4973,
      "##凤": 4974,
      "##托": 4975,
      "##夫": 4976,
      "##糖": 4977,
      "##同": 4978,
      "##兹": 4979,
      "##伊": 4980,
      "##相": 4981,
      "##希": 4982,
      "##刃": 4983,
      "##石": 4984,
      "##像": 4985,
      "##件": 4986,
      "##欣": 4987,
      "##激": 4988,
      "##用": 4989,
      "##云": 4990,
      "##鱼": 4991,
      "##及": 4992,
      "##体": 4993,
      "##里": 4994,
      "##慧": 4995,
      "##君": 4996,
      "##损": 4997,
      "##轻": 4998,
      "##超": 4999,
      "##组": 5000,
      "##豹": 5001,
      "##什": 5002,
      "##等": 5003,
      "##质": 5004,
      "##半": 5005,
      "##正": 5006,
      "##杯": 5007,
      "##红": 5008,
      "##头": 5009,
      "##语": 5010,
      "##Y": 5011,
      "##直": 5012,
      "##后": 5013,
      "##凸": 5014,
      "##桥": 5015,
      "##以": 5016,
      "##盘": 5017,
      "##志": 5018,
      "##曼": 5019,
      "##询": 5020,
      "##法": 5021,
      "##京": 5022,
      "##洙": 5023,
      "##邦": 5024,
      "##华": 5025,
      "##位": 5026,
      "##虎": 5027,
      "##机": 5028,
      "##梦": 5029,
      "##益": 5030,
      "##驱": 5031,
      "##教": 5032,
      "##世": 5033,
      "##良": 5034,
      "##取": 5035,
      "##心": 5036,
      "##人": 5037,
      "##圆": 5038,
      "##思": 5039,
      "##柳": 5040,
      "##干": 5041,
      "##康": 5042,
      "##傲": 5043,
      "##自": 5044,
      "##补": 5045,
      "##护": 5046,
      "##权": 5047,
      "##吉": 5048,
      "##端": 5049,
      "##落": 5050,
      "##耶": 5051,
      "##宗": 5052,
      "##达": 5053,
      "##默": 5054,
      "##顿": 5055,
      "##姆": 5056,
      "##静": 5057,
      "##算": 5058,
      "##领": 5059,
      "##查": 5060,
      "##式": 5061,
      "##滤": 5062,
      "##氏": 5063,
      "##理": 5064,
      "##案": 5065,
      "##睿": 5066,
      "##婷": 5067,
      "##介": 5068,
      "##色": 5069,
      "##央": 5070,
      "##民": 5071,
      "##精": 5072,
      "##但": 5073,
      "##泽": 5074,
      "##铁": 5075,
      "##仁": 5076,
      "##化": 5077,
      "##块": 5078,
      "##待": 5079,
      "##已": 5080,
      "##久": 5081,
      "##共": 5082,
      "##压": 5083,
      "##传": 5084,
      "##谢": 5085,
      "##纳": 5086,
      "##燕": 5087,
      "##舌": 5088,
      "##极": 5089,
      "##话": 5090,
      "##段": 5091,
      "##态": 5092,
      "##离": 5093,
      "##科": 5094,
      "##技": 5095,
      "##纯": 5096,
      "##品": 5097,
      "##验": 5098,
      "##连": 5099,
      "##开": 5100,
      "##球": 5101,
      "##快": 5102,
      "##旋": 5103,
      "##杰": 5104,
      "##流": 5105,
      "##雄": 5106,
      "##患": 5107,
      "##埃": 5108,
      "##滕": 5109,
      "##率": 5110,
      "##银": 5111,
      "##前": 5112,
      "##能": 5113,
      "##礼": 5114,
      "##四": 5115,
      "##德": 5116,
      "##氮": 5117,
      "##物": 5118,
      "##丛": 5119,
      "##季": 5120,
      "##天": 5121,
      "##矿": 5122,
      "##张": 5123,
      "##曦": 5124,
      "##反": 5125,
      "##沟": 5126,
      "##要": 5127,
      "##媛": 5128,
      "##帐": 5129,
      "##重": 5130,
      "##赫": 5131,
      "##南": 5132,
      "##昆": 5133,
      "##地": 5134,
      "##争": 5135,
      "##个": 5136,
      "##析": 5137,
      "##柱": 5138,
      "##辉": 5139,
      "##展": 5140,
      "##宣": 5141,
      "##凯": 5142,
      "##面": 5143,
      "##职": 5144,
      "##员": 5145,
      "##救": 5146,
      "##术": 5147,
      "##期": 5148,
      "##刊": 5149,
      "##普": 5150,
      "##秘": 5151,
      "##坦": 5152,
      "##沙": 5153,
      "##原": 5154,
      "##矩": 5155,
      "##哈": 5156,
      "##卜": 5157,
      "##资": 5158,
      "##庚": 5159,
      "##预": 5160,
      "##轩": 5161,
      "##速": 5162,
      "##巴": 5163,
      "##波": 5164,
      "##死": 5165,
      "##管": 5166,
      "##腾": 5167,
      "##双": 5168,
      "##成": 5169,
      "##乏": 5170,
      "##经": 5171,
      "##晕": 5172,
      "##伯": 5173,
      "##勒": 5174,
      "##济": 5175,
      "##日": 5176,
      "##报": 5177,
      "##年": 5178,
      "##俊": 5179,
      "##玩": 5180,
      "##缆": 5181,
      "##偏": 5182,
      "##育": 5183,
      "##厅": 5184,
      "##州": 5185,
      "##程": 5186,
      "##守": 5187,
      "##怀": 5188,
      "##单": 5189,
      "##行": 5190,
      "##点": 5191,
      "##乡": 5192,
      "##梅": 5193,
      "##接": 5194,
      "##阵": 5195,
      "##核": 5196,
      "##女": 5197,
      "##三": 5198,
      "##起": 5199,
      "##涌": 5200,
      "##坏": 5201,
      "##佑": 5202,
      "##善": 5203,
      "##洽": 5204,
      "##为": 5205,
      "##戴": 5206,
      "##届": 5207,
      "##佳": 5208,
      "##莫": 5209,
      "##忠": 5210,
      "##贴": 5211,
      "##孜": 5212,
      "##求": 5213,
      "##纪": 5214,
      "##证": 5215,
      "##罗": 5216,
      "##晨": 5217,
      "##羊": 5218,
      "##纲": 5219,
      "##春": 5220,
      "##丘": 5221,
      "##金": 5222,
      "##模": 5223,
      "##型": 5224,
      "##保": 5225,
      "##产": 5226,
      "##家": 5227,
      "##陪": 5228,
      "##洪": 5229,
      "##馨": 5230,
      "##壳": 5231,
      "##级": 5232,
      "##塞": 5233,
      "##风": 5234,
      "##县": 5235,
      "##孙": 5236,
      "##筏": 5237,
      "##玉": 5238,
      "##珠": 5239,
      "##群": 5240,
      "##上": 5241,
      "##坐": 5242,
      "##标": 5243,
      "##叶": 5244,
      "##班": 5245,
      "##负": 5246,
      "##防": 5247,
      "##血": 5248,
      "##必": 5249,
      "##弗": 5250,
      "##控": 5251,
      "##岁": 5252,
      "##潮": 5253,
      "##船": 5254,
      "##右": 5255,
      "##皙": 5256,
      "##者": 5257,
      "##站": 5258,
      "##空": 5259,
      "##眼": 5260,
      "##逐": 5261,
      "##膜": 5262,
      "##炎": 5263,
      "##魔": 5264,
      "##布": 5265,
      "##宁": 5266,
      "##致": 5267,
      "##泵": 5268,
      "##浦": 5269,
      "##车": 5270,
      "##草": 5271,
      "##兆": 5272,
      "##囊": 5273,
      "##团": 5274,
      "##积": 5275,
      "##门": 5276,
      "##衡": 5277,
      "##置": 5278,
      "##氧": 5279,
      "##武": 5280,
      "##龙": 5281,
      "##换": 5282,
      "##所": 5283,
      "##贵": 5284,
      "##是": 5285,
      "##河": 5286,
      "##属": 5287,
      "##篇": 5288,
      "##冬": 5289,
      "##氨": 5290,
      "##酸": 5291,
      "##跑": 5292,
      "##宜": 5293,
      "##翅": 5294,
      "##片": 5295,
      "##太": 5296,
      "##近": 5297,
      "##绿": 5298,
      "##裕": 5299,
      "##与": 5300,
      "##测": 5301,
      "##房": 5302,
      "##答": 5303,
      "##题": 5304,
      "##似": 5305,
      "##畅": 5306,
      "##令": 5307,
      "##存": 5308,
      "##价": 5309,
      "##察": 5310,
      "##局": 5311,
      "##勤": 5312,
      "##稳": 5313,
      "##软": 5314,
      "##星": 5315,
      "##霍": 5316,
      "##运": 5317,
      "##匝": 5318,
      "##仪": 5319,
      "##气": 5320,
      "##丹": 5321,
      "##辛": 5322,
      "##盒": 5323,
      "##入": 5324,
      "##类": 5325,
      "##许": 5326,
      "##界": 5327,
      "##观": 5328,
      "##势": 5329,
      "##百": 5330,
      "##穆": 5331,
      "##紧": 5332,
      "##环": 5333,
      "##低": 5334,
      "##晖": 5335,
      "##逻": 5336,
      "##辑": 5337,
      "##莉": 5338,
      "##锥": 5339,
      "##小": 5340,
      "##零": 5341,
      "##独": 5342,
      "##包": 5343,
      "##栏": 5344,
      "##合": 5345,
      "##众": 5346,
      "##减": 5347,
      "##少": 5348,
      "##萍": 5349,
      "##翠": 5350,
      "##壁": 5351,
      "##胜": 5352,
      "##枚": 5353,
      "##举": 5354,
      "##祖": 5355,
      "##下": 5356,
      "##杜": 5357,
      "##士": 5358,
      "##浩": 5359,
      "##翔": 5360,
      "##亮": 5361,
      "##秀": 5362,
      "##宾": 5363,
      "##序": 5364,
      "##仓": 5365,
      "##现": 5366,
      "##梳": 5367,
      "##耐": 5368,
      "##因": 5369,
      "##满": 5370,
      "##足": 5371,
      "##窄": 5372,
      "##朝": 5373,
      "##畴": 5374,
      "##毛": 5375,
      "##芬": 5376,
      "##爆": 5377,
      "##亨": 5378,
      "##信": 5379,
      "##拍": 5380,
      "##卖": 5381,
      "##律": 5382,
      "##阳": 5383,
      "##根": 5384,
      "##框": 5385,
      "##征": 5386,
      "##奈": 5387,
      "##佩": 5388,
      "##送": 5389,
      "##玛": 5390,
      "##火": 5391,
      "##力": 5392,
      "##形": 5393,
      "##象": 5394,
      "##限": 5395,
      "##宝": 5396,
      "##伙": 5397,
      "##赠": 5398,
      "##蛋": 5399,
      "##章": 5400,
      "##獗": 5401,
      "##扰": 5402,
      "##藤": 5403,
      "##野": 5404,
      "##境": 5405,
      "##慢": 5406,
      "##失": 5407,
      "##早": 5408,
      "##稻": 5409,
      "##净": 5410,
      "##而": 5411,
      "##显": 5412,
      "##冯": 5413,
      "##映": 5414,
      "##则": 5415,
      "##友": 5416,
      "##均": 5417,
      "##妮": 5418,
      "##涅": 5419,
      "##弦": 5420,
      "##谨": 5421,
      "##胶": 5422,
      "##曲": 5423,
      "##启": 5424,
      "##底": 5425,
      "##卫": 5426,
      "##福": 5427,
      "##键": 5428,
      "##且": 5429,
      "##未": 5430,
      "##谋": 5431,
      "##酷": 5432,
      "##立": 5433,
      "##峰": 5434,
      "##引": 5435,
      "##艳": 5436,
      "##胡": 5437,
      "##叫": 5438,
      "##幸": 5439,
      "##弓": 5440,
      "##阪": 5441,
      "##府": 5442,
      "##束": 5443,
      "##其": 5444,
      "##手": 5445,
      "##温": 5446,
      "##封": 5447,
      "##造": 5448,
      "##皮": 5449,
      "##厘": 5450,
      "##蛭": 5451,
      "##谓": 5452,
      "##盈": 5453,
      "##恒": 5454,
      "##浊": 5455,
      "##列": 5456,
      "##树": 5457,
      "##雨": 5458,
      "##声": 5459,
      "##官": 5460,
      "##判": 5461,
      "##磊": 5462,
      "##圈": 5463,
      "##申": 5464,
      "##疟": 5465,
      "##努": 5466,
      "##拟": 5467,
      "##焦": 5468,
      "##栋": 5469,
      "##望": 5470,
      "##主": 5471,
      "##杨": 5472,
      "##桑": 5473,
      "##酉": 5474,
      "##常": 5475,
      "##尾": 5476,
      "##座": 5477,
      "##跃": 5478,
      "##岭": 5479,
      "##司": 5480,
      "##影": 5481,
      "##苗": 5482,
      "##苏": 5483,
      "##别": 5484,
      "##有": 5485,
      "##财": 5486,
      "##乔": 5487,
      "##景": 5488,
      "##腺": 5489,
      "##癌": 5490,
      "##蛇": 5491,
      "##濑": 5492,
      "##进": 5493,
      "##栖": 5494,
      "##陈": 5495,
      "##据": 5496,
      "##终": 5497,
      "##琪": 5498,
      "##东": 5499,
      "##坤": 5500,
      "##情": 5501,
      "##况": 5502,
      "##全": 5503,
      "##病": 5504,
      "##毒": 5505,
      "##放": 5506,
      "##回": 5507,
      "##灯": 5508,
      "##隔": 5509,
      "##尽": 5510,
      "##艘": 5511,
      "##楚": 5512,
      "##万": 5513,
      "##乘": 5514,
      "##舍": 5515,
      "##支": 5516,
      "##汗": 5517,
      "##嫩": 5518,
      "##迹": 5519,
      "##费": 5520,
      "##都": 5521,
      "##泰": 5522,
      "##荣": 5523,
      "##音": 5524,
      "##掌": 5525,
      "##魏": 5526,
      "##腊": 5527,
      "##层": 5528,
      "##虫": 5529,
      "##郁": 5530,
      "##症": 5531,
      "##胞": 5532,
      "##岑": 5533,
      "##试": 5534,
      "##战": 5535,
      "##约": 5536,
      "##锦": 5537,
      "##缺": 5538,
      "##需": 5539,
      "##锁": 5540,
      "##叉": 5541,
      "##劳": 5542,
      "##义": 5543,
      "##脉": 5544,
      "##冠": 5545,
      "##荷": 5546,
      "##规": 5547,
      "##雾": 5548,
      "##涛": 5549,
      "##名": 5550,
      "##铸": 5551,
      "##爵": 5552,
      "##禽": 5553,
      "##莹": 5554,
      "##烈": 5555,
      "##抗": 5556,
      "##醇": 5557,
      "##西": 5558,
      "##先": 5559,
      "##实": 5560,
      "##余": 5561,
      "##假": 5562,
      "##导": 5563,
      "##最": 5564,
      "##斑": 5565,
      "##朵": 5566,
      "##挥": 5567,
      "##蒙": 5568,
      "##股": 5569,
      "##视": 5570,
      "##洗": 5571,
      "##晶": 5572,
      "##微": 5573,
      "##粒": 5574,
      "##雀": 5575,
      "##花": 5576,
      "##容": 5577,
      "##状": 5578,
      "##腔": 5579,
      "##崖": 5580,
      "##塔": 5581,
      "##昌": 5582,
      "##母": 5583,
      "##航": 5584,
      "##烯": 5585,
      "##酰": 5586,
      "##胺": 5587,
      "##御": 5588,
      "##料": 5589,
      "##装": 5590,
      "##秉": 5591,
      "##炮": 5592,
      "##勇": 5593,
      "##震": 5594,
      "##焕": 5595,
      "##医": 5596,
      "##吨": 5597,
      "##通": 5598,
      "##拜": 5599,
      "##刻": 5600,
      "##钟": 5601,
      "##碧": 5602,
      "##瑞": 5603,
      "##茂": 5604,
      "##归": 5605,
      "##骚": 5606,
      "##习": 5607,
      "##构": 5608,
      "##扭": 5609,
      "##兵": 5610,
      "##难": 5611,
      "##好": 5612,
      "##便": 5613,
      "##系": 5614,
      "##健": 5615,
      "##字": 5616,
      "##瑟": 5617,
      "##暇": 5618,
      "##孔": 5619,
      "##舒": 5620,
      "##迷": 5621,
      "##碍": 5622,
      "##帅": 5623,
      "##鹏": 5624,
      "##戈": 5625,
      "##弃": 5626,
      "##击": 5627,
      "##额": 5628,
      "##堂": 5629,
      "##发": 5630,
      "##署": 5631,
      "##老": 5632,
      "##秒": 5633,
      "##富": 5634,
      "##计": 5635,
      "##六": 5636,
      "##殿": 5637,
      "##臂": 5638,
      "##识": 5639,
      "##迫": 5640,
      "##绎": 5641,
      "##推": 5642,
      "##将": 5643,
      "##祝": 5644,
      "##沿": 5645,
      "##肌": 5646,
      "##倩": 5647,
      "##得": 5648,
      "##翁": 5649,
      "##感": 5650,
      "##兴": 5651,
      "##趣": 5652,
      "##帕": 5653,
      "##冷": 5654,
      "##准": 5655,
      "##派": 5656,
      "##险": 5657,
      "##针": 5658,
      "##翼": 5659,
      "##梁": 5660,
      "##蛛": 5661,
      "##藏": 5662,
      "##夹": 5663,
      "##琼": 5664,
      "##事": 5665,
      "##当": 5666,
      "##娟": 5667,
      "##琳": 5668,
      "##氟": 5669,
      "##浪": 5670,
      "##伪": 5671,
      "##肉": 5672,
      "##注": 5673,
      "##甘": 5674,
      "##范": 5675,
      "##除": 5676,
      "##知": 5677,
      "##觉": 5678,
      "##号": 5679,
      "##痛": 5680,
      "##彤": 5681,
      "##泉": 5682,
      "##童": 5683,
      "##券": 5684,
      "##赖": 5685,
      "##光": 5686,
      "##杆": 5687,
      "##专": 5688,
      "##功": 5689,
      "##代": 5690,
      "##候": 5691,
      "##蚕": 5692,
      "##卷": 5693,
      "##调": 5694,
      "##拿": 5695,
      "##扬": 5696,
      "##旺": 5697,
      "##辰": 5698,
      "##琶": 5699,
      "##洲": 5700,
      "##萌": 5701,
      "##夸": 5702,
      "##冲": 5703,
      "##月": 5704,
      "##井": 5705,
      "##轴": 5706,
      "##丝": 5707,
      "##载": 5708,
      "##网": 5709,
      "##蕾": 5710,
      "##珊": 5711,
      "##津": 5712,
      "##意": 5713,
      "##齐": 5714,
      "##培": 5715,
      "##口": 5716,
      "##函": 5717,
      "##错": 5718,
      "##缕": 5719,
      "##滥": 5720,
      "##跳": 5721,
      "##垫": 5722,
      "##哲": 5723,
      "##木": 5724,
      "##屋": 5725,
      "##钌": 5726,
      "##飞": 5727,
      "##鑫": 5728,
      "##槽": 5729,
      "##码": 5730,
      "##元": 5731,
      "##校": 5732,
      "##络": 5733,
      "##息": 5734,
      "##索": 5735,
      "##谤": 5736,
      "##药": 5737,
      "##脏": 5738,
      "##美": 5739,
      "##猛": 5740,
      "##棵": 5741,
      "##短": 5742,
      "##距": 5743,
      "##斗": 5744,
      "##身": 5745,
      "##粉": 5746,
      "##由": 5747,
      "##瓣": 5748,
      "##刷": 5749,
      "##灵": 5750,
      "##住": 5751,
      "##较": 5752,
      "##甸": 5753,
      "##瞬": 5754,
      "##海": 5755,
      "##弯": 5756,
      "##链": 5757,
      "##鲜": 5758,
      "##坛": 5759,
      "##于": 5760,
      "##帧": 5761,
      "##么": 5762,
      "##穹": 5763,
      "##耳": 5764,
      "##结": 5765,
      "##增": 5766,
      "##棒": 5767,
      "##旨": 5768,
      "##胀": 5769,
      "##疗": 5770,
      "##赛": 5771,
      "##王": 5772,
      "##脚": 5773,
      "##.": 5774,
      "##聪": 5775,
      "##喜": 5776,
      "##古": 5777,
      "##食": 5778,
      "##伴": 5779,
      "##没": 5780,
      "##催": 5781,
      "##酬": 5782,
      "##蝠": 5783,
      "##纹": 5784,
      "##库": 5785,
      "##棍": 5786,
      "##票": 5787,
      "##途": 5788,
      "##贤": 5789,
      "##治": 5790,
      "##该": 5791,
      "##搜": 5792,
      "##受": 5793,
      "##惰": 5794,
      "##抑": 5795,
      "##熔": 5796,
      "##挖": 5797,
      "##拓": 5798,
      "##霞": 5799,
      "##娇": 5800,
      "##雪": 5801,
      "##耀": 5802,
      "##织": 5803,
      "##卢": 5804,
      "##锡": 5805,
      "##楠": 5806,
      "##编": 5807,
      "##登": 5808,
      "##膦": 5809,
      "##休": 5810,
      "##扩": 5811,
      "##稍": 5812,
      "##淼": 5813,
      "##刚": 5814,
      "##之": 5815,
      "##易": 5816,
      "##腐": 5817,
      "##烂": 5818,
      "##硬": 5819,
      "##营": 5820,
      "##珏": 5821,
      "##北": 5822,
      "##尚": 5823,
      "##酵": 5824,
      "##茧": 5825,
      "##给": 5826,
      "##脸": 5827,
      "##籍": 5828,
      "##纸": 5829,
      "##响": 5830,
      "##撞": 5831,
      "##频": 5832,
      "##描": 5833,
      "##述": 5834,
      "##真": 5835,
      "##污": 5836,
      "##染": 5837,
      "##问": 5838,
      "##从": 5839,
      "##珑": 5840,
      "##词": 5841,
      "##媒": 5842,
      "##扎": 5843,
      "##簇": 5844,
      "##谦": 5845,
      "##服": 5846,
      "##湿": 5847,
      "##滞": 5848,
      "##汇": 5849,
      "##困": 5850,
      "##匹": 5851,
      "##配": 5852,
      "##五": 5853,
      "##务": 5854,
      "##顺": 5855,
      "##炬": 5856,
      "##肯": 5857,
      "##嫁": 5858,
      "##就": 5859,
      "##凡": 5860,
      "##凑": 5861,
      "##诉": 5862,
      "##纬": 5863,
      "##廷": 5864,
      "##适": 5865,
      "##室": 5866,
      "##犯": 5867,
      "##剂": 5868,
      "##宿": 5869,
      "##整": 5870,
      "##商": 5871,
      "##否": 5872,
      "##臣": 5873,
      "##豆": 5874,
      "##墙": 5875,
      "##挂": 5876,
      "##惫": 5877,
      "##阁": 5878,
      "##岛": 5879,
      "##炸": 5880,
      "##弼": 5881,
      "##陷": 5882,
      "##败": 5883,
      "##剧": 5884,
      "##绝": 5885,
      "##暗": 5886,
      "##箱": 5887,
      "##餐": 5888,
      "##馆": 5889,
      "##骨": 5890,
      "##牌": 5891,
      "##谷": 5892,
      "##夏": 5893,
      "##诸": 5894,
      "##们": 5895,
      "##祥": 5896,
      "##妄": 5897,
      "##坚": 5898,
      "##唱": 5899,
      "##腿": 5900,
      "##罩": 5901,
      "##宓": 5902,
      "##欠": 5903,
      "##涵": 5904,
      "##做": 5905,
      "##转": 5906,
      "##莓": 5907,
      "##碳": 5908,
      "##厚": 5909,
      "##旬": 5910,
      "##统": 5911,
      "##池": 5912,
      "##翰": 5913,
      "##锋": 5914,
      "##各": 5915,
      "##瓷": 5916,
      "##艺": 5917,
      "##舟": 5918,
      "##忆": 5919,
      "##更": 5920,
      "##店": 5921,
      "##氰": 5922,
      "##收": 5923,
      "##港": 5924,
      "##茶": 5925,
      "##卧": 5926,
      "##韩": 5927,
      "##排": 5928,
      "##唑": 5929,
      "##鸽": 5930,
      "##勃": 5931,
      "##告": 5932,
      "##湾": 5933,
      "##去": 5934,
      "##备": 5935,
      "##融": 5936,
      "##疑": 5937,
      "##滑": 5938,
      "##豪": 5939,
      "##嘴": 5940,
      "##硼": 5941,
      "##账": 5942,
      "##客": 5943,
      "##板": 5944,
      "##峙": 5945,
      "##熵": 5946,
      "##-": 5947,
      "##断": 5948,
      "##洋": 5949,
      "##白": 5950,
      "##警": 5951,
      "##夕": 5952,
      "##吹": 5953,
      "##艾": 5954,
      "##尊": 5955,
      "##洁": 5956,
      "##际": 5957,
      "##轨": 5958,
      "##汉": 5959,
      "##清": 5960,
      "##页": 5961,
      "##薄": 5962,
      "##旻": 5963,
      "##屈": 5964,
      "##钥": 5965,
      "##此": 5966,
      "##筒": 5967,
      "##节": 5968,
      "##课": 5969,
      "##席": 5970,
      "##尘": 5971,
      "##髓": 5972,
      "##户": 5973,
      "##硕": 5974,
      "##李": 5975,
      "##政": 5976,
      "##货": 5977,
      "##江": 5978,
      "##烧": 5979,
      "##扇": 5980,
      "##茴": 5981,
      "##香": 5982,
      "##联": 5983,
      "##佛": 5984,
      "##菌": 5985,
      "##避": 5986,
      "##认": 5987,
      "##纤": 5988,
      "##彩": 5989,
      "##捷": 5990,
      "##勋": 5991,
      "##契": 5992,
      "##杂": 5993,
      "##潭": 5994,
      "##嵘": 5995,
      "##侧": 5996,
      "##绕": 5997,
      "##鹅": 5998,
      "##绒": 5999,
      "##继": 6000,
      "##苦": 6001,
      "##丰": 6002,
      "##圭": 6003,
      "##芽": 6004,
      "##稿": 6005,
      "##输": 6006,
      "##具": 6007,
      "##种": 6008,
      "##鸟": 6009,
      "##农": 6010,
      "##烁": 6011,
      "##隐": 6012,
      "##贡": 6013,
      "##献": 6014,
      "##素": 6015,
      "##淑": 6016,
      "##坡": 6017,
      "##嗣": 6018,
      "##巢": 6019,
      "##跷": 6020,
      "##十": 6021,
      "##液": 6022,
      "##迈": 6023,
      "##惠": 6024,
      "##杉": 6025,
      "##矶": 6026,
      "##随": 6027,
      "##涝": 6028,
      "##鞍": 6029,
      "##村": 6030,
      "##昂": 6031,
      "##打": 6032,
      "##毅": 6033,
      "##厄": 6034,
      "##衣": 6035,
      "##晚": 6036,
      "##隆": 6037,
      "##酶": 6038,
      "##焰": 6039,
      "##慎": 6040,
      "##退": 6041,
      "##蚓": 6042,
      "##哥": 6043,
      "##缩": 6044,
      "##卓": 6045,
      "##祷": 6046,
      "##泊": 6047,
      "##闲": 6048,
      "##屏": 6049,
      "##几": 6050,
      "##址": 6051,
      "##果": 6052,
      "##携": 6053,
      "##寅": 6054,
      "##械": 6055,
      "##密": 6056,
      "##颗": 6057,
      "##壮": 6058,
      "##斜": 6059,
      "##垣": 6060,
      "##轮": 6061,
      "##稠": 6062,
      "##历": 6063,
      "##桂": 6064,
      "##径": 6065,
      "##滚": 6066,
      "##阀": 6067,
      "##油": 6068,
      "##午": 6069,
      "##哮": 6070,
      "##莲": 6071,
      "##裙": 6072,
      "##亥": 6073,
      "##考": 6074,
      "##细": 6075,
      "##娅": 6076,
      "##琴": 6077,
      "##灿": 6078,
      "##绘": 6079,
      "##暴": 6080,
      "##猪": 6081,
      "##梯": 6082,
      "##笔": 6083,
      "##摆": 6084,
      "##庄": 6085,
      "##顶": 6086,
      "##慕": 6087,
      "##渠": 6088,
      "##停": 6089,
      "##脂": 6090,
      "##扼": 6091,
      "##蓝": 6092,
      "##铎": 6093,
      "##玲": 6094,
      "##迟": 6095,
      "##始": 6096,
      "##看": 6097,
      "##敬": 6098,
      "##篮": 6099,
      "##轭": 6100,
      "##钙": 6101,
      "##儒": 6102,
      "##筑": 6103,
      "##见": 6104,
      "##使": 6105,
      "##胎": 6106,
      "##徐": 6107,
      "##渊": 6108,
      "##炫": 6109,
      "##审": 6110,
      "##鼠": 6111,
      "##执": 6112,
      "##硫": 6113,
      "##膝": 6114,
      "##瘤": 6115,
      "##镜": 6116,
      "##茅": 6117,
      "##听": 6118,
      "##委": 6119,
      "##仑": 6120,
      "##互": 6121,
      "##雅": 6122,
      "##榈": 6123,
      "##忽": 6124,
      "##须": 6125,
      "##凝": 6126,
      "##腓": 6127,
      "##蛾": 6128,
      "##腱": 6129,
      "##倍": 6130,
      "##画": 6131,
      "##碰": 6132,
      "##活": 6133,
      "##攻": 6134,
      "##批": 6135,
      "##舰": 6136,
      "##投": 6137,
      "##铝": 6138,
      "##锤": 6139,
      "##悯": 6140,
      "##亦": 6141,
      "##哉": 6142,
      "##瘦": 6143,
      "##柴": 6144,
      "##尖": 6145,
      "##疚": 6146,
      "##喊": 6147,
      "##撒": 6148,
      "##吾": 6149,
      "##炭": 6150,
      "##廉": 6151,
      "##钇": 6152,
      "##谅": 6153,
      "##障": 6154,
      "##诊": 6155,
      "##示": 6156,
      "##泳": 6157,
      "##敢": 6158,
      "##智": 6159,
      "##崎": 6160,
      "##饭": 6161,
      "##纽": 6162,
      "##只": 6163,
      "##乙": 6164,
      "##绩": 6165,
      "##湖": 6166,
      "##弧": 6167,
      "##碎": 6168,
      "##锂": 6169,
      "##龄": 6170,
      "##岩": 6171,
      "##七": 6172,
      "##裂": 6173,
      "##何": 6174,
      "##硅": 6175,
      "##氖": 6176,
      "##川": 6177,
      "##钼": 6178,
      "##研": 6179,
      "##铜": 6180,
      "##游": 6181,
      "##访": 6182,
      "##戏": 6183,
      "##虑": 6184,
      "##舜": 6185,
      "##岳": 6186,
      "##琬": 6187,
      "##沫": 6188,
      "##侣": 6189,
      "##睹": 6190,
      "##泪": 6191,
      "##锐": 6192,
      "##扁": 6193,
      "##疫": 6194,
      "##或": 6195,
      "##爱": 6196,
      "##了": 6197,
      "##八": 6198,
      "##晰": 6199,
      "##照": 6200,
      "##诫": 6201,
      "##穿": 6202,
      "##酯": 6203,
      "##孟": 6204,
      "##策": 6205,
      "##赏": 6206,
      "##驰": 6207,
      "##倦": 6208,
      "##撕": 6209,
      "##检": 6210,
      "##渐": 6211,
      "##靖": 6212,
      "##咽": 6213,
      "##捩": 6214,
      "##锚": 6215,
      "##着": 6216,
      "##帘": 6217,
      "##颖": 6218,
      "##称": 6219,
      "##句": 6220,
      "##床": 6221,
      "##埋": 6222,
      "##乱": 6223,
      "##辱": 6224,
      "##延": 6225,
      "##盖": 6226,
      "##师": 6227,
      "##择": 6228,
      "##掺": 6229,
      "##吸": 6230,
      "##砜": 6231,
      "##逃": 6232,
      "##弹": 6233,
      "##桌": 6234,
      "##氢": 6235,
      "##味": 6236,
      "##辖": 6237,
      "##夜": 6238,
      "##篾": 6239,
      "##沉": 6240,
      "##偶": 6241,
      "##徽": 6242,
      "##肿": 6243,
      "##渗": 6244,
      "##盐": 6245,
      "##穗": 6246,
      "##异": 6247,
      "##袋": 6248,
      "##芯": 6249,
      "##鸣": 6250,
      "##摘": 6251,
      "##刺": 6252,
      "##即": 6253,
      "##酚": 6254,
      "##圾": 6255,
      "##款": 6256,
      "##税": 6257,
      "##饰": 6258,
      "##苷": 6259,
      "##柜": 6260,
      "##唐": 6261,
      "##伽": 6262,
      "##简": 6263,
      "##励": 6264,
      "##误": 6265,
      "##宫": 6266,
      "##饿": 6267,
      "##冻": 6268,
      "##叮": 6269,
      "##亿": 6270,
      "##想": 6271,
      "##盆": 6272,
      "##跨": 6273,
      "##敖": 6274,
      "##筱": 6275,
      "##炔": 6276,
      "##竹": 6277,
      "##窗": 6278,
      "##钉": 6279,
      "##串": 6280,
      "##目": 6281,
      "##供": 6282,
      "##锵": 6283,
      "##呈": 6284,
      "##递": 6285,
      "##灭": 6286,
      "##磅": 6287,
      "##礴": 6288,
      "##奏": 6289,
      "##辆": 6290,
      "##滴": 6291,
      "##衰": 6292,
      "##也": 6293,
      "##周": 6294,
      "##熟": 6295,
      "##靼": 6296,
      "##欢": 6297,
      "##醚": 6298,
      "##菜": 6299,
      "##关": 6300,
      "##撤": 6301,
      "##透": 6302,
      "##绰": 6303,
      "##踝": 6304,
      "##彪": 6305,
      "##傍": 6306,
      "##幅": 6307,
      "##邱": 6308,
      "##遍": 6309,
      "##醌": 6310,
      "##蛙": 6311,
      "##幂": 6312,
      "##伤": 6313,
      "##塑": 6314,
      "##猫": 6315,
      "##堡": 6316,
      "##岸": 6317,
      "##钹": 6318,
      "##史": 6319,
      "##悠": 6320,
      "##氯": 6321,
      "##书": 6322,
      "##升": 6323,
      "##够": 6324,
      "##钦": 6325,
      "##秋": 6326,
      "##谭": 6327,
      "##续": 6328,
      "##念": 6329,
      "##陶": 6330,
      "##肽": 6331,
      "##刀": 6332,
      "##害": 6333,
      "##紫": 6334,
      "##勉": 6335,
      "##毕": 6336,
      "##潼": 6337,
      "##些": 6338,
      "##凹": 6339,
      "##土": 6340,
      "##馈": 6341,
      "##灶": 6342,
      "##涂": 6343,
      "##档": 6344,
      "##巧": 6345,
      "##露": 6346,
      "##趟": 6347,
      "##首": 6348,
      "##印": 6349,
      "##毁": 6350,
      "##禄": 6351,
      "##助": 6352,
      "##炉": 6353,
      "##袖": 6354,
      "##磷": 6355,
      "##操": 6356,
      "##仗": 6357,
      "##横": 6358,
      "##牛": 6359,
      "##婵": 6360,
      "##蛮": 6361,
      "##孕": 6362,
      "##省": 6363,
      "##楼": 6364,
      "##亡": 6365,
      "##棠": 6366,
      "##锰": 6367,
      "##罐": 6368,
      "##瞻": 6369,
      "##读": 6370,
      "##瑙": 6371,
      "##罪": 6372,
      "##殖": 6373,
      "##宛": 6374,
      "##钢": 6375,
      "##奎": 6376,
      "##符": 6377,
      "##菱": 6378,
      "##冕": 6379,
      "##言": 6380,
      "##敦": 6381,
      "##往": 6382,
      "##册": 6383,
      "##鞘": 6384,
      "##栅": 6385,
      "##蟀": 6386,
      "##珍": 6387,
      "##丫": 6388,
      "##薪": 6389,
      "##究": 6390,
      "##闻": 6391,
      "##蚀": 6392,
      "##芳": 6393,
      "##奔": 6394,
      "##爽": 6395,
      "##贾": 6396,
      "##材": 6397,
      "##黄": 6398,
      "##散": 6399,
      "##灰": 6400,
      "##循": 6401,
      "##完": 6402,
      "##彻": 6403,
      "##缝": 6404,
      "##荡": 6405,
      "##剖": 6406,
      "##广": 6407,
      "##诵": 6408,
      "##督": 6409,
      "##銮": 6410,
      "##总": 6411,
      "##神": 6412,
      "##扣": 6413,
      "##帽": 6414,
      "##挠": 6415,
      "##销": 6416,
      "##汽": 6417,
      "##鸡": 6418,
      "##改": 6419,
      "##确": 6420,
      "##庙": 6421,
      "##买": 6422,
      "##鸦": 6423,
      "##瀚": 6424,
      "##燥": 6425,
      "##今": 6426,
      "##废": 6427,
      "##浮": 6428,
      "##旗": 6429,
      "##截": 6430,
      "##累": 6431,
      "##襞": 6432,
      "##消": 6433,
      "##伐": 6434,
      "##溯": 6435,
      "##铭": 6436,
      "##尤": 6437,
      "##拱": 6438,
      "##含": 6439,
      "##淋": 6440,
      "##鹤": 6441,
      "##社": 6442,
      "##攀": 6443,
      "##罚": 6444,
      "##青": 6445,
      "##&": 6446,
      "##+": 6447,
      "##副": 6448,
      "##扑": 6449,
      "##焊": 6450,
      "##痫": 6451,
      "##刘": 6452,
      "##俩": 6453,
      "##监": 6454,
      "##碗": 6455,
      "##郑": 6456,
      "##渡": 6457,
      "##闯": 6458,
      "##锭": 6459,
      "##甲": 6460,
      "##授": 6461,
      "##衫": 6462,
      "##黎": 6463,
      "##齿": 6464,
      "##蕊": 6465,
      "##故": 6466,
      "##谣": 6467,
      "##牙": 6468,
      "##饼": 6469,
      "##苯": 6470,
      "##怖": 6471,
      "##斐": 6472,
      "##晃": 6473,
      "##黑": 6474,
      "##触": 6475,
      "##粗": 6476,
      "##划": 6477,
      "##笼": 6478,
      "##姝": 6479,
      "##睡": 6480,
      "##疤": 6481,
      "##泌": 6482,
      "##诈": 6483,
      "##摩": 6484,
      "##走": 6485,
      "##弘": 6486,
      "##耿": 6487,
      "##选": 6488,
      "##杀": 6489,
      "##晒": 6490,
      "##尺": 6491,
      "##临": 6492,
      "##呐": 6493,
      "##估": 6494,
      "##台": 6495,
      "##殊": 6496,
      "##儿": 6497,
      "##悦": 6498,
      "##初": 6499,
      "##阴": 6500,
      "##虹": 6501,
      "##耍": 6502,
      "##麦": 6503,
      "##薇": 6504,
      "##辙": 6505,
      "##严": 6506,
      "##钱": 6507,
      "##演": 6508,
      "##挑": 6509,
      "##剔": 6510,
      "##获": 6511,
      "##依": 6512,
      "##恋": 6513,
      "##镑": 6514,
      "##鞅": 6515,
      "##擦": 6516,
      "##辅": 6517,
      "##幻": 6518,
      "##阱": 6519,
      "##贺": 6520,
      "##承": 6521,
      "##炽": 6522,
      "##贞": 6523,
      "##酒": 6524,
      "##吊": 6525,
      "##却": 6526,
      "##祯": 6527,
      "##楔": 6528,
      "##残": 6529,
      "##拔": 6530,
      "##浆": 6531,
      "##畏": 6532,
      "##茄": 6533,
      "##奉": 6534,
      "##急": 6535,
      "##馏": 6536,
      "##昭": 6537,
      "##陀": 6538,
      "##藻": 6539,
      "##稀": 6540,
      "##他": 6541,
      "##枢": 6542,
      "##耕": 6543,
      "##簧": 6544,
      "##枣": 6545,
      "##俱": 6546,
      "##疲": 6547,
      "##慑": 6548,
      "##堤": 6549,
      "##玄": 6550,
      "##燃": 6551,
      "##疆": 6552,
      "##巾": 6553,
      "##饱": 6554,
      "##雳": 6555,
      "##舞": 6556,
      "##旧": 6557,
      "##烟": 6558,
      "##袭": 6559,
      "##芒": 6560,
      "##坎": 6561,
      "##乌": 6562,
      "##遣": 6563,
      "##荼": 6564,
      "##缘": 6565,
      "##柏": 6566,
      "##_": 6567,
      "##亭": 6568,
      "##肖": 6569,
      "##渴": 6570,
      "##筹": 6571,
      "##矛": 6572,
      "##盾": 6573,
      "##辐": 6574,
      "##溃": 6575,
      "##彭": 6576,
      "##桶": 6577,
      "##霖": 6578,
      "##免": 6579,
      "##逸": 6580,
      "##尉": 6581,
      "##乎": 6582,
      "##遇": 6583,
      "##谬": 6584,
      "##悬": 6585,
      "##若": 6586,
      "##庭": 6587,
      "##歧": 6588,
      "##飒": 6589,
      "##肩": 6590,
      "##辩": 6591,
      "##肥": 6592,
      "##笃": 6593,
      "##榄": 6594,
      "##糊": 6595,
      "##末": 6596,
      "##噬": 6597,
      "##父": 6598,
      "##绑": 6599,
      "##邮": 6600,
      "##填": 6601,
      "##妨": 6602,
      "##润": 6603,
      "##潜": 6604,
      "##枕": 6605,
      "##并": 6606,
      "##瘾": 6607,
      "##尧": 6608,
      "##缸": 6609,
      "##锅": 6610,
      "##背": 6611,
      "##酪": 6612,
      "##渣": 6613,
      "##姿": 6614,
      "##宙": 6615,
      "##菊": 6616,
      "##遥": 6617,
      "##扮": 6618,
      "##评": 6619,
      "##命": 6620,
      "##付": 6621,
      "##汞": 6622,
      "##占": 6623,
      "##闹": 6624,
      "##钠": 6625,
      "##牧": 6626,
      "##珀": 6627,
      "##幔": 6628,
      "##葵": 6629,
      "##噪": 6630,
      "##优": 6631,
      "##枝": 6632,
      "##爸": 6633,
      "##骰": 6634,
      "##墟": 6635,
      "##蚁": 6636,
      "##蓬": 6637,
      "##窝": 6638,
      "##廓": 6639,
      "##迅": 6640,
      "##旱": 6641,
      "##谎": 6642,
      "##稽": 6643,
      "##谈": 6644,
      "##迭": 6645,
      "##枪": 6646,
      "##蝓": 6647,
      "##卦": 6648,
      "##艇": 6649,
      "##嘧": 6650,
      "##啶": 6651,
      "##锌": 6652,
      "##媚": 6653,
      "##旁": 6654,
      "##租": 6655,
      "##币": 6656,
      "##盟": 6657,
      "##粮": 6658,
      "##我": 6659,
      "##牺": 6660,
      "##牲": 6661,
      "##歇": 6662,
      "##腰": 6663,
      "##缓": 6664,
      "##缪": 6665,
      "##革": 6666,
      "##皂": 6667,
      "##甙": 6668,
      "##肢": 6669,
      "##圃": 6670,
      "##刑": 6671,
      "##虏": 6672,
      "##槟": 6673,
      "###": 6674,
      "##讳": 6675,
      "##溶": 6676,
      "##固": 6677,
      "##降": 6678,
      "##庸": 6679,
      "##样": 6680,
      "##纱": 6681,
      "##耗": 6682,
      "##垢": 6683,
      "##邓": 6684,
      "##巨": 6685,
      "##酌": 6686,
      "##捉": 6687,
      "##恰": 6688,
      "##己": 6689,
      "##腹": 6690,
      "##夺": 6691,
      "##闵": 6692,
      "##簿": 6693,
      "##灾": 6694,
      "##醋": 6695,
      "##彬": 6696,
      "##囚": 6697,
      "##忒": 6698,
      "##弥": 6699,
      "##仕": 6700,
      "##壶": 6701,
      "##悔": 6702,
      "##愚": 6703,
      "##涨": 6704,
      "##盲": 6705,
      "##秩": 6706,
      "##爪": 6707,
      "##按": 6708,
      "##弈": 6709,
      "##瓜": 6710,
      "##虾": 6711,
      "##碱": 6712,
      "##烷": 6713,
      "##肤": 6714,
      "##榭": 6715,
      "##悚": 6716,
      "##宋": 6717,
      "##皇": 6718,
      "##仙": 6719,
      "##膏": 6720,
      "##箍": 6721,
      "##妈": 6722,
      "##街": 6723,
      "##壤": 6724,
      "##再": 6725,
      "##彼": 6726,
      "##呆": 6727,
      "##婚": 6728,
      "##曾": 6729,
      "##译": 6730,
      "##寸": 6731,
      "##促": 6732,
      "##罕": 6733,
      "##蛟": 6734,
      "##喹": 6735,
      "##坑": 6736,
      "##羧": 6737,
      "##让": 6738,
      "##窥": 6739,
      "##趋": 6740,
      "##狂": 6741,
      "##抚": 6742,
      "##腭": 6743,
      "##瑶": 6744,
      "##钩": 6745,
      "##酱": 6746,
      "##两": 6747,
      "##怕": 6748,
      "##眉": 6749,
      "##睫": 6750,
      "##厂": 6751,
      "##颇": 6752,
      "##附": 6753,
      "##坂": 6754,
      "##览": 6755,
      "##滨": 6756,
      "##鸿": 6757,
      "##愿": 6758,
      "##贷": 6759,
      "##骼": 6760,
      "##郎": 6761,
      "##歌": 6762,
      "##衷": 6763,
      "##诚": 6764,
      "##兄": 6765,
      "##弟": 6766,
      "##储": 6767,
      "##胁": 6768,
      "##阑": 6769,
      "##篷": 6770,
      "##踵": 6771,
      "##摊": 6772,
      "##邻": 6773,
      "##桨": 6774,
      "##贯": 6775,
      "##叠": 6776,
      "##捞": 6777,
      "##葱": 6778,
      "##第": 6779,
      "##蓉": 6780,
      "##漠": 6781,
      "##烛": 6782,
      "##竭": 6783,
      "##黛": 6784,
      "##危": 6785,
      "##役": 6786,
      "##晔": 6787,
      "##碑": 6788,
      "##椅": 6789,
      "##韧": 6790,
      "##酮": 6791,
      "##脲": 6792,
      "##莎": 6793,
      "##沛": 6794,
      "##猴": 6795,
      "##蜥": 6796,
      "##芝": 6797,
      "##钞": 6798,
      "##盛": 6799,
      "##璞": 6800,
      "##恐": 6801,
      "##蜂": 6802,
      "##懂": 6803,
      "##蝶": 6804,
      "##呤": 6805,
      "##唯": 6806,
      "##恶": 6807,
      "##荒": 6808,
      "##璃": 6809,
      "##丙": 6810,
      "##练": 6811,
      "##裔": 6812,
      "##诗": 6813,
      "##柔": 6814,
      "##仿": 6815,
      "##售": 6816,
      "##缀": 6817,
      "##还": 6818,
      "##抹": 6819,
      "##浓": 6820,
      "##宰": 6821,
      "##裁": 6822,
      "##壕": 6823,
      "##梗": 6824,
      "##践": 6825,
      "##饮": 6826,
      "##汤": 6827,
      "##措": 6828,
      "##棱": 6829,
      "##喆": 6830,
      "##僚": 6831,
      "##懈": 6832,
      "##慈": 6833,
      "##踪": 6834,
      "##释": 6835,
      "##铃": 6836,
      "##惩": 6837,
      "##寻": 6838,
      "##痕": 6839,
      "##亲": 6840,
      "##毯": 6841,
      "##讼": 6842,
      "##骗": 6843,
      "##株": 6844,
      "##茹": 6845,
      "##购": 6846,
      "##笑": 6847,
      "##丸": 6848,
      "##把": 6849,
      "##柯": 6850,
      "##唇": 6851,
      "##冉": 6852,
      "##乳": 6853,
      "##葛": 6854,
      "##鲍": 6855,
      "##桃": 6856,
      "##裸": 6857,
      "##怪": 6858,
      "##奋": 6859,
      "##采": 6860,
      "##替": 6861,
      "##呼": 6862,
      "##嘎": 6863,
      "##糙": 6864,
      "##敛": 6865,
      "##私": 6866,
      "##党": 6867,
      "##糕": 6868,
      "##覆": 6869,
      "##蒜": 6870,
      "##碛": 6871,
      "##寒": 6872,
      "##被": 6873,
      "##训": 6874,
      "##铮": 6875,
      "##勿": 6876,
      "##纶": 6877,
      "##企": 6878,
      "##括": 6879,
      "##淳": 6880,
      "##溪": 6881,
      "##抽": 6882,
      "##怒": 6883,
      "##璐": 6884,
      "##凌": 6885,
      "##琐": 6886,
      "##肃": 6887,
      "##埔": 6888,
      "##蓄": 6889,
      "##貌": 6890,
      "##钝": 6891,
      "##驾": 6892,
      "##担": 6893,
      "##霄": 6894,
      "##寂": 6895,
      "##止": 6896,
      "##衍": 6897,
      "##宪": 6898,
      "##茸": 6899,
      "##桐": 6900,
      "##剑": 6901,
      "##迎": 6902,
      "##靠": 6903,
      "##煤": 6904,
      "##潘": 6905,
      "##僻": 6906,
      "##牵": 6907,
      "##偿": 6908,
      "##艮": 6909,
      "##氛": 6910,
      "##混": 6911,
      "##烃": 6912,
      "##峡": 6913,
      "##绍": 6914,
      "##鼎": 6915,
      "##惊": 6916,
      "##徒": 6917,
      "##卵": 6918,
      "##鹚": 6919,
      "##颈": 6920,
      "##喷": 6921,
      "##吐": 6922,
      "##赢": 6923,
      "##嗝": 6924,
      "##鞭": 6925,
      "##拘": 6926,
      "##缔": 6927,
      "##鼻": 6928,
      "##鹰": 6929,
      "##签": 6930,
      "##竺": 6931,
      "##洞": 6932,
      "##轰": 6933,
      "##咚": 6934,
      "##您": 6935,
      "##疽": 6936,
      "##窃": 6937,
      "##碟": 6938,
      "##瓶": 6939,
      "##讯": 6940,
      "##曜": 6941,
      "##漫": 6942,
      "##颤": 6943,
      "##麻": 6944,
      "##镁": 6945,
      "##窍": 6946,
      "##陆": 6947,
      "##媲": 6948,
      "##吃": 6949,
      "##妙": 6950,
      "##蹄": 6951,
      "##尹": 6952,
      "##觑": 6953,
      "##砖": 6954,
      "##弊": 6955,
      "##竿": 6956,
      "##慌": 6957,
      "##矢": 6958,
      "##岔": 6959,
      "##醒": 6960,
      "##晤": 6961,
      "##鹿": 6962,
      "##琨": 6963,
      "##谐": 6964,
      "##蛎": 6965,
      "##惯": 6966,
      "##噻": 6967,
      "##予": 6968,
      "##幺": 6969,
      "##郡": 6970,
      "##檐": 6971,
      "##吻": 6972,
      "##脱": 6973,
      "##茵": 6974,
      "##聊": 6975,
      "##充": 6976,
      "##尿": 6977,
      "##阡": 6978,
      "##缠": 6979,
      "##诱": 6980,
      "##享": 6981,
      "##泥": 6982,
      "##宠": 6983,
      "##绳": 6984,
      "##疏": 6985,
      "##肋": 6986,
      "##匣": 6987,
      "##棕": 6988,
      "##瑰": 6989,
      "##伏": 6990,
      "##姚": 6991,
      "##幕": 6992,
      "##懒": 6993,
      "##孢": 6994,
      "##醛": 6995,
      "##吠": 6996,
      "##炯": 6997,
      "##借": 6998,
      "##锯": 6999,
      "##峨": 7000,
      "##赔": 7001,
      "##冀": 7002,
      "##驶": 7003,
      "##顽": 7004,
      "##桩": 7005,
      "##崇": 7006,
      "##喀": 7007,
      "##汐": 7008,
      "##召": 7009,
      "##挛": 7010,
      "##灼": 7011,
      "##探": 7012,
      "##粹": 7013,
      "##雁": 7014,
      "##抖": 7015,
      "##轲": 7016,
      "##欧": 7017,
      "##鬼": 7018,
      "##狗": 7019,
      "##穷": 7020,
      "##番": 7021,
      "##喇": 7022,
      "##叭": 7023,
      "##垂": 7024,
      "##俣": 7025,
      "##惑": 7026,
      "##寺": 7027,
      "##垒": 7028,
      "##腻": 7029,
      "##汰": 7030,
      "##倾": 7031,
      "##握": 7032,
      "##阔": 7033,
      "##枯": 7034,
      "##吗": 7035,
      "##梭": 7036,
      "##鼓": 7037,
      "##绵": 7038,
      "##镍": 7039,
      "##眶": 7040,
      "##赶": 7041,
      "##掠": 7042,
      "##慨": 7043,
      "##讲": 7044,
      "##隘": 7045,
      "##冢": 7046,
      "##盗": 7047,
      "##胚": 7048,
      "##棉": 7049,
      "##援": 7050,
      "##粘": 7051,
      "##眠": 7052,
      "##秃": 7053,
      "##娥": 7054,
      "##脊": 7055,
      "##棘": 7056,
      "##蒸": 7057,
      "##铣": 7058,
      "##兽": 7059,
      "##叹": 7060,
      "##吧": 7061,
      "##溅": 7062,
      "##乓": 7063,
      "##耻": 7064,
      "##玻": 7065,
      "##睛": 7066,
      "##猝": 7067,
      "##芘": 7068,
      "##徊": 7069,
      "##肺": 7070,
      "##塌": 7071,
      "##浸": 7072,
      "##栗": 7073,
      "##喉": 7074,
      "##葬": 7075,
      "##顾": 7076,
      "##铛": 7077,
      "##凉": 7078,
      "##乃": 7079,
      "##剩": 7080,
      "##左": 7081,
      "##戎": 7082,
      "##债": 7083,
      "##堵": 7084,
      "##淬": 7085,
      "##颠": 7086,
      "##赋": 7087,
      "##敌": 7088,
      "##涉": 7089,
      "##剪": 7090,
      "##雇": 7091,
      "##蔽": 7092,
      "##哨": 7093,
      "##羡": 7094,
      "##剌": 7095,
      "##疹": 7096,
      "##咖": 7097,
      "##啡": 7098,
      "##猿": 7099,
      "##慰": 7100,
      "##亩": 7101,
      "##鳕": 7102,
      "##喻": 7103,
      "##拳": 7104,
      "##妆": 7105,
      "##暖": 7106,
      "##贫": 7107,
      "##繁": 7108,
      "##焓": 7109,
      "##骸": 7110,
      "##魅": 7111,
      "##渔": 7112,
      "##缚": 7113,
      "##皿": 7114,
      "##杠": 7115,
      "##獭": 7116,
      "##逝": 7117,
      "##苔": 7118,
      "##廖": 7119,
      "##堪": 7120,
      "##箔": 7121,
      "##滩": 7122,
      "##箭": 7123,
      "##础": 7124,
      "##闸": 7125,
      "##妻": 7126,
      "##妥": 7127,
      "##寿": 7128,
      "##募": 7129,
      "##闪": 7130,
      "##暂": 7131,
      "##狱": 7132,
      "##镇": 7133,
      "##俘": 7134,
      "##咄": 7135,
      "##逼": 7136,
      "##脆": 7137,
      "##戳": 7138,
      "##檬": 7139,
      "##翻": 7140,
      "##拥": 7141,
      "##骑": 7142,
      "##亏": 7143,
      "##拨": 7144,
      "##嗡": 7145,
      "##寓": 7146,
      "##汁": 7147,
      "##俗": 7148,
      "##氦": 7149,
      "##愈": 7150,
      "##桢": 7151,
      "##瘫": 7152,
      "##砾": 7153,
      "##渝": 7154,
      "##怡": 7155,
      "##纫": 7156,
      "##顷": 7157,
      "##押": 7158,
      "##鞋": 7159,
      "##浅": 7160,
      "##狒": 7161,
      "##帆": 7162,
      "##疡": 7163,
      "##挝": 7164,
      "##肴": 7165,
      "##栈": 7166,
      "##疮": 7167,
      "##榴": 7168,
      "##纵": 7169,
      "##孝": 7170,
      "##垮": 7171,
      "##禧": 7172,
      "##硝": 7173,
      "##橡": 7174,
      "##返": 7175,
      "##炼": 7176,
      "##钾": 7177,
      "##汀": 7178,
      "##驳": 7179,
      "##歉": 7180,
      "##梨": 7181,
      "##旅": 7182,
      "##劫": 7183,
      "##秤": 7184,
      "##洼": 7185,
      "##搏": 7186,
      "##叻": 7187,
      "##矮": 7188,
      "##凳": 7189,
      "##鹂": 7190,
      "##惨": 7191,
      "##弄": 7192,
      "##找": 7193,
      "##撇": 7194,
      "##纺": 7195,
      "##蚊": 7196,
      "##婉": 7197,
      "##忧": 7198,
      "##宅": 7199,
      "##侃": 7200,
      "##脐": 7201,
      "##谊": 7202,
      "##突": 7203,
      "##哭": 7204,
      "##玺": 7205,
      "##衅": 7206,
      "##崩": 7207,
      "##舱": 7208,
      "##猩": 7209,
      "##荐": 7210,
      "##熹": 7211,
      "##拾": 7212,
      "##磐": 7213,
      "##窒": 7214,
      "##丈": 7215,
      "##兼": 7216,
      "##沂": 7217,
      "##舵": 7218,
      "##褶": 7219,
      "##甚": 7220,
      "##狄": 7221,
      "##纷": 7222,
      "##僧": 7223,
      "##卸": 7224,
      "##霜": 7225,
      "##孤": 7226,
      "##哇": 7227,
      "##鳍": 7228,
      "##奴": 7229,
      "##堀": 7230,
      "##皱": 7231,
      "##夷": 7232,
      "##喃": 7233,
      "##哑": 7234,
      "##臭": 7235,
      "##彗": 7236,
      "##摸": 7237,
      "##缴": 7238,
      "##狼": 7239,
      "##颅": 7240,
      "##漂": 7241,
      "##湘": 7242,
      "##坜": 7243,
      "##孩": 7244,
      "##滋": 7245,
      "##萘": 7246,
      "##侵": 7247,
      "##韵": 7248,
      "##衬": 7249,
      "##甫": 7250,
      "##宴": 7251,
      "##絮": 7252,
      "##痪": 7253,
      "##蝇": 7254,
      "##肼": 7255,
      "##厢": 7256,
      "##勾": 7257,
      "##铅": 7258,
      "##椒": 7259,
      "##跟": 7260,
      "##霁": 7261,
      "##痒": 7262,
      "##遏": 7263,
      "##恢": 7264,
      "##姑": 7265,
      "##娘": 7266,
      "##俄": 7267,
      "##猜": 7268,
      "##诞": 7269,
      "##逅": 7270,
      "##傅": 7271,
      "##涸": 7272,
      "##辈": 7273,
      "##很": 7274,
      "##峥": 7275,
      "##贸": 7276,
      "##羽": 7277,
      "##欲": 7278,
      "##坟": 7279,
      "##墅": 7280,
      "##扯": 7281,
      "##锈": 7282,
      "##卑": 7283,
      "##妇": 7284,
      "##胃": 7285,
      "##屑": 7286,
      "##挺": 7287,
      "##稔": 7288,
      "##矾": 7289,
      "##轶": 7290,
      "##赁": 7291,
      "##允": 7292,
      "##镀": 7293,
      "##颚": 7294,
      "##胱": 7295,
      "##膀": 7296,
      "##妍": 7297,
      "##钊": 7298,
      "##它": 7299,
      "##斤": 7300,
      "##拼": 7301,
      "##咯": 7302,
      "##匡": 7303,
      "##萧": 7304,
      "##订": 7305,
      "##砌": 7306,
      "##绅": 7307,
      "##榜": 7308,
      "##榷": 7309,
      "##吡": 7310,
      "##侯": 7311,
      "##创": 7312,
      "##酐": 7313,
      "##骏": 7314,
      "##沣": 7315,
      "##丕": 7316,
      "##仔": 7317,
      "##惧": 7318,
      "##陵": 7319,
      "##芨": 7320,
      "##埚": 7321,
      "##劣": 7322,
      "##竞": 7323,
      "##胸": 7324,
      "##疱": 7325,
      "##洒": 7326,
      "##奶": 7327,
      "##畜": 7328,
      "##胖": 7329,
      "##烬": 7330,
      "##砂": 7331,
      "##啤": 7332,
      "##辞": 7333,
      "##喘": 7334,
      "##赐": 7335,
      "##豫": 7336,
      "##寇": 7337,
      "##某": 7338,
      "##插": 7339,
      "##瞳": 7340,
      "##鲷": 7341,
      "##啪": 7342,
      "##熊": 7343,
      "##舶": 7344,
      "##姐": 7345,
      "##胧": 7346,
      "##栓": 7347,
      "##汶": 7348,
      "##匪": 7349,
      "##舆": 7350,
      "##寡": 7351,
      "##膨": 7352,
      "##荫": 7353,
      "##戊": 7354,
      "##篱": 7355,
      "##挤": 7356,
      "##墨": 7357,
      "##掩": 7358,
      "##蚪": 7359,
      "##讷": 7360,
      "##漏": 7361,
      "##苓": 7362,
      "##牒": 7363,
      "##帚": 7364,
      "##帮": 7365,
      "##茎": 7366,
      "##拣": 7367,
      "##螺": 7368,
      "##悟": 7369,
      "##泻": 7370,
      "##仲": 7371,
      "##讨": 7372,
      "##菇": 7373,
      "##聋": 7374,
      "##诃": 7375,
      "##鹉": 7376,
      "##佣": 7377,
      "##撑": 7378,
      "##庞": 7379,
      "##鳞": 7380,
      "##狠": 7381,
      "##玫": 7382,
      "##晋": 7383,
      "##煌": 7384,
      "##腈": 7385,
      "##婴": 7386,
      "##贩": 7387,
      "##醉": 7388,
      "##钳": 7389,
      "##戒": 7390,
      "##雯": 7391,
      "##麟": 7392,
      "##削": 7393,
      "##龈": 7394,
      "##穴": 7395,
      "##请": 7396,
      "##鲈": 7397,
      "##禁": 7398,
      "##狐": 7399,
      "##惕": 7400,
      "##忌": 7401,
      "##怠": 7402,
      "##匠": 7403,
      "##悉": 7404,
      "##惜": 7405,
      "##拧": 7406,
      "##坝": 7407,
      "##赵": 7408,
      "##霆": 7409,
      "##霾": 7410,
      "##惹": 7411,
      "##钨": 7412,
      "##尬": 7413,
      "##%": 7414,
      "##坯": 7415,
      "##瞥": 7416,
      "##漆": 7417,
      "##旷": 7418,
      "##钛": 7419,
      "##责": 7420,
      "##萝": 7421,
      "##颜": 7422,
      "##椎": 7423,
      "##辏": 7424,
      "##庇": 7425,
      "##嵌": 7426,
      "##斋": 7427,
      "##茫": 7428,
      "##铯": 7429,
      "##怎": 7430,
      "##办": 7431,
      "##蝎": 7432,
      "##胆": 7433,
      "##帖": 7434,
      "##蜜": 7435,
      "##芥": 7436,
      "##孚": 7437,
      "##铐": 7438,
      "##抱": 7439,
      "##肠": 7440,
      "##雕": 7441,
      "##啾": 7442,
      "##箕": 7443,
      "##喋": 7444,
      "##脾": 7445,
      "##烦": 7446,
      "##兔": 7447,
      "##迦": 7448,
      "##钻": 7449,
      "##廊": 7450,
      "##澳": 7451,
      "##椹": 7452,
      "##狸": 7453,
      "##愉": 7454,
      "##鳗": 7455,
      "##侬": 7456,
      "##裤": 7457,
      "##畑": 7458,
      "##辨": 7459,
      "##禅": 7460,
      "##驻": 7461,
      "##综": 7462,
      "##男": 7463,
      "##颂": 7464,
      "##葚": 7465,
      "##碘": 7466,
      "##逾": 7467,
      "##陋": 7468,
      "##逊": 7469,
      "##憎": 7470,
      "##郊": 7471,
      "##屯": 7472,
      "##挨": 7473,
      "##昏": 7474,
      "##骆": 7475,
      "##驼": 7476,
      "##雹": 7477,
      "##缛": 7478,
      "##姬": 7479,
      "##霸": 7480,
      "##睑": 7481,
      "##萄": 7482,
      "##绥": 7483,
      "##鲨": 7484,
      "##笙": 7485,
      "##坞": 7486,
      "##柄": 7487,
      "##肝": 7488,
      "##绌": 7489,
      "##卟": 7490,
      "##啉": 7491,
      "##抵": 7492,
      "##躺": 7493,
      "##咙": 7494,
      "##匀": 7495,
      "##爬": 7496,
      "##妹": 7497,
      "##吓": 7498,
      "##螂": 7499,
      "##磺": 7500,
      "##胛": 7501,
      "##般": 7502,
      "##诀": 7503,
      "##你": 7504,
      "##葡": 7505,
      "##侦": 7506,
      "##龟": 7507,
      "##芹": 7508,
      "##坠": 7509,
      "##焱": 7510,
      "##颌": 7511,
      "##伞": 7512,
      "##鹭": 7513,
      "##跌": 7514,
      "##挽": 7515,
      "##盼": 7516,
      "##喱": 7517,
      "##燮": 7518,
      "##莪": 7519,
      "##淡": 7520,
      "##颊": 7521,
      "##著": 7522,
      "##瑛": 7523,
      "##趾": 7524,
      "##绷": 7525,
      "##脓": 7526,
      "##肆": 7527,
      "##涩": 7528,
      "##榨": 7529,
      "##蛄": 7530,
      "##肪": 7531,
      "##遮": 7532,
      "##挡": 7533,
      "##幌": 7534,
      "##躁": 7535,
      "##帝": 7536,
      "##拙": 7537,
      "##靶": 7538,
      "##饶": 7539,
      "##辜": 7540,
      "##畔": 7541,
      "##楦": 7542,
      "##摇": 7543,
      "##咨": 7544,
      "##杭": 7545,
      "##菀": 7546,
      "##辟": 7547,
      "##妃": 7548,
      "##蚜": 7549,
      "##漪": 7550,
      "##蚣": 7551,
      "##咳": 7552,
      "##稼": 7553,
      "##烤": 7554,
      "##萎": 7555,
      "##兀": 7556,
      "##蜡": 7557,
      "##仰": 7558,
      "##筋": 7559,
      "##鳃": 7560,
      "##栾": 7561,
      "##恕": 7562,
      "##鉴": 7563,
      "##苹": 7564,
      "##鸥": 7565,
      "##疵": 7566,
      "##坊": 7567,
      "##蒲": 7568,
      "##拇": 7569,
      "##侠": 7570,
      "##戟": 7571,
      "##鲸": 7572,
      "##冒": 7573,
      "##捏": 7574,
      "##梏": 7575,
      "##溉": 7576,
      "##犬": 7577,
      "##偷": 7578,
      "##棚": 7579,
      "##坪": 7580,
      "##蹈": 7581,
      "##晟": 7582,
      "##搞": 7583,
      "##罡": 7584,
      "##逛": 7585,
      "##愧": 7586,
      "##凭": 7587,
      "##啸": 7588,
      "##腕": 7589,
      "##唤": 7590,
      "##劲": 7591,
      "##纾": 7592,
      "##崽": 7593,
      "##湛": 7594,
      "##淇": 7595,
      "##疾": 7596,
      "##斥": 7597,
      "##闩": 7598,
      "##搐": 7599,
      "##豚": 7600,
      "##瞩": 7601,
      "##祉": 7602,
      "##铟": 7603,
      "##奸": 7604,
      "##忍": 7605,
      "##薯": 7606,
      "##粟": 7607,
      "##跤": 7608,
      "##昧": 7609,
      "##辊": 7610,
      "##泄": 7611,
      "##殴": 7612,
      "##戚": 7613,
      "##鲲": 7614,
      "##尻": 7615,
      "##昼": 7616,
      "##厦": 7617,
      "##叽": 7618,
      "##喳": 7619,
      "##卤": 7620,
      "##蔓": 7621,
      "##哔": 7622,
      "##恭": 7623,
      "##彰": 7624,
      "##恨": 7625,
      "##铵": 7626,
      "##厌": 7627,
      "##鳅": 7628,
      "##阂": 7629,
      "##猎": 7630,
      "##驭": 7631,
      "##赤": 7632,
      "##芦": 7633,
      "##煮": 7634,
      "##冗": 7635,
      "##聘": 7636,
      "##吼": 7637,
      "##蔬": 7638,
      "##捆": 7639,
      "##蜢": 7640,
      "##蔻": 7641,
      "##誓": 7642,
      "##哚": 7643,
      "##盔": 7644,
      "##骤": 7645,
      "##侈": 7646,
      "##筛": 7647,
      "##概": 7648,
      "##奚": 7649,
      "##虽": 7650,
      "##咒": 7651,
      "##澜": 7652,
      "##拒": 7653,
      "##躯": 7654,
      "##淹": 7655,
      "##燊": 7656,
      "##魂": 7657,
      "##楷": 7658,
      "##铺": 7659,
      "##祸": 7660,
      "##掘": 7661,
      "##既": 7662,
      "##蠢": 7663,
      "##姣": 7664,
      "##烫": 7665,
      "##钮": 7666,
      "##匙": 7667,
      "##琅": 7668,
      "##螅": 7669,
      "##轿": 7670,
      "##亵": 7671,
      "##绫": 7672,
      "##虐": 7673,
      "##嘟": 7674,
      "##淀": 7675,
      "##圳": 7676,
      "##添": 7677,
      "##荟": 7678,
      "##粥": 7679,
      "##搡": 7680,
      "##铀": 7681,
      "##焚": 7682,
      "##嗪": 7683,
      "##吴": 7684,
      "##狮": 7685,
      "##羲": 7686,
      "##缭": 7687,
      "##敲": 7688,
      "##蝌": 7689,
      "##拆": 7690,
      "##涕": 7691,
      "##艰": 7692,
      "##窦": 7693,
      "##姓": 7694,
      "##谟": 7695,
      "##珉": 7696,
      "##追": 7697,
      "##汾": 7698,
      "##隧": 7699,
      "##迁": 7700,
      "##贿": 7701,
      "##赂": 7702,
      "##禾": 7703,
      "##跖": 7704,
      "##绞": 7705,
      "##巡": 7706,
      "##阜": 7707,
      "##甾": 7708,
      "##晷": 7709,
      "##帜": 7710,
      "##砍": 7711,
      "##吞": 7712,
      "##妒": 7713,
      "##塘": 7714,
      "##蜗": 7715,
      "##髅": 7716,
      "##嘿": 7717,
      "##暮": 7718,
      "##囱": 7719,
      "##骥": 7720,
      "##塾": 7721,
      "##拖": 7722,
      "##猬": 7723,
      "##贼": 7724,
      "##峻": 7725,
      "##铬": 7726,
      "##擞": 7727,
      "##悲": 7728,
      "##铍": 7729,
      "##袒": 7730,
      "##揽": 7731,
      "##灌": 7732,
      "##拭": 7733,
      "##辕": 7734,
      "##谕": 7735,
      "##菁": 7736,
      "##摄": 7737,
      "##蓿": 7738,
      "##岐": 7739,
      "##嘌": 7740,
      "##寨": 7741,
      "##裨": 7742,
      "##岗": 7743,
      "##茜": 7744,
      "##谍": 7745,
      "##驯": 7746,
      "##疼": 7747,
      "##兑": 7748,
      "##踏": 7749,
      "##嵛": 7750,
      "##汝": 7751,
      "##阈": 7752,
      "##旦": 7753,
      "##栽": 7754,
      "##蠖": 7755,
      "##朽": 7756,
      "##巍": 7757,
      "##璎": 7758,
      "##赴": 7759,
      "##曝": 7760,
      "##骂": 7761,
      "##毂": 7762,
      "##詹": 7763,
      "##筷": 7764,
      "##沪": 7765,
      "##邀": 7766,
      "##壑": 7767,
      "##笠": 7768,
      "##筝": 7769,
      "##焙": 7770,
      "##笋": 7771,
      "##忘": 7772,
      "##芙": 7773,
      "##糟": 7774,
      "##苑": 7775,
      "##钴": 7776,
      "##闷": 7777,
      "##招": 7778,
      "##畸": 7779,
      "##抛": 7780,
      "##蹑": 7781,
      "##厨": 7782,
      "##斩": 7783,
      "##侑": 7784,
      "##窟": 7785,
      "##邑": 7786,
      "##苍": 7787,
      "##寰": 7788,
      "##遭": 7789,
      "##胝": 7790,
      "##畿": 7791,
      "##汪": 7792,
      "##勘": 7793,
      "##辣": 7794,
      "##攸": 7795,
      "##痹": 7796,
      "##妖": 7797,
      "##劈": 7798,
      "##哀": 7799,
      "##涎": 7800,
      "##绣": 7801,
      "##袱": 7802,
      "##皆": 7803,
      "##膛": 7804,
      "##隼": 7805,
      "##瑜": 7806,
      "##舷": 7807,
      "##滓": 7808,
      "##挚": 7809,
      "##拽": 7810,
      "##拌": 7811,
      "##飘": 7812,
      "##鹃": 7813,
      "##谜": 7814,
      "##敷": 7815,
      "##泼": 7816,
      "##笛": 7817,
      "##蘑": 7818,
      "##镉": 7819,
      "##蜍": 7820,
      "##刹": 7821,
      "##阮": 7822,
      "##萃": 7823,
      "##癫": 7824,
      "##涯": 7825,
      "##骄": 7826,
      "##喂": 7827,
      "##纠": 7828,
      "##拢": 7829,
      "##呵": 7830,
      "##蘖": 7831,
      "##咬": 7832,
      "##鹋": 7833,
      "##饨": 7834,
      "##荪": 7835,
      "##砷": 7836,
      "##隶": 7837,
      "##咲": 7838,
      "##屠": 7839,
      "##砸": 7840,
      "##寄": 7841,
      "##蚤": 7842,
      "##锻": 7843,
      "##溢": 7844,
      "##饪": 7845,
      "##禺": 7846,
      "##呢": 7847,
      "##怜": 7848,
      "##愤": 7849,
      "##砧": 7850,
      "##糜": 7851,
      "##槌": 7852,
      "##厥": 7853,
      "##掷": 7854,
      "##蕴": 7855,
      "##芭": 7856,
      "##每": 7857,
      "##鼾": 7858,
      "##荧": 7859,
      "##蜘": 7860,
      "##履": 7861,
      "##姜": 7862,
      "##薛": 7863,
      "##劾": 7864,
      "##牢": 7865,
      "##悖": 7866,
      "##憩": 7867,
      "##粤": 7868,
      "##蹒": 7869,
      "##跚": 7870,
      "##悼": 7871,
      "##骜": 7872,
      "##删": 7873,
      "##瞰": 7874,
      "##叛": 7875,
      "##尝": 7876,
      "##酋": 7877,
      "##厉": 7878,
      "##蓓": 7879,
      "##邵": 7880,
      "##橼": 7881,
      "##蜒": 7882,
      "##弛": 7883,
      "##杖": 7884,
      "##秽": 7885,
      "##捻": 7886,
      "##藓": 7887,
      "##槛": 7888,
      "##屎": 7889,
      "##耸": 7890,
      "##匿": 7891,
      "##赎": 7892,
      "##笺": 7893,
      "##槐": 7894,
      "##淆": 7895,
      "##轧": 7896,
      "##哒": 7897,
      "##橙": 7898,
      "##臻": 7899,
      "##漉": 7900,
      "##酿": 7901,
      "##岖": 7902,
      "##逞": 7903,
      "##蹼": 7904,
      "##礁": 7905,
      "##鄙": 7906,
      "##搭": 7907,
      "##哗": 7908,
      "##鹑": 7909,
      "##仆": 7910,
      "##鸪": 7911,
      "##吱": 7912,
      "##稣": 7913,
      "##澈": 7914,
      "##铂": 7915,
      "##蔑": 7916,
      "##纂": 7917,
      "##锆": 7918,
      "##啬": 7919,
      "##淫": 7920,
      "##榕": 7921,
      "##贬": 7922,
      "##蜓": 7923,
      "##髦": 7924,
      "##董": 7925,
      "##蔚": 7926,
      "##辫": 7927,
      "##捧": 7928,
      "##诿": 7929,
      "##这": 7930,
      "##粪": 7931,
      "##躏": 7932,
      "##嘱": 7933,
      "##沁": 7934,
      "##肇": 7935,
      "##橘": 7936,
      "##凿": 7937,
      "##稚": 7938,
      "##墓": 7939,
      "##翎": 7940,
      "##鸾": 7941,
      "##肚": 7942,
      "##爷": 7943,
      "##坷": 7944,
      "##幼": 7945,
      "##朋": 7946,
      "##觎": 7947,
      "##丧": 7948,
      "##瑚": 7949,
      "##肾": 7950,
      "##拷": 7951,
      "##厕": 7952,
      "##勖": 7953,
      "##擎": 7954,
      "##仇": 7955,
      "##梵": 7956,
      "##墩": 7957,
      "##沌": 7958,
      "##渍": 7959,
      "##堰": 7960,
      "##盏": 7961,
      "##甜": 7962,
      "##髻": 7963,
      "##熄": 7964,
      "##耦": 7965,
      "##紊": 7966,
      "##眩": 7967,
      "##魁": 7968,
      "##镯": 7969,
      "##曙": 7970,
      "##嗒": 7971,
      "##娠": 7972,
      "##谁": 7973,
      "##吩": 7974,
      "##撼": 7975,
      "##怯": 7976,
      "##澡": 7977,
      "##哩": 7978,
      "##羞": 7979,
      "##惚": 7980,
      "##鳔": 7981,
      "##傻": 7982,
      "##殷": 7983,
      "##噶": 7984,
      "##襟": 7985,
      "##嗽": 7986,
      "##琰": 7987,
      "##镓": 7988,
      "##冶": 7989,
      "##哝": 7990,
      "##裹": 7991,
      "##潇": 7992,
      "##漱": 7993,
      "##陡": 7994,
      "##赌": 7995,
      "##飚": 7996,
      "##袍": 7997,
      "##钰": 7998,
      "##逢": 7999,
      "##嘛": 8000,
      "##鸭": 8001,
      "##暑": 8002,
      "##又": 8003,
      "##姻": 8004,
      "##绸": 8005,
      "##扶": 8006,
      "##螈": 8007,
      "##窑": 8008,
      "##恼": 8009,
      "##溺": 8010,
      "##睐": 8011,
      "##潞": 8012,
      "##悌": 8013,
      "##摧": 8014,
      "##吁": 8015,
      "##睦": 8016,
      "##咎": 8017,
      "##橱": 8018,
      "##垛": 8019,
      "##拐": 8020,
      "##巷": 8021,
      "##驹": 8022,
      "##咏": 8023,
      "##婆": 8024,
      "##匾": 8025,
      "##谴": 8026,
      "##炖": 8027,
      "##痴": 8028,
      "##偕": 8029,
      "##灸": 8030,
      "##沸": 8031,
      "##尸": 8032,
      "##麓": 8033,
      "##聂": 8034,
      "##儡": 8035,
      "##盹": 8036,
      "##嚣": 8037,
      "##笈": 8038,
      "##瞒": 8039,
      "##浇": 8040,
      "##聿": 8041,
      "##扉": 8042,
      "##痂": 8043,
      "##倡": 8044,
      "##珥": 8045,
      "##籽": 8046,
      "##珩": 8047,
      "##泞": 8048,
      "##呀": 8049,
      "##戮": 8050,
      "##乒": 8051,
      "##屿": 8052,
      "##讽": 8053,
      "##泣": 8054,
      "##辽": 8055,
      "##峭": 8056,
      "##戾": 8057,
      "##缤": 8058,
      "##叔": 8059,
      "##槃": 8060,
      "##窖": 8061,
      "##梢": 8062,
      "##橇": 8063,
      "##嫌": 8064,
      "##噜": 8065,
      "##脖": 8066,
      "##嫉": 8067,
      "##撰": 8068,
      "##邸": 8069,
      "##嗦": 8070,
      "##黜": 8071,
      "##荚": 8072,
      "##违": 8073,
      "##舛": 8074,
      "##钡": 8075,
      "##宵": 8076,
      "##挫": 8077,
      "##鹫": 8078,
      "##岱": 8079,
      "##蜴": 8080,
      "##杵": 8081,
      "##铋": 8082,
      "##蔗": 8083,
      "##饵": 8084,
      "##跋": 8085,
      "##朴": 8086,
      "##绀": 8087,
      "##蜃": 8088,
      "##枉": 8089,
      "##躬": 8090,
      "##抓": 8091,
      "##褐": 8092,
      "##羚": 8093,
      "##胰": 8094,
      "##骛": 8095,
      "##佬": 8096,
      "##堑": 8097,
      "##翊": 8098,
      "##蒿": 8099,
      "##碁": 8100,
      "##淘": 8101,
      "##杏": 8102,
      "##遵": 8103,
      "##鸠": 8104,
      "##蝣": 8105,
      "##竟": 8106,
      "##盅": 8107,
      "##勺": 8108,
      "##吟": 8109,
      "##卉": 8110,
      "##釉": 8111,
      "##痰": 8112,
      "##谔": 8113,
      "##梓": 8114,
      "##渤": 8115,
      "##琛": 8116,
      "##悄": 8117,
      "##猾": 8118,
      "##斧": 8119,
      "##徙": 8120,
      "##簸": 8121,
      "##犸": 8122,
      "##悴": 8123,
      "##详": 8124,
      "##屉": 8125,
      "##嚼": 8126,
      "##丑": 8127,
      "##踢": 8128,
      "##妲": 8129,
      "##腥": 8130,
      "##辋": 8131,
      "##邃": 8132,
      "##栩": 8133,
      "##癖": 8134,
      "##筐": 8135,
      "##娩": 8136,
      "##孽": 8137,
      "##吵": 8138,
      "##氓": 8139,
      "##藉": 8140,
      "##娣": 8141,
      "##嘶": 8142,
      "##邪": 8143,
      "##烩": 8144,
      "##厩": 8145,
      "##怨": 8146,
      "##衔": 8147,
      "##锗": 8148,
      "##籁": 8149,
      "##薮": 8150,
      "##毡": 8151,
      "##谛": 8152,
      "##瘠": 8153,
      "##悸": 8154,
      "##萼": 8155,
      "##锑": 8156,
      "##鳢": 8157,
      "##臼": 8158,
      "##镝": 8159,
      "##胥": 8160,
      "##遂": 8161,
      "##莽": 8162,
      "##侪": 8163,
      "##犹": 8164,
      "##杞": 8165,
      "##缉": 8166,
      "##锷": 8167,
      "##棣": 8168,
      "##瞌": 8169,
      "##睽": 8170,
      "##倚": 8171,
      "##僵": 8172,
      "##熏": 8173,
      "##鹕": 8174,
      "##饯": 8175,
      "##蕉": 8176,
      "##龛": 8177,
      "##珞": 8178,
      "##婪": 8179,
      "##柿": 8180,
      "##叨": 8181,
      "##酞": 8182,
      "##蔡": 8183,
      "##嚏": 8184,
      "##垄": 8185,
      "##痘": 8186,
      "##呋": 8187,
      "##咪": 8188,
      "##瑠": 8189,
      "##诩": 8190,
      "##淮": 8191,
      "##佼": 8192,
      "##俭": 8193,
      "##讪": 8194,
      "##敞": 8195,
      "##柚": 8196,
      "##垩": 8197,
      "##莞": 8198,
      "##郭": 8199,
      "##妤": 8200,
      "##觐": 8201,
      "##恤": 8202,
      "##锶": 8203,
      "##凰": 8204,
      "##蝉": 8205,
      "##侨": 8206,
      "##檀": 8207,
      "##狳": 8208,
      "##浚": 8209,
      "##爹": 8210,
      "##骋": 8211,
      "##啊": 8212,
      "##屡": 8213,
      "##嘘": 8214,
      "##镖": 8215,
      "##鳖": 8216,
      "##沓": 8217,
      "##砻": 8218,
      "##砰": 8219,
      "##曳": 8220,
      "##苟": 8221,
      "##璜": 8222,
      "##巫": 8223,
      "##铲": 8224,
      "##钒": 8225,
      "##隅": 8226,
      "##琉": 8227,
      "##鲤": 8228,
      "##碌": 8229,
      "##滔": 8230,
      "##痢": 8231,
      "##寝": 8232,
      "##讶": 8233,
      "##钵": 8234,
      "##渎": 8235,
      "##沧": 8236,
      "##蚴": 8237,
      "我们": 8238,
      "##at": 8239,
      "20": 8240,
      "##ath": 8241,
      "math": 8242,
      "##an": 8243,
      "##er": 8244,
      "##in": 8245,
      "##ar": 8246,
      "##al": 8247,
      "201": 8248,
      "##et": 8249,
      "##me": 8250,
      "可以": 8251,
      "使用": 8252,
      "##on": 8253,
      "10": 8254,
      "模型": 8255,
      "数据": 8256,
      "##am": 8257,
      "##el": 8258,
      "方法": 8259,
      "通过": 8260,
      "##en": 8261,
      "in": 8262,
      "进行": 8263,
      "##ig": 8264,
      "##ime": 8265,
      "##ma": 8266,
      "对于": 8267,
      "mathb": 8268,
      "##or": 8269,
      "一个": 8270,
      "##il": 8271,
      "具有": 8272,
      "19": 8273,
      "计算": 8274,
      "因此": 8275,
      "##ra": 8276,
      "##ol": 8277,
      "##ta": 8278,
      "##hi": 8279,
      "##cal": 8280,
      "结果": 8281,
      "##ot": 8282,
      "mathcal": 8283,
      "研究": 8284,
      "其中": 8285,
      "##": 8286,
      "##le": 8287,
      "##ro": 8288,
      "##eq": 8289,
      "al": 8290,
      "系统": 8291,
      "时间": 8292,
      "##eta": 8293,
      "202": 8294,
      "##ha": 8295,
      "学习": 8296,
      "11": 8297,
      "这些": 8298,
      "##es": 8299,
      "情况": 8300,
      "##ang": 8301,
      "200": 8302,
      "12": 8303,
      "不同": 8304,
      "问题": 8305,
      "物理": 8306,
      "每个": 8307,
      "表示": 8308,
      "##ine": 8309,
      "所有": 8310,
      "##ch": 8311,
      "可能": 8312,
      "函数": 8313,
      "ta": 8314,
      "##ti": 8315,
      "##00": 8316,
      "参数": 8317,
      "##EE": 8318,
      "之间": 8319,
      "##ul": 8320,
      "##ft": 8321,
      "pr": 8322,
      "基于": 8323,
      "##line": 8324,
      "##da": 8325,
      "训练": 8326,
      "特征": 8327,
      "##elta": 8328,
      "##ex": 8329,
      "网络": 8330,
      "prime": 8331,
      "相关": 8332,
      "##ps": 8333,
      "并且": 8334,
      "例如": 8335,
      "##iv": 8336,
      "mathbb": 8337,
      "##is": 8338,
      "##as": 8339,
      "用于": 8340,
      "应用": 8341,
      "算法": 8342,
      "##rac": 8343,
      "tex": 8344,
      "##rm": 8345,
      "两个": 8346,
      "提出": 8347,
      "图像": 8348,
      "text": 8349,
      "SS": 8350,
      "考虑": 8351,
      "如果": 8352,
      "##pha": 8353,
      "由于": 8354,
      "空间": 8355,
      "alpha": 8356,
      "13": 8357,
      "##it": 8358,
      "mathbf": 8359,
      "th": 8360,
      "这种": 8361,
      "15": 8362,
      "定义": 8363,
      "##amb": 8364,
      "##igh": 8365,
      "##nd": 8366,
      "方程": 8367,
      "frac": 8368,
      "量子": 8369,
      "以及": 8370,
      "存在": 8371,
      "没有": 8372,
      "14": 8373,
      "实验": 8374,
      "##amma": 8375,
      "##ight": 8376,
      "mathrm": 8377,
      "##ambda": 8378,
      "rm": 8379,
      "16": 8380,
      "状态": 8381,
      "选择": 8382,
      "##im": 8383,
      "##de": 8384,
      "分析": 8385,
      "证明": 8386,
      "为了": 8387,
      "##imes": 8388,
      "生成": 8389,
      "##ga": 8390,
      "假设": 8391,
      "提供": 8392,
      "工作": 8393,
      "hline": 8394,
      "mu": 8395,
      "信息": 8396,
      "实现": 8397,
      "获得": 8398,
      "##ho": 8399,
      "一种": 8400,
      "预测": 8401,
      "估计": 8402,
      "ar": 8403,
      "##igma": 8404,
      "需要": 8405,
      "##dot": 8406,
      "过程": 8407,
      "分布": 8408,
      "根据": 8409,
      "17": 8410,
      "18": 8411,
      "##um": 8412,
      "times": 8413,
      "##mega": 8414,
      "它们": 8415,
      "性能": 8416,
      "right": 8417,
      "理论": 8418,
      "作为": 8419,
      "测量": 8420,
      "##ic": 8421,
      "显示": 8422,
      "结构": 8423,
      "##eg": 8424,
      "le": 8425,
      "随机": 8426,
      "##ur": 8427,
      "tab": 8428,
      "因为": 8429,
      "##os": 8430,
      "##Xiv": 8431,
      "lambda": 8432,
      "arXiv": 8433,
      "##ilon": 8434,
      "产生": 8435,
      "##psilon": 8436,
      "leq": 8437,
      "##ing": 8438,
      "然而": 8439,
      "影响": 8440,
      "注意": 8441,
      "所示": 8442,
      "2019": 8443,
      "21": 8444,
      "left": 8445,
      "引用": 8446,
      "然后": 8447,
      "观察": 8448,
      "目标": 8449,
      "解决": 8450,
      "平均": 8451,
      "2020": 8452,
      "模拟": 8453,
      "25": 8454,
      "##us": 8455,
      "22": 8456,
      "theta": 8457,
      "数量": 8458,
      "其他": 8459,
      "sigma": 8460,
      "phi": 8461,
      "检测": 8462,
      "此外": 8463,
      "##ec": 8464,
      "##ed": 8465,
      "任何": 8466,
      "##ys": 8467,
      "bm": 8468,
      "测试": 8469,
      "评估": 8470,
      "有效": 8471,
      "相同": 8472,
      "任务": 8473,
      "##angle": 8474,
      "##ev": 8475,
      "2018": 8476,
      "表明": 8477,
      "IEE": 8478,
      "IEEE": 8479,
      "delta": 8480,
      "比较": 8481,
      "质量": 8482,
      "var": 8483,
      "区域": 8484,
      "beta": 8485,
      "机器": 8486,
      "控制": 8487,
      "模式": 8488,
      "##om": 8489,
      "神经": 8490,
      "##ov": 8491,
      "pi": 8492,
      "23": 8493,
      "矩阵": 8494,
      "描述": 8495,
      "##pp": 8496,
      "能量": 8497,
      "包含": 8498,
      "24": 8499,
      "技术": 8500,
      "给出": 8501,
      "设置": 8502,
      "gamma": 8503,
      "199": 8504,
      "hat": 8505,
      "最大": 8506,
      "pm": 8507,
      "相对": 8508,
      "优化": 8509,
      "部分": 8510,
      "to": 8511,
      "et": 8512,
      "Delta": 8513,
      "输入": 8514,
      "##si": 8515,
      "##01": 8516,
      "##un": 8517,
      "增加": 8518,
      "tau": 8519,
      "##id": 8520,
      "导致": 8521,
      "概率": 8522,
      "##ub": 8523,
      "物理学": 8524,
      "geq": 8525,
      "节点": 8526,
      "30": 8527,
      "线性": 8528,
      "##st": 8529,
      "##ir": 8530,
      "分类": 8531,
      "一些": 8532,
      "2017": 8533,
      "条件": 8534,
      "26": 8535,
      "##row": 8536,
      "发现": 8537,
      "样本": 8538,
      "变化": 8539,
      "分别": 8540,
      "Ch": 8541,
      "会议": 8542,
      "以下": 8543,
      "rho": 8544,
      "cdot": 8545,
      "##ep": 8546,
      "##力学": 8547,
      "32": 8548,
      "得到": 8549,
      "定理": 8550,
      "最小": 8551,
      "设计": 8552,
      "end": 8553,
      "深度": 8554,
      "确定": 8555,
      "类似": 8556,
      "第一": 8557,
      "##ular": 8558,
      "omega": 8559,
      "nu": 8560,
      "27": 8561,
      "包括": 8562,
      "主要": 8563,
      "28": 8564,
      "##ilde": 8565,
      "##ll": 8566,
      "对称": 8567,
      "##ut": 8568,
      "2021": 8569,
      "SSI": 8570,
      "数学": 8571,
      "利用": 8572,
      "形式": 8573,
      "参考": 8574,
      "讨论": 8575,
      "Li": 8576,
      "##ac": 8577,
      "tabular": 8578,
      "通常": 8579,
      "##egin": 8580,
      "##re": 8581,
      "##og": 8582,
      "begin": 8583,
      "位置": 8584,
      "限制": 8585,
      "标准": 8586,
      "信号": 8587,
      "策略": 8588,
      "扩展": 8589,
      "有限": 8590,
      "复杂": 8591,
      "重要": 8592,
      "电子": 8593,
      "相互": 8594,
      "解释": 8595,
      "Ph": 8596,
      "密度": 8597,
      "关系": 8598,
      "这个": 8599,
      "序列": 8600,
      "##old": 8601,
      "简单": 8602,
      "29": 8603,
      "本文": 8604,
      "识别": 8605,
      "##ri": 8606,
      "31": 8607,
      "稳定": 8608,
      "##ag": 8609,
      "近似": 8610,
      "##NN": 8611,
      "对应": 8612,
      "2016": 8613,
      "首先": 8614,
      "大小": 8615,
      "如图": 8616,
      "处理": 8617,
      "不是": 8618,
      "##ab": 8619,
      "采用": 8620,
      "用户": 8621,
      "##作用": 8622,
      "##ak": 8623,
      "边界": 8624,
      "非常": 8625,
      "ell": 8626,
      "范围": 8627,
      "最后": 8628,
      "100": 8629,
      "准确": 8630,
      "执行": 8631,
      "初始": 8632,
      "epsilon": 8633,
      "33": 8634,
      "##tt": 8635,
      "##网络": 8636,
      "##ad": 8637,
      "行为": 8638,
      "距离": 8639,
      "约束": 8640,
      "参见": 8641,
      "一致": 8642,
      "中心": 8643,
      "35": 8644,
      "变量": 8645,
      "框架": 8646,
      "编码": 8647,
      "01": 8648,
      "Phys": 8649,
      "局部": 8650,
      "34": 8651,
      "50": 8652,
      "##fty": 8653,
      "##man": 8654,
      "依赖": 8655,
      "粒子": 8656,
      "损失": 8657,
      "这里": 8658,
      "噪声": 8659,
      "出现": 8660,
      "infty": 8661,
      "特别": 8662,
      "链接": 8663,
      "相互作用": 8664,
      "第二": 8665,
      "rangle": 8666,
      "sim": 8667,
      "do": 8668,
      "相比": 8669,
      "##03": 8670,
      "能够": 8671,
      "耦合": 8672,
      "36": 8673,
      "来自": 8674,
      "方向": 8675,
      "##arrow": 8676,
      "##mb": 8677,
      "满足": 8678,
      "自旋": 8679,
      "##02": 8680,
      "连续": 8681,
      "类型": 8682,
      "使得": 8683,
      "##ver": 8684,
      "速度": 8685,
      "统计": 8686,
      "2015": 8687,
      "##per": 8688,
      "##ran": 8689,
      "科学": 8690,
      "给定": 8691,
      "连接": 8692,
      "输出": 8693,
      "动态": 8694,
      "计算机": 8695,
      "国际": 8696,
      "环境": 8697,
      "向量": 8698,
      "bar": 8699,
      "Gamma": 8700,
      "##lo": 8701,
      "动力学": 8702,
      "视觉": 8703,
      "bold": 8704,
      "37": 8705,
      "tilde": 8706,
      "从而": 8707,
      "之前": 8708,
      "##th": 8709,
      "40": 8710,
      "顶点": 8711,
      "误差": 8712,
      "减少": 8713,
      "神经网络": 8714,
      "支持": 8715,
      "##ulti": 8716,
      "##ter": 8717,
      "场景": 8718,
      "par": 8719,
      "论文": 8720,
      "称为": 8721,
      "直接": 8722,
      "采样": 8723,
      "运动": 8724,
      "##od": 8725,
      "他们": 8726,
      "##ion": 8727,
      "数值": 8728,
      "38": 8729,
      "最佳": 8730,
      "尽管": 8731,
      "方案": 8732,
      "外部": 8733,
      "##sk": 8734,
      "##一步": 8735,
      "进一步": 8736,
      "混合": 8737,
      "同时": 8738,
      "##and": 8739,
      "两种": 8740,
      "Omega": 8741,
      "事实": 8742,
      "方面": 8743,
      "multi": 8744,
      "II": 8745,
      "示例": 8746,
      "##sy": 8747,
      "##up": 8748,
      "路径": 8749,
      "##系统": 8750,
      "意味": 8751,
      "意味着": 8752,
      "修订": 8753,
      "机器人": 8754,
      "eta": 8755,
      "##ff": 8756,
      "方式": 8757,
      "几何": 8758,
      "##la": 8759,
      "操作": 8760,
      "验证": 8761,
      "形成": 8762,
      "自动": 8763,
      "提高": 8764,
      "发生": 8765,
      "建模": 8766,
      "##rt": 8767,
      "如何": 8768,
      "02": 8769,
      "节中": 8770,
      "sq": 8771,
      "39": 8772,
      "##mbol": 8773,
      "贡献": 8774,
      "频率": 8775,
      "标记": 8776,
      "修订版": 8777,
      "必须": 8778,
      "##ap": 8779,
      "St": 8780,
      "2014": 8781,
      "##tial": 8782,
      "dot": 8783,
      "特定": 8784,
      "许多": 8785,
      "##Net": 8786,
      "组成": 8787,
      "一般": 8788,
      "##11": 8789,
      "42": 8790,
      "198": 8791,
      "##epsilon": 8792,
      "varepsilon": 8793,
      "开始": 8794,
      "代表": 8795,
      "运行": 8796,
      "随着": 8797,
      "自然": 8798,
      "完全": 8799,
      "增强": 8800,
      "##symbol": 8801,
      "允许": 8802,
      "boldsymbol": 8803,
      "45": 8804,
      "表面": 8805,
      "事件": 8806,
      "doi": 8807,
      "差异": 8808,
      "杂志": 8809,
      "固定": 8810,
      "属性": 8811,
      "引入": 8812,
      "算子": 8813,
      "##方案": 8814,
      "关于": 8815,
      "table": 8816,
      "##orn": 8817,
      "相应": 8818,
      "标签": 8819,
      "表现": 8820,
      "代理": 8821,
      "sqrt": 8822,
      "41": 8823,
      "bf": 8824,
      "收敛": 8825,
      "多个": 8826,
      "##ame": 8827,
      "如下": 8828,
      "xi": 8829,
      "三个": 8830,
      "最近": 8831,
      "温度": 8832,
      "构建": 8833,
      "开发": 8834,
      "partial": 8835,
      "引理": 8836,
      "43": 8837,
      "相似": 8838,
      "对象": 8839,
      "传输": 8840,
      ".-": 8841,
      "解决方案": 8842,
      "sum": 8843,
      "组合": 8844,
      "最终": 8845,
      "找到": 8846,
      "重新": 8847,
      "htt": 8848,
      "原始": 8849,
      "基本": 8850,
      "ma": 8851,
      "真实": 8852,
      "##线性": 8853,
      "现在": 8854,
      "##dots": 8855,
      "实际": 8856,
      "权重": 8857,
      "##li": 8858,
      "2022": 8859,
      "长度": 8860,
      "嵌入": 8861,
      "效应": 8862,
      "曲线": 8863,
      "架构": 8864,
      "ldots": 8865,
      "44": 8866,
      "光谱": 8867,
      "这是": 8868,
      "##ou": 8869,
      "已经": 8870,
      "无法": 8871,
      "psi": 8872,
      "##ox": 8873,
      "##em": 8874,
      "阶段": 8875,
      "##ard": 8876,
      "关键": 8877,
      "及其": 8878,
      "##set": 8879,
      "##05": 8880,
      "05": 8881,
      "通信": 8882,
      "这样": 8883,
      "那么": 8884,
      "分数": 8885,
      "##12": 8886,
      "非线性": 8887,
      "03": 8888,
      "平衡": 8889,
      "2013": 8890,
      "##son": 8891,
      "详细": 8892,
      "##av": 8893,
      "提取": 8894,
      "背景": 8895,
      "迭代": 8896,
      "大学": 8897,
      "适应": 8898,
      "边缘": 8899,
      "移动": 8900,
      "##ia": 8901,
      "仍然": 8902,
      "48": 8903,
      "指数": 8904,
      "针对": 8905,
      "####": 8906,
      "##op": 8907,
      "形状": 8908,
      "基础": 8909,
      "卷积": 8910,
      "Le": 8911,
      "观测": 8912,
      "集合": 8913,
      "##定性": 8914,
      "这项": 8915,
      "攻击": 8916,
      "##sf": 8917,
      "##04": 8918,
      "47": 8919,
      "通道": 8920,
      "周期": 8921,
      "独立": 8922,
      "46": 8923,
      "宇宙": 8924,
      "轨迹": 8925,
      "智能": 8926,
      "经典": 8927,
      "##处理": 8928,
      "尺度": 8929,
      "挑战": 8930,
      "##all": 8931,
      "各种": 8932,
      "##ST": 8933,
      "##qu": 8934,
      "04": 8935,
      "##ber": 8936,
      "积分": 8937,
      "接近": 8938,
      "保持": 8939,
      "sub": 8940,
      "##ik": 8941,
      "In": 8942,
      "美国": 8943,
      "完整": 8944,
      "是否": 8945,
      "领域": 8946,
      "传播": 8947,
      "##ce": 8948,
      "2012": 8949,
      "循环": 8950,
      "元素": 8951,
      "##col": 8952,
      "##ay": 8953,
      "旋转": 8954,
      "##大学": 8955,
      "49": 8956,
      "原子": 8957,
      "监督": 8958,
      "转换": 8959,
      "步骤": 8960,
      "得出": 8961,
      "##app": 8962,
      "64": 8963,
      "映射": 8964,
      "改进": 8965,
      "某些": 8966,
      "log": 8967,
      "更好": 8968,
      "介绍": 8969,
      "公式": 8970,
      "匹配": 8971,
      "搜索": 8972,
      "服务": 8973,
      "分割": 8974,
      "符号": 8975,
      "不会": 8976,
      "度量": 8977,
      "52": 8978,
      "平面": 8979,
      "##ow": 8980,
      "拓扑": 8981,
      "##uc": 8982,
      "语言": 8983,
      "精确": 8984,
      "##ong": 8985,
      "Sch": 8986,
      "梯度": 8987,
      "配置": 8988,
      "机制": 8989,
      "自由": 8990,
      "类别": 8991,
      "虽然": 8992,
      "##SS": 8993,
      "拟合": 8994,
      "https": 8995,
      "分配": 8996,
      "离散": 8997,
      "更新": 8998,
      "3D": 8999,
      "作用": 9000,
      "成本": 9001,
      "最优": 9002,
      "subset": 9003,
      "##perat": 9004,
      "over": 9005,
      "错误": 9006,
      "引力": 9007,
      "光子": 9008,
      "精度": 9009,
      "##06": 9010,
      "发射": 9011,
      "##phi": 9012,
      "单个": 9013,
      "06": 9014,
      "51": 9015,
      "##AR": 9016,
      "##部分": 9017,
      "表达": 9018,
      "55": 9019,
      "全局": 9020,
      "##ell": 9021,
      "2011": 9022,
      "因子": 9023,
      "langle": 9024,
      "材料": 9025,
      "具体": 9026,
      "对称性": 9027,
      "##ation": 9028,
      "轨道": 9029,
      "未来": 9030,
      "##AM": 9031,
      "高斯": 9032,
      "hep": 9033,
      "系数": 9034,
      "潜在": 9035,
      "报告": 9036,
      "规范": 9037,
      "operat": 9038,
      "max": 9039,
      "##ge": 9040,
      "取决": 9041,
      "取决于": 9042,
      "53": 9043,
      "概念": 9044,
      "varphi": 9045,
      "有关": 9046,
      "##orname": 9047,
      "operatorname": 9048,
      "第一个": 9049,
      "添加": 9050,
      "水平": 9051,
      "整个": 9052,
      "集中": 9053,
      "作者": 9054,
      "上述": 9055,
      "##eV": 9056,
      "##07": 9057,
      "##umn": 9058,
      "传感": 9059,
      "安全": 9060,
      "求解": 9061,
      "设备": 9062,
      "56": 9063,
      "常数": 9064,
      "探索": 9065,
      "##ob": 9066,
      "##09": 9067,
      "##art": 9068,
      "Wang": 9069,
      "视频": 9070,
      "54": 9071,
      "看到": 9072,
      "##column": 9073,
      "当前": 9074,
      "multicolumn": 9075,
      "附录": 9076,
      "广泛": 9077,
      "##ey": 9078,
      "变换": 9079,
      "极限": 9080,
      "文档": 9081,
      "驱动": 9082,
      "##ER": 9083,
      "##AN": 9084,
      "Zh": 9085,
      "##ess": 9086,
      "2010": 9087,
      "认为": 9088,
      "##函数": 9089,
      "##appa": 9090,
      "受到": 9091,
      "chi": 9092,
      "代码": 9093,
      "展示": 9094,
      "通用": 9095,
      "000": 9096,
      "模块": 9097,
      "相关性": 9098,
      "Phi": 9099,
      "正确": 9100,
      "##rox": 9101,
      "app": 9102,
      "Sh": 9103,
      "不确": 9104,
      "不确定性": 9105,
      "降低": 9106,
      "位于": 9107,
      "Th": 9108,
      "and": 9109,
      "75": 9110,
      "SSII": 9111,
      "ph": 9112,
      "08": 9113,
      "##ers": 9114,
      "关注": 9115,
      "网格": 9116,
      "##ant": 9117,
      "cal": 9118,
      "##ent": 9119,
      "##CM": 9120,
      "动作": 9121,
      "功能": 9122,
      "应该": 9123,
      "kappa": 9124,
      "##box": 9125,
      "达到": 9126,
      "相当": 9127,
      "Chen": 9128,
      "视为": 9129,
      "Re": 9130,
      "检查": 9131,
      "人们": 9132,
      "57": 9133,
      "足够": 9134,
      "恒星": 9135,
      "特性": 9136,
      "07": 9137,
      "强度": 9138,
      "之外": 9139,
      "##ck": 9140,
      "SI": 9141,
      "加速": 9142,
      "维度": 9143,
      "197": 9144,
      "dots": 9145,
      "Lambda": 9146,
      "角度": 9147,
      "正如": 9148,
      "涉及": 9149,
      "明显": 9150,
      "##辨率": 9151,
      "58": 9152,
      "均匀": 9153,
      "2009": 9154,
      "重建": 9155,
      "实例": 9156,
      "60": 9157,
      "##条件": 9158,
      "指标": 9159,
      "分解": 9160,
      "##ski": 9161,
      "or": 9162,
      "适用": 9163,
      "一组": 9164,
      "##tion": 9165,
      "##to": 9166,
      "脚注": 9167,
      "##orm": 9168,
      "65": 9169,
      "ij": 9170,
      "要求": 9171,
      "微分": 9172,
      "知识": 9173,
      "approx": 9174,
      "效率": 9175,
      "能力": 9176,
      "不变": 9177,
      "99": 9178,
      "捕获": 9179,
      "调整": 9180,
      "结论": 9181,
      "##16": 9182,
      "##08": 9183,
      "完成": 9184,
      "抽象": 9185,
      "任意": 9186,
      "59": 9187,
      "st": 9188,
      "理解": 9189,
      "文本": 9190,
      "标量": 9191,
      "黑洞": 9192,
      "推理": 9193,
      "Tran": 9194,
      "Ma": 9195,
      "探测": 9196,
      "##ci": 9197,
      "overline": 9198,
      "##ler": 9199,
      "大量": 9200,
      "分量": 9201,
      "即使": 9202,
      "扰动": 9203,
      "预期": 9204,
      "额外": 9205,
      "pt": 9206,
      "决策": 9207,
      "62": 9208,
      "63": 9209,
      "功率": 9210,
      "##CA": 9211,
      "规则": 9212,
      "收集": 9213,
      "##项式": 9214,
      "坐标": 9215,
      "##方面": 9216,
      "Sigma": 9217,
      "评论": 9218,
      "变得": 9219,
      "引起": 9220,
      "De": 9221,
      "存储": 9222,
      "阈值": 9223,
      "##来说": 9224,
      "Al": 9225,
      "尺寸": 9226,
      "结合": 9227,
      "等式": 9228,
      "散射": 9229,
      "##ger": 9230,
      "扩散": 9231,
      "##IS": 9232,
      "快速": 9233,
      "莱特": 9234,
      "速率": 9235,
      "内部": 9236,
      "##ett": 9237,
      "##FT": 9238,
      "偏差": 9239,
      "09": 9240,
      "工具": 9241,
      "演化": 9242,
      "注意力": 9243,
      "67": 9244,
      "##oh": 9245,
      "相反": 9246,
      "##ie": 9247,
      "现有": 9248,
      "论文集": 9249,
      "de": 9250,
      "分子": 9251,
      "单元": 9252,
      "##科学": 9253,
      "##AS": 9254,
      "哈密": 9255,
      "##au": 9256,
      "neq": 9257,
      "可用": 9258,
      "95": 9259,
      "大多": 9260,
      "2008": 9261,
      "流体": 9262,
      "##文献": 9263,
      "66": 9264,
      "参考文献": 9265,
      "了解": 9266,
      "唯一": 9267,
      "61": 9268,
      "交互": 9269,
      "Pro": 9270,
      "期间": 9271,
      "版本": 9272,
      "回归": 9273,
      "建议": 9274,
      "改变": 9275,
      "生物": 9276,
      "单位": 9277,
      "延迟": 9278,
      "之一": 9279,
      "活动": 9280,
      "人工": 9281,
      "Rev": 9282,
      "参与": 9283,
      "基线": 9284,
      "下降": 9285,
      "费米": 9286,
      "数字": 9287,
      "编码器": 9288,
      "恢复": 9289,
      "此类": 9290,
      "说明": 9291,
      "无线": 9292,
      "68": 9293,
      "CO": 9294,
      "成功": 9295,
      "人类": 9296,
      "org": 9297,
      "##分布": 9298,
      "多项式": 9299,
      "##irc": 9300,
      "程序": 9301,
      "##ner": 9302,
      "97": 9303,
      "85": 9304,
      "遵循": 9305,
      "Ad": 9306,
      "传感器": 9307,
      "组件": 9308,
      "张量": 9309,
      "除了": 9310,
      "69": 9311,
      "传统": 9312,
      "光学": 9313,
      "至少": 9314,
      "##ein": 9315,
      "印本": 9316,
      "顺序": 9317,
      "##PS": 9318,
      "晶格": 9319,
      "..": 9320,
      "创建": 9321,
      "正则": 9322,
      "跟踪": 9323,
      "哈密顿": 9324,
      "语义": 9325,
      "容易": 9326,
      "##sc": 9327,
      "在线": 9328,
      "大多数": 9329,
      "77": 9330,
      "来说": 9331,
      "项目": 9332,
      "ex": 9333,
      "com": 9334,
      "高度": 9335,
      "##ian": 9336,
      "##10": 9337,
      "联合": 9338,
      "简介": 9339,
      "资源": 9340,
      "电荷": 9341,
      "交叉": 9342,
      "依赖性": 9343,
      "big": 9344,
      "依赖于": 9345,
      "异常": 9346,
      "min": 9347,
      "响应": 9348,
      "##EP": 9349,
      "合成": 9350,
      "投影": 9351,
      "感知": 9352,
      "##ei": 9353,
      "集上": 9354,
      "平均值": 9355,
      "像素": 9356,
      "72": 9357,
      "简化": 9358,
      "访问": 9359,
      "最小化": 9360,
      "查询": 9361,
      "事实上": 9362,
      "SS1": 9363,
      "量化": 9364,
      "2007": 9365,
      "另一": 9366,
      "几乎": 9367,
      "有趣": 9368,
      "2006": 9369,
      "交换": 9370,
      "80": 9371,
      "调查": 9372,
      "物体": 9373,
      "##eng": 9374,
      "构造": 9375,
      "不可": 9376,
      "代数": 9377,
      "脉冲": 9378,
      "工程": 9379,
      "##程序": 9380,
      "circ": 9381,
      "##ok": 9382,
      "本节": 9383,
      "##ez": 9384,
      "振荡": 9385,
      "保留": 9386,
      "##下文": 9387,
      "##CC": 9388,
      "辐射": 9389,
      "渐近": 9390,
      "修改": 9391,
      "76": 9392,
      "##13": 9393,
      "接收": 9394,
      "程度": 9395,
      "相位": 9396,
      "##ist": 9397,
      "##se": 9398,
      "覆盖": 9399,
      "文献": 9400,
      "78": 9401,
      "基准": 9402,
      "分辨率": 9403,
      "ii": 9404,
      "这一": 9405,
      "解码": 9406,
      "He": 9407,
      "Sp": 9408,
      "碰撞": 9409,
      "73": 9410,
      "98": 9411,
      "74": 9412,
      "CNN": 9413,
      "稀疏": 9414,
      "纠缠": 9415,
      "mathsf": 9416,
      "动量": 9417,
      "rightarrow": 9418,
      "Hu": 9419,
      "以便": 9420,
      "国家": 9421,
      "先验": 9422,
      "星系": 9423,
      "79": 9424,
      "##uk": 9425,
      "表达式": 9426,
      "##SE": 9427,
      "An": 9428,
      "82": 9429,
      "确保": 9430,
      "缩放": 9431,
      "语音": 9432,
      "##iz": 9433,
      "##hat": 9434,
      "96": 9435,
      "平滑": 9436,
      "规划": 9437,
      "对抗": 9438,
      "第三": 9439,
      "不能": 9440,
      "分离": 9441,
      "稳定性": 9442,
      "##ith": 9443,
      "临界": 9444,
      "##方程": 9445,
      "87": 9446,
      "明确": 9447,
      "共享": 9448,
      "物质": 9449,
      "聚类": 9450,
      "93": 9451,
      "##ud": 9452,
      "电流": 9453,
      "vec": 9454,
      "##pt": 9455,
      "##ID": 9456,
      "90": 9457,
      "世界": 9458,
      "##信息": 9459,
      "半径": 9460,
      "比例": 9461,
      "##等式": 9462,
      "##ert": 9463,
      "激发": 9464,
      "性质": 9465,
      "体积": 9466,
      "##数据": 9467,
      "##规模": 9468,
      "命题": 9469,
      "Mar": 9470,
      "GP": 9471,
      "Co": 9472,
      "cup": 9473,
      "磁场": 9474,
      "显着": 9475,
      "##一化": 9476,
      "化学": 9477,
      "##ich": 9478,
      "##est": 9479,
      "...": 9480,
      "##时间": 9481,
      "归一化": 9482,
      "压缩": 9483,
      "##表明": 9484,
      "鲁棒": 9485,
      "广义": 9486,
      "##ill": 9487,
      "波动": 9488,
      "忽略": 9489,
      "另一方面": 9490,
      "建立": 9491,
      "##IM": 9492,
      "##NR": 9493,
      "信道": 9494,
      "准确性": 9495,
      "86": 9496,
      "颜色": 9497,
      "83": 9498,
      "奖励": 9499,
      "cdots": 9500,
      "94": 9501,
      "92": 9502,
      "优于": 9503,
      "70": 9504,
      "只有": 9505,
      "辅助": 9506,
      "84": 9507,
      "Liu": 9508,
      "##ani": 9509,
      "集成": 9510,
      "上下文": 9511,
      "88": 9512,
      "wid": 9513,
      "附近": 9514,
      "##ide": 9515,
      "71": 9516,
      "良好": 9517,
      "注释": 9518,
      "目的": 9519,
      "##ass": 9520,
      "##eb": 9521,
      "表征": 9522,
      "先进": 9523,
      "总结": 9524,
      "89": 9525,
      "方差": 9526,
      "##io": 9527,
      "Com": 9528,
      "敏感": 9529,
      "2005": 9530,
      "##下来": 9531,
      "重复": 9532,
      "记录": 9533,
      "##bf": 9534,
      "聚合": 9535,
      "强化": 9536,
      "##min": 9537,
      "成立": 9538,
      "时空": 9539,
      "幅度": 9540,
      "较大": 9541,
      "##AC": 9542,
      "定位": 9543,
      "协议": 9544,
      "保证": 9545,
      "成为": 9546,
      "二维": 9547,
      "之后": 9548,
      "III": 9549,
      "子集": 9550,
      "widet": 9551,
      "widetilde": 9552,
      "ast": 9553,
      "CV": 9554,
      "车辆": 9555,
      "##rak": 9556,
      "mbox": 9557,
      "下面": 9558,
      "接下来": 9559,
      "衰减": 9560,
      "决定": 9561,
      "应用程序": 9562,
      "##ss": 9563,
      "81": 9564,
      "##PR": 9565,
      "##ord": 9566,
      "2004": 9567,
      "级别": 9568,
      "复杂性": 9569,
      "例子": 9570,
      "一样": 9571,
      "获取": 9572,
      "通量": 9573,
      "大规模": 9574,
      "研究所": 9575,
      "风险": 9576,
      "##ens": 9577,
      "##CD": 9578,
      "cap": 9579,
      "##离子": 9580,
      "超过": 9581,
      "特征值": 9582,
      "持续": 9583,
      "案例": 9584,
      "##ew": 9585,
      "看出": 9586,
      "等于": 9587,
      "ML": 9588,
      "##aw": 9589,
      "textbf": 9590,
      "相干": 9591,
      "四个": 9592,
      "##ai": 9593,
      "值得": 9594,
      "一点": 9595,
      "##智能": 9596,
      "人工智能": 9597,
      "现实": 9598,
      "##ek": 9599,
      "重点": 9600,
      "避免": 9601,
      "of": 9602,
      "天体": 9603,
      "CP": 9604,
      "##15": 9605,
      "索引": 9606,
      "严格": 9607,
      "或者": 9608,
      "ed": 9609,
      "牧师": 9610,
      "##14": 9611,
      "哈密顿量": 9612,
      "原因": 9613,
      "无限": 9614,
      "结果表明": 9615,
      "##结构": 9616,
      "经验": 9617,
      "校正": 9618,
      "红色": 9619,
      "Psi": 9620,
      "研讨": 9621,
      "研讨会": 9622,
      "第二个": 9623,
      "超导": 9624,
      "界限": 9625,
      "##19": 9626,
      "分支": 9627,
      "激光": 9628,
      "SM": 9629,
      "Pr": 9630,
      "目前": 9631,
      "很大": 9632,
      "##识别": 9633,
      "解析": 9634,
      "for": 9635,
      "转变": 9636,
      "绘制": 9637,
      "Zhang": 9638,
      "几个": 9639,
      "推导": 9640,
      "##ern": 9641,
      "##rop": 9642,
      "反射": 9643,
      "Con": 9644,
      "##18": 9645,
      "探测器": 9646,
      "本地": 9647,
      "那样": 9648,
      "增长": 9649,
      "软件": 9650,
      "内存": 9651,
      "现象": 9652,
      "期望": 9653,
      "分类器": 9654,
      "电路": 9655,
      "int": 9656,
      "196": 9657,
      "##ack": 9658,
      "Ar": 9659,
      "加权": 9660,
      "干扰": 9661,
      "##OS": 9662,
      "适当": 9663,
      "##AP": 9664,
      "subseteq": 9665,
      "高效": 9666,
      "变形": 9667,
      "纳米": 9668,
      "带有": 9669,
      "##ann": 9670,
      "textrm": 9671,
      "内容": 9672,
      "##chi": 9673,
      "删除": 9674,
      "出版": 9675,
      "同样": 9676,
      "细胞": 9677,
      "已知": 9678,
      "##ah": 9679,
      "zeta": 9680,
      "因素": 9681,
      "Pi": 9682,
      "##17": 9683,
      "接触": 9684,
      "启发": 9685,
      "##IC": 9686,
      "隐私": 9687,
      "set": 9688,
      "总体": 9689,
      "Ro": 9690,
      "##分析": 9691,
      "计划": 9692,
      "夸克": 9693,
      "##sh": 9694,
      "##35": 9695,
      "候选": 9696,
      "转移": 9697,
      "##ark": 9698,
      "导数": 9699,
      "##DE": 9700,
      "合并": 9701,
      "压力": 9702,
      "核心": 9703,
      "##ach": 9704,
      "##ity": 9705,
      "流形": 9706,
      "不等式": 9707,
      "流行": 9708,
      "##ef": 9709,
      "##Hz": 9710,
      "区分": 9711,
      "##45": 9712,
      "col": 9713,
      "激活": 9714,
      "同一": 9715,
      "反应": 9716,
      "Mo": 9717,
      "经过": 9718,
      "2000": 9719,
      "2003": 9720,
      "垂直": 9721,
      "恒定": 9722,
      "无人": 9723,
      "各向": 9724,
      "结束": 9725,
      "参与者": 9726,
      "JH": 9727,
      "模态": 9728,
      "##ton": 9729,
      "替代": 9730,
      "玻色": 9731,
      "00": 9732,
      "进展": 9733,
      "##end": 9734,
      "multirow": 9735,
      "##abla": 9736,
      "蓝色": 9737,
      "equ": 9738,
      "##tr": 9739,
      "IV": 9740,
      "感谢": 9741,
      "2002": 9742,
      "##DM": 9743,
      "有效性": 9744,
      "nabla": 9745,
      "反馈": 9746,
      "似乎": 9747,
      "视图": 9748,
      "##az": 9749,
      "##ini": 9750,
      "实际上": 9751,
      "Res": 9752,
      "主题": 9753,
      "峰值": 9754,
      "三角": 9755,
      "中微": 9756,
      "推断": 9757,
      "贝叶": 9758,
      "贝叶斯": 9759,
      "融合": 9760,
      "ST": 9761,
      "有用": 9762,
      "效果": 9763,
      "无人机": 9764,
      "指定": 9765,
      "CS": 9766,
      "中微子": 9767,
      "edu": 9768,
      "##pl": 9769,
      "离子": 9770,
      "对数": 9771,
      "##men": 9772,
      "JHEP": 9773,
      "Trans": 9774,
      "ACM": 9775,
      "平台": 9776,
      "可行": 9777,
      "更加": 9778,
      "##ari": 9779,
      "一致性": 9780,
      "2D": 9781,
      "##兴趣": 9782,
      "##ts": 9783,
      "成像": 9784,
      "具体来说": 9785,
      "上限": 9786,
      "周围": 9787,
      "##23": 9788,
      "Gu": 9789,
      "equiv": 9790,
      "物理学家": 9791,
      "二次": 9792,
      "金属": 9793,
      "##ier": 9794,
      "展开": 9795,
      "一项": 9796,
      "费米子": 9797,
      "逻辑": 9798,
      "大型": 9799,
      "##25": 9800,
      "重力": 9801,
      "可靠": 9802,
      "消除": 9803,
      "整数": 9804,
      "比率": 9805,
      "mathf": 9806,
      "mathfrak": 9807,
      "社会": 9808,
      "旨在": 9809,
      "弹性": 9810,
      "最大化": 9811,
      "意义": 9812,
      "矢量": 9813,
      "游戏": 9814,
      "wide": 9815,
      "分布式": 9816,
      "一起": 9817,
      "典型": 9818,
      "小于": 9819,
      "偏振": 9820,
      "早期": 9821,
      "SS2": 9822,
      "感兴趣": 9823,
      "替换": 9824,
      "等离子": 9825,
      "预计": 9826,
      "虚线": 9827,
      "微分方程": 9828,
      "分为": 9829,
      "##ao": 9830,
      "##CS": 9831,
      "消失": 9832,
      "##mann": 9833,
      "补充": 9834,
      "widehat": 9835,
      "统一": 9836,
      "附加": 9837,
      "CM": 9838,
      "天文": 9839,
      "帮助": 9840,
      "ab": 9841,
      "可能性": 9842,
      "发展": 9843,
      "##24": 9844,
      "运算": 9845,
      "##助于": 9846,
      "间隔": 9847,
      "1000": 9848,
      "##minus": 9849,
      "##AT": 9850,
      "实验室": 9851,
      "SP": 9852,
      "正交": 9853,
      "表格": 9854,
      "##ech": 9855,
      "PS": 9856,
      "组织": 9857,
      "无关": 9858,
      "2001": 9859,
      "the": 9860,
      "##oc": 9861,
      "##our": 9862,
      "相对论": 9863,
      "导出": 9864,
      "尝试": 9865,
      "交易": 9866,
      "等离子体": 9867,
      "新颖": 9868,
      "##DP": 9869,
      "##异性": 9870,
      "中间": 9871,
      "知道": 9872,
      "cline": 9873,
      "做出": 9874,
      "接受": 9875,
      "##普林": 9876,
      "主导": 9877,
      "其余": 9878,
      "Lin": 9879,
      "setminus": 9880,
      "频谱": 9881,
      "Yu": 9882,
      "有助于": 9883,
      "DM": 9884,
      "整体": 9885,
      "属于": 9886,
      "共振": 9887,
      "同步": 9888,
      "特殊": 9889,
      "宽度": 9890,
      "单独": 9891,
      "单词": 9892,
      "变体": 9893,
      "dag": 9894,
      "Br": 9895,
      "并行": 9896,
      "先前": 9897,
      "施普林": 9898,
      "吸收": 9899,
      "低于": 9900,
      "##重要": 9901,
      "三种": 9902,
      "服务器": 9903,
      "Un": 9904,
      "合作": 9905,
      "重叠": 9906,
      "Yang": 9907,
      "91": 9908,
      "##ore": 9909,
      "合理": 9910,
      "##ick": 9911,
      "常见": 9912,
      "dagger": 9913,
      "扫描": 9914,
      "滤波": 9915,
      "宇宙学": 9916,
      "可视": 9917,
      "##DF": 9918,
      "IS": 9919,
      "间隙": 9920,
      "请参": 9921,
      "请参阅": 9922,
      "##ish": 9923,
      "可视化": 9924,
      "施加": 9925,
      "链路": 9926,
      "Theta": 9927,
      "原理": 9928,
      "必要": 9929,
      "IC": 9930,
      "上面": 9931,
      "理想": 9932,
      "群体": 9933,
      "AP": 9934,
      "不仅": 9935,
      "细节": 9936,
      "希望": 9937,
      "隐藏": 9938,
      "##系列": 9939,
      "SO": 9940,
      "一定": 9941,
      "一系列": 9942,
      "抑制": 9943,
      "马尔": 9944,
      "大约": 9945,
      "对齐": 9946,
      "至关": 9947,
      "##sl": 9948,
      "至关重要": 9949,
      "##ne": 9950,
      "##ung": 9951,
      "Ab": 9952,
      "是从": 9953,
      "困难": 9954,
      "强调": 9955,
      "衰变": 9956,
      "射线": 9957,
      "见图": 9958,
      "初始化": 9959,
      "发送": 9960,
      "##AE": 9961,
      "ac": 9962,
      "详细信息": 9963,
      "Proc": 9964,
      "500": 9965,
      "地面": 9966,
      "一次": 9967,
      "2023": 9968,
      "趋势": 9969,
      "##ull": 9970,
      "##物质": 9971,
      "对比": 9972,
      "con": 9973,
      "管理": 9974,
      "需求": 9975,
      "甚至": 9976,
      "##oft": 9977,
      "到达": 9978,
      "概述": 9979,
      "计数": 9980,
      "回顾": 9981,
      "未知": 9982,
      "界面": 9983,
      "范数": 9984,
      "##inger": 9985,
      "多种": 9986,
      "##ib": 9987,
      "开放": 9988,
      "次数": 9989,
      "##berg": 9990,
      "缺陷": 9991,
      "带来": 9992,
      "载于": 9993,
      "排序": 9994,
      "##88": 9995,
      "##26": 9996,
      "虚拟": 9997,
      "一下": 9998,
      "##eck": 9999,
      "##ph": 10000,
      "Mat": 10001,
      "##sim": 10002,
      "稳健": 10003,
      "令人": 10004,
      "为此": 10005,
      "静态": 10006,
      "IR": 10007,
      "##ue": 10008,
      "Lu": 10009,
      "Go": 10010,
      "##OM": 10011,
      "Di": 10012,
      "正在": 10013,
      "竞争": 10014,
      "再次": 10015,
      "每次": 10016,
      "处于": 10017,
      "模式识别": 10018,
      "区间": 10019,
      "确实": 10020,
      "过滤": 10021,
      "适合": 10022,
      "##可夫": 10023,
      "纽约": 10024,
      "定量": 10025,
      "Ne": 10026,
      "nm": 10027,
      "##GB": 10028,
      "相邻": 10029,
      "实时": 10030,
      "马尔可夫": 10031,
      "Net": 10032,
      "而且": 10033,
      "校准": 10034,
      "玻色子": 10035,
      "曲率": 10036,
      "保护": 10037,
      "太阳": 10038,
      "##克斯": 10039,
      "解码器": 10040,
      "##27": 10041,
      "气体": 10042,
      "##49": 10043,
      "Lee": 10044,
      "大于": 10045,
      "清楚": 10046,
      "始终": 10047,
      "部署": 10048,
      "128": 10049,
      "##38": 10050,
      "##ormer": 10051,
      "消息": 10052,
      "编辑": 10053,
      "步长": 10054,
      "对角": 10055,
      "##LP": 10056,
      "##times": 10057,
      "内核": 10058,
      "鲁棒性": 10059,
      "关联": 10060,
      "暗物质": 10061,
      "##EC": 10062,
      "Sc": 10063,
      "Ho": 10064,
      "控制器": 10065,
      "##ence": 10066,
      "边界条件": 10067,
      "##har": 10068,
      "绝对": 10069,
      "Bar": 10070,
      "Tr": 10071,
      "晶体": 10072,
      "Lett": 10073,
      "##ES": 10074,
      "邻居": 10075,
      "基态": 10076,
      "是因": 10077,
      "是因为": 10078,
      "##ast": 10079,
      "充分": 10080,
      "##enk": 10081,
      "##50": 10082,
      "exp": 10083,
      "指出": 10084,
      "Car": 10085,
      "汇刊": 10086,
      "客户": 10087,
      "轮廓": 10088,
      "奇异": 10089,
      "神经元": 10090,
      "##注意": 10091,
      "##36": 10092,
      "##ure": 10093,
      "联系": 10094,
      "颗粒": 10095,
      "优势": 10096,
      "##ate": 10097,
      "最高": 10098,
      "值得注意": 10099,
      "一维": 10100,
      "300": 10101,
      "Sha": 10102,
      "负载": 10103,
      "Gr": 10104,
      "SU": 10105,
      "调制": 10106,
      "人员": 10107,
      "##20": 10108,
      "中国": 10109,
      "真空": 10110,
      "Bo": 10111,
      "对抗性": 10112,
      "cm": 10113,
      "最初": 10114,
      "##37": 10115,
      "相机": 10116,
      "窗口": 10117,
      "##下式": 10118,
      "极化": 10119,
      "##its": 10120,
      "本身": 10121,
      "驾驶": 10122,
      "排列": 10123,
      "##RL": 10124,
      "价值": 10125,
      "由下式": 10126,
      "##变量": 10127,
      "否则": 10128,
      "密集": 10129,
      "对偶": 10130,
      "滤波器": 10131,
      "AS": 10132,
      "模糊": 10133,
      "##yn": 10134,
      "##aj": 10135,
      "Mc": 10136,
      "##44": 10137,
      "演示": 10138,
      "返回": 10139,
      "##he": 10140,
      "And": 10141,
      "缺乏": 10142,
      "##IT": 10143,
      "术语": 10144,
      "机械": 10145,
      "##29": 10146,
      "图中": 10147,
      "MP": 10148,
      "调度": 10149,
      "##int": 10150,
      "置信": 10151,
      "##21": 10152,
      "##oll": 10153,
      "迁移": 10154,
      "En": 10155,
      "BS": 10156,
      "欧洲": 10157,
      "经济": 10158,
      "扭曲": 10159,
      "1999": 10160,
      "膨胀": 10161,
      "本质": 10162,
      "历史": 10163,
      "一部分": 10164,
      "传递": 10165,
      "就是": 10166,
      "实施": 10167,
      "横向": 10168,
      "##low": 10169,
      "成分": 10170,
      "取得": 10171,
      "微调": 10172,
      "##ry": 10173,
      "##sky": 10174,
      "Su": 10175,
      "显然": 10176,
      "流动": 10177,
      "1998": 10178,
      "证据": 10179,
      "##记录": 10180,
      "直到": 10181,
      "CI": 10182,
      "而是": 10183,
      "推论": 10184,
      "泛化": 10185,
      "系列": 10186,
      "##拉斯": 10187,
      "##48": 10188,
      "实体": 10189,
      "##ke": 10190,
      "挑战性": 10191,
      "ll": 10192,
      "社区": 10193,
      "Ge": 10194,
      "Fe": 10195,
      "增益": 10196,
      "##IP": 10197,
      "致谢": 10198,
      "复杂度": 10199,
      "otimes": 10200,
      "数据库": 10201,
      "天线": 10202,
      "##99": 10203,
      "Wil": 10204,
      "其次": 10205,
      "吸引": 10206,
      "重要性": 10207,
      "后者": 10208,
      "##空间": 10209,
      "##iss": 10210,
      "医学": 10211,
      "编号": 10212,
      "相交": 10213,
      "相似性": 10214,
      "光束": 10215,
      "##fs": 10216,
      "##ort": 10217,
      "公共": 10218,
      "##scr": 10219,
      "患者": 10220,
      "Si": 10221,
      "##ect": 10222,
      "SC": 10223,
      "二元": 10224,
      "mathscr": 10225,
      "因果": 10226,
      "某个": 10227,
      "Kim": 10228,
      "列表": 10229,
      "更大": 10230,
      "##STM": 10231,
      "句子": 10232,
      "ket": 10233,
      "无论": 10234,
      "所述": 10235,
      "剑桥": 10236,
      "完美": 10237,
      "相变": 10238,
      "##CN": 10239,
      "硬件": 10240,
      "起来": 10241,
      "正常": 10242,
      "学生": 10243,
      "Per": 10244,
      "分层": 10245,
      "##33": 10246,
      "推广": 10247,
      "SL": 10248,
      "001": 10249,
      "揭示": 10250,
      "##DA": 10251,
      "均值": 10252,
      "cos": 10253,
      "过去": 10254,
      "二阶": 10255,
      "##ear": 10256,
      "1103": 10257,
      "##ano": 10258,
      "文件": 10259,
      "后验": 10260,
      "Gra": 10261,
      "##ans": 10262,
      "CR": 10263,
      "卫星": 10264,
      "波束": 10265,
      "##EM": 10266,
      "an": 10267,
      "普遍": 10268,
      "##28": 10269,
      "Mor": 10270,
      "划分": 10271,
      "Wu": 10272,
      "##ice": 10273,
      "Ac": 10274,
      "##ightarrow": 10275,
      "106": 10276,
      "破坏": 10277,
      "##ee": 10278,
      "105": 10279,
      "最小值": 10280,
      "on": 10281,
      "top": 10282,
      "沿着": 10283,
      "姿势": 10284,
      "Ber": 10285,
      "##ET": 10286,
      "流程": 10287,
      "##IR": 10288,
      "per": 10289,
      "195": 10290,
      "显式": 10291,
      "##ash": 10292,
      "公平": 10293,
      "##ink": 10294,
      "中子": 10295,
      "多样": 10296,
      "Qu": 10297,
      "感染": 10298,
      "##ERT": 10299,
      "一阶": 10300,
      "##47": 10301,
      "##ree": 10302,
      "##ork": 10303,
      "star": 10304,
      "##pe": 10305,
      "##rom": 10306,
      "出版社": 10307,
      "##ley": 10308,
      "生成器": 10309,
      "##ond": 10310,
      "各向异性": 10311,
      "如表": 10312,
      "Xu": 10313,
      "单调": 10314,
      "众所": 10315,
      "##周知": 10316,
      "众所周知": 10317,
      "样品": 10318,
      "放大": 10319,
      "规模": 10320,
      "检索": 10321,
      "##II": 10322,
      "湍流": 10323,
      "阵列": 10324,
      "Zhu": 10325,
      "可见": 10326,
      "确定性": 10327,
      "放置": 10328,
      "面板": 10329,
      "##密度": 10330,
      "MR": 10331,
      "##OT": 10332,
      "修正": 10333,
      "引导": 10334,
      "波长": 10335,
      "学院": 10336,
      "##ank": 10337,
      "会议记录": 10338,
      "多重": 10339,
      "##bar": 10340,
      "如此": 10341,
      "Par": 10342,
      "小时": 10343,
      "残差": 10344,
      "想法": 10345,
      "sin": 10346,
      "通讯": 10347,
      "##ve": 10348,
      "检测器": 10349,
      "信息处理": 10350,
      "##Rev": 10351,
      "等效": 10352,
      "个体": 10353,
      "谐振": 10354,
      "Transf": 10355,
      "##22": 10356,
      "定性": 10357,
      "##学院": 10358,
      "交通": 10359,
      "##斯坦": 10360,
      "振幅": 10361,
      "快报": 10362,
      "##46": 10363,
      "排名": 10364,
      "MS": 10365,
      "用作": 10366,
      "复合": 10367,
      "##of": 10368,
      "丰富": 10369,
      "无需": 10370,
      "流量": 10371,
      "图形": 10372,
      "##ly": 10373,
      "随后": 10374,
      "##ets": 10375,
      "##hou": 10376,
      "##ix": 10377,
      "##75": 10378,
      "FL": 10379,
      "色散": 10380,
      "not": 10381,
      "障碍": 10382,
      "##ost": 10383,
      "Sim": 10384,
      "热力学": 10385,
      "##LS": 10386,
      "周期性": 10387,
      "AR": 10388,
      "填充": 10389,
      "RIS": 10390,
      "要么": 10391,
      "##模型": 10392,
      "强大": 10393,
      "自由度": 10394,
      "寻找": 10395,
      "来看": 10396,
      "##43": 10397,
      "地图": 10398,
      "高阶": 10399,
      "只是": 10400,
      "拉格": 10401,
      "##ata": 10402,
      "CA": 10403,
      "共同": 10404,
      "##lu": 10405,
      "减小": 10406,
      "各个": 10407,
      "推荐": 10408,
      "Po": 10409,
      "总是": 10410,
      "MC": 10411,
      "右侧": 10412,
      "径向": 10413,
      "变分": 10414,
      "GAN": 10415,
      "SV": 10416,
      "高于": 10417,
      "蒙特": 10418,
      "提到": 10419,
      "最大值": 10420,
      "字符": 10421,
      "##ron": 10422,
      "只能": 10423,
      "Ba": 10424,
      "##语言": 10425,
      "GPU": 10426,
      "up": 10427,
      "Sci": 10428,
      "SS3": 10429,
      "三角形": 10430,
      "个人": 10431,
      "##math": 10432,
      "##amp": 10433,
      "故障": 10434,
      "治疗": 10435,
      "SSIII": 10436,
      "位移": 10437,
      "每种": 10438,
      "##stein": 10439,
      "pg": 10440,
      "反映": 10441,
      "能源": 10442,
      "##eh": 10443,
      "di": 10444,
      "证实": 10445,
      "排除": 10446,
      "高级": 10447,
      "CT": 10448,
      "等价": 10449,
      "而言": 10450,
      "##flo": 10451,
      "拉格朗": 10452,
      "平凡": 10453,
      "综合": 10454,
      "才能": 10455,
      "1997": 10456,
      "##di": 10457,
      "DNN": 10458,
      "长期": 10459,
      "##imeq": 10460,
      "GeV": 10461,
      "##方法": 10462,
      "PhysRev": 10463,
      "1996": 10464,
      "##co": 10465,
      "simeq": 10466,
      "##eld": 10467,
      "##LM": 10468,
      "##enn": 10469,
      "联网": 10470,
      "LSTM": 10471,
      "Ni": 10472,
      "巨大": 10473,
      "NS": 10474,
      "##ED": 10475,
      "##oss": 10476,
      "##39": 10477,
      "##PT": 10478,
      "##tic": 10479,
      "基因": 10480,
      "pro": 10481,
      "##nder": 10482,
      "集群": 10483,
      "激励": 10484,
      "备注": 10485,
      "SD": 10486,
      "音频": 10487,
      "一旦": 10488,
      "分区": 10489,
      "##och": 10490,
      "什么": 10491,
      "守恒": 10492,
      "##成本": 10493,
      "##floor": 10494,
      "衡量": 10495,
      "绿色": 10496,
      "qu": 10497,
      "Shi": 10498,
      "##IN": 10499,
      "##控制": 10500,
      "严重": 10501,
      "##ug": 10502,
      "格斯": 10503,
      "光度": 10504,
      "SR": 10505,
      "ResNet": 10506,
      "Sa": 10507,
      "平方": 10508,
      "ln": 10509,
      "最低": 10510,
      "##ram": 10511,
      "自动化": 10512,
      "##mo": 10513,
      "灵活": 10514,
      "##结合": 10515,
      "##ind": 10516,
      "最新": 10517,
      "Cha": 10518,
      "信号处理": 10519,
      "Comm": 10520,
      "顶部": 10521,
      "256": 10522,
      "独特": 10523,
      "##伯特": 10524,
      "SN": 10525,
      "108": 10526,
      "Huang": 10527,
      "似然": 10528,
      "所以": 10529,
      "继续": 10530,
      "lim": 10531,
      "Transformer": 10532,
      "在于": 10533,
      "修复": 10534,
      "进入": 10535,
      "##tz": 10536,
      "##方差": 10537,
      "##res": 10538,
      "协方差": 10539,
      "##itz": 10540,
      "Pl": 10541,
      "##40": 10542,
      "按照": 10543,
      "##77": 10544,
      "GR": 10545,
      "造成": 10546,
      "连通": 10547,
      "Lo": 10548,
      "电磁": 10549,
      "自己": 10550,
      "##如此": 10551,
      "主动": 10552,
      "标准化": 10553,
      "##LR": 10554,
      "过渡": 10555,
      "109": 10556,
      "##向量": 10557,
      "一节": 10558,
      "##所述": 10559,
      "em": 10560,
      "##55": 10561,
      "来源": 10562,
      "椭圆": 10563,
      "SSIV": 10564,
      "Pa": 10565,
      "德国": 10566,
      "AB": 10567,
      "乘积": 10568,
      "Py": 10569,
      "##put": 10570,
      "101": 10571,
      "RM": 10572,
      "Sm": 10573,
      "PM": 10574,
      "奇点": 10575,
      "批量": 10576,
      "累积": 10577,
      "CVPR": 10578,
      "##out": 10579,
      "EM": 10580,
      "No": 10581,
      "ch": 10582,
      "相当于": 10583,
      "一般来说": 10584,
      "##oth": 10585,
      "mid": 10586,
      "行星": 10587,
      "分裂": 10588,
      "发挥": 10589,
      "插入": 10590,
      "##物理": 10591,
      "总和": 10592,
      "##ment": 10593,
      "相结合": 10594,
      "RS": 10595,
      "耗散": 10596,
      "波函数": 10597,
      "电压": 10598,
      "定律": 10599,
      "##ign": 10600,
      "##ica": 10601,
      "ID": 10602,
      "介质": 10603,
      "容量": 10604,
      "偏移": 10605,
      "协作": 10606,
      "呈现": 10607,
      "跳跃": 10608,
      "##if": 10609,
      "Nat": 10610,
      "配对": 10611,
      "##201": 10612,
      "社交": 10613,
      "Int": 10614,
      "区块": 10615,
      "RL": 10616,
      "##TS": 10617,
      "125": 10618,
      "##tit": 10619,
      "tr": 10620,
      "##VID": 10621,
      "平坦": 10622,
      "蒙特卡": 10623,
      "##sch": 10624,
      "年龄": 10625,
      "AA": 10626,
      "##OC": 10627,
      "记忆": 10628,
      "##arn": 10629,
      "ww": 10630,
      "##质量": 10631,
      "权衡": 10632,
      "收缩": 10633,
      "资助": 10634,
      "##mer": 10635,
      "##邮件": 10636,
      "##rightarrow": 10637,
      "带宽": 10638,
      "##one": 10639,
      "但是": 10640,
      "##han": 10641,
      "1995": 10642,
      "Pet": 10643,
      "Ha": 10644,
      "石墨": 10645,
      "##96": 10646,
      "准备": 10647,
      "质子": 10648,
      "##技术": 10649,
      "##30": 10650,
      "##tions": 10651,
      "##ura": 10652,
      "运算符": 10653,
      "##进制": 10654,
      "ISS": 10655,
      "跃迁": 10656,
      "面积": 10657,
      "停止": 10658,
      "紧凑": 10659,
      "www": 10660,
      "MIM": 10661,
      "黑色": 10662,
      "地球": 10663,
      "介子": 10664,
      "##系数": 10665,
      "Cl": 10666,
      "城市": 10667,
      "##ohn": 10668,
      "Bi": 10669,
      "##ino": 10670,
      "第四": 10671,
      "身份": 10672,
      "强烈": 10673,
      "剩余": 10674,
      "##31": 10675,
      "价格": 10676,
      "人口": 10677,
      "切换": 10678,
      "与其": 10679,
      "##误差": 10680,
      "115": 10681,
      "实线": 10682,
      "##87": 10683,
      "QCD": 10684,
      "odot": 10685,
      "##lex": 10686,
      "RGB": 10687,
      "简并": 10688,
      "##te": 10689,
      "一条": 10690,
      "无序": 10691,
      "##za": 10692,
      "forall": 10693,
      "动力": 10694,
      "二进制": 10695,
      "##之下": 10696,
      "相比之下": 10697,
      "一对": 10698,
      "##100": 10699,
      "##ris": 10700,
      "磁化": 10701,
      "仿真": 10702,
      "点云": 10703,
      "表述": 10704,
      "##AI": 10705,
      "不断": 10706,
      "发布": 10707,
      "着色": 10708,
      "过度": 10709,
      "SSV": 10710,
      "持续时间": 10711,
      "毫米": 10712,
      "##ald": 10713,
      "小节": 10714,
      "SS4": 10715,
      "##34": 10716,
      "能带": 10717,
      "促进": 10718,
      "##ya": 10719,
      "玩家": 10720,
      "当且": 10721,
      "##截面": 10722,
      "电子邮件": 10723,
      "La": 10724,
      "##对称": 10725,
      "##95": 10726,
      "##odel": 10727,
      "公司": 10728,
      "FP": 10729,
      "管道": 10730,
      "##98": 10731,
      "最好": 10732,
      "信息处理系统": 10733,
      "基金": 10734,
      "Ag": 10735,
      "##句话": 10736,
      "##uss": 10737,
      "Ima": 10738,
      "gr": 10739,
      "boldmath": 10740,
      "掩模": 10741,
      "##ina": 10742,
      "原则": 10743,
      "##atz": 10744,
      "市场": 10745,
      "##76": 10746,
      "##gb": 10747,
      "协会": 10748,
      "底部": 10749,
      "Zhou": 10750,
      "自我": 10751,
      "1994": 10752,
      "欧几": 10753,
      "请求": 10754,
      "欧几里": 10755,
      "专家": 10756,
      "under": 10757,
      "特征向量": 10758,
      "触发": 10759,
      "换句话": 10760,
      "斯特": 10761,
      "##SP": 10762,
      "换句话说": 10763,
      "差距": 10764,
      "104": 10765,
      "eV": 10766,
      "##状态": 10767,
      "是非": 10768,
      "##是说": 10769,
      "##就是说": 10770,
      "由此": 10771,
      "生产": 10772,
      "##NI": 10773,
      "SIAM": 10774,
      "引力波": 10775,
      "en": 10776,
      "也就是说": 10777,
      "插值": 10778,
      "un": 10779,
      "Sun": 10780,
      "van": 10781,
      "所谓": 10782,
      "高维": 10783,
      "##通信": 10784,
      "优点": 10785,
      "##are": 10786,
      "##les": 10787,
      "猜想": 10788,
      "ISSN": 10789,
      "##itt": 10790,
      "Mart": 10791,
      "AD": 10792,
      "飞行": 10793,
      "产品": 10794,
      "##ons": 10795,
      "MA": 10796,
      "perp": 10797,
      "凝聚": 10798,
      "平移": 10799,
      "强子": 10800,
      "##32": 10801,
      "##大利": 10802,
      "尤其": 10803,
      "效用": 10804,
      "爱因": 10805,
      "爱因斯坦": 10806,
      "##尺度": 10807,
      "Math": 10808,
      "轻松": 10809,
      "随机变量": 10810,
      "##MM": 10811,
      "##GD": 10812,
      "计算机科学": 10813,
      "尚未": 10814,
      "均衡": 10815,
      "NL": 10816,
      "前面": 10817,
      "##wn": 10818,
      "Ga": 10819,
      "colon": 10820,
      "片段": 10821,
      "##lin": 10822,
      "NN": 10823,
      "CL": 10824,
      "##速度": 10825,
      "百分": 10826,
      "##为止": 10827,
      "诱导": 10828,
      "Op": 10829,
      "PC": 10830,
      "单一": 10831,
      "铁磁": 10832,
      "##阶段": 10833,
      "总数": 10834,
      "失败": 10835,
      "MIMO": 10836,
      "情感": 10837,
      "http": 10838,
      "高能": 10839,
      "螺旋": 10840,
      "工业": 10841,
      "兼容": 10842,
      "乘法": 10843,
      "翻译": 10844,
      "AdS": 10845,
      "Deep": 10846,
      "##斯特": 10847,
      "##SA": 10848,
      "曲面": 10849,
      "越来": 10850,
      "越来越": 10851,
      "##ker": 10852,
      "指示": 10853,
      "Is": 10854,
      "作品": 10855,
      "Cho": 10856,
      "Commun": 10857,
      "进化": 10858,
      "##kin": 10859,
      "测度": 10860,
      "107": 10861,
      "##97": 10862,
      "拉普": 10863,
      "Bl": 10864,
      "兴趣": 10865,
      "116": 10866,
      "deg": 10867,
      "缓存": 10868,
      "双曲": 10869,
      "eff": 10870,
      "一步": 10871,
      "AC": 10872,
      "改善": 10873,
      "答案": 10874,
      "##fsys": 10875,
      "制定": 10876,
      "潜力": 10877,
      "##her": 10878,
      "还有": 10879,
      "##kov": 10880,
      "pgfsys": 10881,
      "leftarrow": 10882,
      "Kar": 10883,
      "概括": 10884,
      "浓度": 10885,
      "陈述": 10886,
      "回想": 10887,
      "剪切": 10888,
      "Dav": 10889,
      "##BS": 10890,
      "##rix": 10891,
      "时间尺度": 10892,
      "##拉克": 10893,
      "Vi": 10894,
      "拥有": 10895,
      "能级": 10896,
      "合适": 10897,
      "大气": 10898,
      "微观": 10899,
      "蒙特卡罗": 10900,
      "摘要": 10901,
      "后续": 10902,
      "ep": 10903,
      "##ott": 10904,
      "##ace": 10905,
      "有利": 10906,
      "Mon": 10907,
      "英国": 10908,
      "no": 10909,
      "##oul": 10910,
      "##zi": 10911,
      "DA": 10912,
      "##GAN": 10913,
      "SE": 10914,
      "希尔": 10915,
      "只要": 10916,
      "机会": 10917,
      "2n": 10918,
      "##oto": 10919,
      "惩罚": 10920,
      "rgb": 10921,
      "##slant": 10922,
      "客户端": 10923,
      "现代": 10924,
      "We": 10925,
      "条目": 10926,
      "偶极": 10927,
      "邻域": 10928,
      "手动": 10929,
      "astro": 10930,
      "RF": 10931,
      "##56": 10932,
      "Er": 10933,
[...]
